{
  "version": "1.0",
  "truncation": null,
  "padding": null,
  "added_tokens": [
    {
      "id": 0,
      "content": "<unk>",
      "single_word": false,
      "lstrip": false,
      "rstrip": false,
      "normalized": false,
      "special": true
    },
    {
      "id": 1,
      "content": "<bos>",
      "single_word": false,
      "lstrip": false,
      "rstrip": false,
      "normalized": false,
      "special": true
    },
    {
      "id": 2,
      "content": "<eos>",
      "single_word": false,
      "lstrip": false,
      "rstrip": false,
      "normalized": false,
      "special": true
    },
    {
      "id": 3,
      "content": "<pad>",
      "single_word": false,
      "lstrip": false,
      "rstrip": false,
      "normalized": false,
      "special": true
    }
  ],
  "normalizer": null,
  "pre_tokenizer": {
    "type": "ByteLevel",
    "add_prefix_space": false,
    "trim_offsets": true,
    "use_regex": true
  },
  "post_processor": null,
  "decoder": {
    "type": "ByteLevel",
    "add_prefix_space": true,
    "trim_offsets": true,
    "use_regex": true
  },
  "model": {
    "type": "BPE",
    "dropout": null,
    "unk_token": "<unk>",
    "continuing_subword_prefix": null,
    "end_of_word_suffix": null,
    "fuse_unk": false,
    "byte_fallback": false,
    "ignore_merges": false,
    "vocab": {
      "<unk>": 0,
      "<bos>": 1,
      "<eos>": 2,
      "<pad>": 3,
      "!": 4,
      "\"": 5,
      "#": 6,
      "$": 7,
      "%": 8,
      "&": 9,
      "'": 10,
      "(": 11,
      ")": 12,
      "*": 13,
      "+": 14,
      ",": 15,
      "-": 16,
      ".": 17,
      "/": 18,
      "0": 19,
      "1": 20,
      "2": 21,
      "3": 22,
      "4": 23,
      "5": 24,
      "6": 25,
      "7": 26,
      "8": 27,
      "9": 28,
      ":": 29,
      ";": 30,
      "<": 31,
      "=": 32,
      ">": 33,
      "?": 34,
      "@": 35,
      "A": 36,
      "B": 37,
      "C": 38,
      "D": 39,
      "E": 40,
      "F": 41,
      "G": 42,
      "H": 43,
      "I": 44,
      "J": 45,
      "K": 46,
      "L": 47,
      "M": 48,
      "N": 49,
      "O": 50,
      "P": 51,
      "Q": 52,
      "R": 53,
      "S": 54,
      "T": 55,
      "U": 56,
      "V": 57,
      "W": 58,
      "X": 59,
      "Y": 60,
      "Z": 61,
      "[": 62,
      "\\": 63,
      "]": 64,
      "^": 65,
      "_": 66,
      "`": 67,
      "a": 68,
      "b": 69,
      "c": 70,
      "d": 71,
      "e": 72,
      "f": 73,
      "g": 74,
      "h": 75,
      "i": 76,
      "j": 77,
      "k": 78,
      "l": 79,
      "m": 80,
      "n": 81,
      "o": 82,
      "p": 83,
      "q": 84,
      "r": 85,
      "s": 86,
      "t": 87,
      "u": 88,
      "v": 89,
      "w": 90,
      "x": 91,
      "y": 92,
      "z": 93,
      "|": 94,
      "}": 95,
      "~": 96,
      "¡": 97,
      "¢": 98,
      "£": 99,
      "¤": 100,
      "¥": 101,
      "¦": 102,
      "§": 103,
      "¨": 104,
      "©": 105,
      "ª": 106,
      "«": 107,
      "¬": 108,
      "®": 109,
      "¯": 110,
      "°": 111,
      "±": 112,
      "²": 113,
      "³": 114,
      "´": 115,
      "µ": 116,
      "¶": 117,
      "·": 118,
      "¸": 119,
      "¹": 120,
      "º": 121,
      "»": 122,
      "¼": 123,
      "½": 124,
      "¾": 125,
      "¿": 126,
      "Â": 127,
      "Ã": 128,
      "Ä": 129,
      "Å": 130,
      "Æ": 131,
      "Ç": 132,
      "È": 133,
      "É": 134,
      "Ê": 135,
      "Ë": 136,
      "Ì": 137,
      "Í": 138,
      "Î": 139,
      "Ï": 140,
      "Ð": 141,
      "Ñ": 142,
      "Õ": 143,
      "Ö": 144,
      "×": 145,
      "Ø": 146,
      "Ù": 147,
      "Ú": 148,
      "Û": 149,
      "à": 150,
      "á": 151,
      "â": 152,
      "ã": 153,
      "ä": 154,
      "å": 155,
      "æ": 156,
      "ç": 157,
      "è": 158,
      "é": 159,
      "ê": 160,
      "ë": 161,
      "ì": 162,
      "í": 163,
      "ï": 164,
      "ð": 165,
      "Ċ": 166,
      "Ġ": 167,
      "Ģ": 168,
      "ģ": 169,
      "Ĥ": 170,
      "ĥ": 171,
      "Ħ": 172,
      "ħ": 173,
      "Ĩ": 174,
      "ĩ": 175,
      "Ī": 176,
      "ī": 177,
      "Ĭ": 178,
      "ĭ": 179,
      "Į": 180,
      "į": 181,
      "İ": 182,
      "ı": 183,
      "Ĳ": 184,
      "ĳ": 185,
      "Ĵ": 186,
      "ĵ": 187,
      "Ķ": 188,
      "ķ": 189,
      "ĸ": 190,
      "Ĺ": 191,
      "ĺ": 192,
      "Ļ": 193,
      "ļ": 194,
      "Ľ": 195,
      "ľ": 196,
      "Ŀ": 197,
      "ŀ": 198,
      "Ł": 199,
      "ł": 200,
      "Ń": 201,
      "Ġt": 202,
      "Ġa": 203,
      "he": 204,
      "in": 205,
      "re": 206,
      "Ġthe": 207,
      "Ġo": 208,
      "er": 209,
      "on": 210,
      "at": 211,
      "Ġs": 212,
      "en": 213,
      "Ġc": 214,
      "Ġw": 215,
      "es": 216,
      "is": 217,
      "nd": 218,
      "it": 219,
      "or": 220,
      "Ġp": 221,
      "Ġof": 222,
      "ed": 223,
      "al": 224,
      "Ġb": 225,
      "Ġf": 226,
      "an": 227,
      "Ġin": 228,
      "ing": 229,
      "ar": 230,
      "ou": 231,
      "Ġm": 232,
      "Ġand": 233,
      "ic": 234,
      "Ġto": 235,
      "ion": 236,
      "Ġd": 237,
      "le": 238,
      "ro": 239,
      "as": 240,
      "Ġh": 241,
      "ent": 242,
      "Ġth": 243,
      "il": 244,
      "ct": 245,
      "Ġe": 246,
      "Ġre": 247,
      "om": 248,
      "Ġl": 249,
      "Ġn": 250,
      "ve": 251,
      "st": 252,
      "ly": 253,
      "Ġbe": 254,
      "Ġis": 255,
      "ĠT": 256,
      "ol": 257,
      "se": 258,
      "Ġg": 259,
      "ation": 260,
      "id": 261,
      "âĢ": 262,
      "im": 263,
      "ut": 264,
      "ce": 265,
      "ot": 266,
      "et": 267,
      "ĠA": 268,
      "ur": 269,
      "ch": 270,
      "ra": 271,
      "ow": 272,
      "ĠS": 273,
      "Ġfor": 274,
      "ig": 275,
      "Ġthat": 276,
      "Ġon": 277,
      "ĠC": 278,
      "Ġu": 279,
      "ver": 280,
      "ĠI": 281,
      "Ġst": 282,
      "ir": 283,
      "am": 284,
      "ul": 285,
      "ay": 286,
      "ad": 287,
      "el": 288,
      "Ġas": 289,
      "ith": 290,
      "her": 291,
      "Ġy": 292,
      "Ġpro": 293,
      "Ġcon": 294,
      "Ġan": 295,
      "Ġwh": 296,
      "ĠM": 297,
      "Ġwith": 298,
      "Ġare": 299,
      "Ġ1": 300,
      "ter": 301,
      "Ġor": 302,
      "Ġit": 303,
      "if": 304,
      "ĠThe": 305,
      "Ġal": 306,
      "Ġ(": 307,
      "od": 308,
      "ĠP": 309,
      "th": 310,
      "ment": 311,
      "ist": 312,
      "ge": 313,
      "op": 314,
      "ers": 315,
      "ate": 316,
      "Ġde": 317,
      "ĠB": 318,
      "ies": 319,
      "ill": 320,
      "us": 321,
      "Ġyou": 322,
      "Ġhe": 323,
      "ere": 324,
      "ab": 325,
      "Ġex": 326,
      "res": 327,
      "ĠH": 328,
      "um": 329,
      "ess": 330,
      "ity": 331,
      "Ġcom": 332,
      "Ġby": 333,
      "rom": 334,
      "ect": 335,
      "est": 336,
      "ld": 337,
      "ore": 338,
      "and": 339,
      "Ġsu": 340,
      "ac": 341,
      "os": 342,
      "ri": 343,
      "Ġwas": 344,
      "Ġat": 345,
      "em": 346,
      "Ġv": 347,
      "ĠW": 348,
      "nt": 349,
      "ive": 350,
      "ĠD": 351,
      "qu": 352,
      "ain": 353,
      "ke": 354,
      "ant": 355,
      "igh": 356,
      "ĠE": 357,
      "pp": 358,
      "Ġfrom": 359,
      "Ġha": 360,
      "ĠR": 361,
      "ud": 362,
      "ĠF": 363,
      "oc": 364,
      "Ġch": 365,
      "Ġ2": 366,
      "Ġne": 367,
      "iv": 368,
      "ort": 369,
      "Ġse": 370,
      "ĠN": 371,
      "âĢĻ": 372,
      "Ġr": 373,
      "ĠG": 374,
      "un": 375,
      "ure": 376,
      "Ġnot": 377,
      "art": 378,
      "ical": 379,
      "Ġcan": 380,
      "ial": 381,
      "Ġhave": 382,
      "ĠL": 383,
      "00": 384,
      "Ġle": 385,
      "og": 386,
      "Ġsh": 387,
      "Ġen": 388,
      "Ġsp": 389,
      "ich": 390,
      "ight": 391,
      "ĠâĢ": 392,
      "Ġthis": 393,
      "all": 394,
      "rou": 395,
      "ould": 396,
      "Ġab": 397,
      "gh": 398,
      "The": 399,
      "pt": 400,
      "ther": 401,
      "ost": 402,
      "our": 403,
      "Ġwor": 404,
      "Ġwe": 405,
      "ions": 406,
      "ome": 407,
      "ard": 408,
      "ated": 409,
      "ine": 410,
      "ust": 411,
      "ell": 412,
      "out": 413,
      "ĠO": 414,
      "ear": 415,
      "ĠJ": 416,
      "per": 417,
      "ast": 418,
      "Ġtheir": 419,
      "ag": 420,
      "Ġint": 421,
      "ans": 422,
      "Ġus": 423,
      "ff": 424,
      "Ġim": 425,
      "'s": 426,
      "Ġwhich": 427,
      "ĠU": 428,
      "pl": 429,
      "act": 430,
      "Ġpl": 431,
      "Ġk": 432,
      "age": 433,
      "ec": 434,
      "ous": 435,
      "du": 436,
      "ak": 437,
      "ide": 438,
      "ĠIn": 439,
      "are": 440,
      "Ġwhe": 441,
      "ia": 442,
      "ew": 443,
      "Ġall": 444,
      "Ġcont": 445,
      "Ġthey": 446,
      "iz": 447,
      "Ġdis": 448,
      "ong": 449,
      "ib": 450,
      "end": 451,
      "ood": 452,
      "cc": 453,
      "ap": 454,
      "Ġad": 455,
      "ru": 456,
      "Ġhas": 457,
      "ary": 458,
      "Ġmore": 459,
      "Ġinc": 460,
      "vel": 461,
      "ult": 462,
      "Ġwere": 463,
      "ations": 464,
      "ater": 465,
      "Ġwill": 466,
      "ip": 467,
      "orm": 468,
      "Ġcomp": 469,
      "Ġres": 470,
      "Ġ19": 471,
      "Ġ\"": 472,
      "Ġbut": 473,
      "âĢĿ": 474,
      "Ġdo": 475,
      "ire": 476,
      "ild": 477,
      "so": 478,
      "Ġcl": 479,
      "Ġother": 480,
      "ence": 481,
      "Ġper": 482,
      "ry": 483,
      "ual": 484,
      "Ġman": 485,
      "ĠTh": 486,
      "ok": 487,
      "Ġone": 488,
      "able": 489,
      "ep": 490,
      "ose": 491,
      "ind": 492,
      "Ġyour": 493,
      "Ġme": 494,
      "Ġhis": 495,
      "ance": 496,
      "ish": 497,
      "Ġj": 498,
      "ach": 499,
      "Ġar": 500,
      "ass": 501,
      "ack": 502,
      "ress": 503,
      "reat": 504,
      "ign": 505,
      "ents": 506,
      "Ġpart": 507,
      "ber": 508,
      "av": 509,
      "ord": 510,
      "ice": 511,
      "Ġun": 512,
      "Ġte": 513,
      "ame": 514,
      "Ġalso": 515,
      "au": 516,
      "ase": 517,
      "ction": 518,
      "Ġwho": 519,
      "ake": 520,
      "ĠâĢľ": 521,
      "ĠSt": 522,
      "ace": 523,
      "ount": 524,
      "ory": 525,
      "ition": 526,
      "Ġimp": 527,
      "Ġapp": 528,
      "Ġout": 529,
      "Ġso": 530,
      "ub": 531,
      "ime": 532,
      "Ġabout": 533,
      "Ġev": 534,
      "Ġpre": 535,
      ").": 536,
      "ĠK": 537,
      "very": 538,
      "one": 539,
      "mer": 540,
      "Ġinf": 541,
      "ens": 542,
      "ound": 543,
      "ree": 544,
      "olog": 545,
      "Ġstud": 546,
      "ci": 547,
      "ors": 548,
      "Ġpe": 549,
      "ite": 550,
      "Ġyear": 551,
      "ue": 552,
      "Ġup": 553,
      "ces": 554,
      "Ġcomm": 555,
      "ian": 556,
      "Ġthan": 557,
      "Ġbeen": 558,
      "Ġsy": 559,
      "Ġthem": 560,
      "ric": 561,
      "ĠCh": 562,
      "now": 563,
      "ie": 564,
      "Ġmay": 565,
      "ook": 566,
      "ile": 567,
      "Ġbec": 568,
      "ks": 569,
      "ang": 570,
      "low": 571,
      "Ġits": 572,
      "ates": 573,
      "ike": 574,
      "Ġsome": 575,
      "Ġhad": 576,
      "Ġrec": 577,
      "ĠV": 578,
      "Ġag": 579,
      "Ġthere": 580,
      "ĠIt": 581,
      "Ġgo": 582,
      "ail": 583,
      "Ġqu": 584,
      "ays": 585,
      "ough": 586,
      "nder": 587,
      "Ġinto": 588,
      "vers": 589,
      "ons": 590,
      "ph": 591,
      "ople": 592,
      "rit": 593,
      "Ġwhen": 594,
      "erv": 595,
      "ings": 596,
      "tern": 597,
      "iff": 598,
      "Ġtra": 599,
      "ond": 600,
      "rough": 601,
      "ren": 602,
      "Ġ3": 603,
      "Ġthese": 604,
      "Ġover": 605,
      "Ġwould": 606,
      "ms": 607,
      "Ġtw": 608,
      "Ġsa": 609,
      "ally": 610,
      "Ġra": 611,
      "Ġtime": 612,
      "te": 613,
      "irst": 614,
      "Ġind": 615,
      "ove": 616,
      "lic": 617,
      "Ġro": 618,
      "Ġwork": 619,
      "ll": 620,
      "Ġnew": 621,
      "ts": 622,
      "lud": 623,
      "ational": 624,
      "Ġcons": 625,
      "Ġpeople": 626,
      "Ġrep": 627,
      "Ġdes": 628,
      "Ġmost": 629,
      "Ġcol": 630,
      "hed": 631,
      "red": 632,
      "wn": 633,
      "Ġunder": 634,
      "ĠThis": 635,
      "lect": 636,
      "Ġact": 637,
      "ause": 638,
      "ys": 639,
      "ject": 640,
      "Ġhow": 641,
      "Ġbl": 642,
      "Ġknow": 643,
      "we": 644,
      "Ġbet": 645,
      "Ġgen": 646,
      "Ġno": 647,
      "ific": 648,
      "Ġ20": 649,
      "Ġrel": 650,
      "ments": 651,
      "ĠY": 652,
      "ities": 653,
      "velop": 654,
      "Ġdiff": 655,
      "Ġuse": 656,
      "Ġsuch": 657,
      "ĠUn": 658,
      "Ġacc": 659,
      "Ġ200": 660,
      "Ġlike": 661,
      "ob": 662,
      "stem": 663,
      "Ġour": 664,
      "les": 665,
      "Ġchild": 666,
      "),": 667,
      "Ġany": 668,
      "Ġ-": 669,
      "Ġif": 670,
      "Ġtr": 671,
      "Ġfirst": 672,
      "ative": 673,
      "ning": 674,
      "Ġonly": 675,
      "ious": 676,
      "Ġprov": 677,
      "Ġoff": 678,
      "ular": 679,
      "ced": 680,
      "alth": 681,
      "Ġeff": 682,
      "ool": 683,
      "iss": 684,
      "Ġinclud": 685,
      "ple": 686,
      "Ġtwo": 687,
      "ath": 688,
      "Ġph": 689,
      "Ġam": 690,
      "ov": 691,
      "ĠHe": 692,
      "Ġwhat": 693,
      "Ġreg": 694,
      "Ġneed": 695,
      "rib": 696,
      "Ġthrough": 697,
      "Ġmany": 698,
      "ne": 699,
      "int": 700,
      "fter": 701,
      "erm": 702,
      "Ġspec": 703,
      "Ġused": 704,
      "oss": 705,
      "uc": 706,
      "Ġpo": 707,
      "ied": 708,
      "Ġexp": 709,
      "Ġdevelop": 710,
      "ating": 711,
      "cess": 712,
      "Ġprodu": 713,
      "Ġac": 714,
      "round": 715,
      "hen": 716,
      "ise": 717,
      "uring": 718,
      "ink": 719,
      "Ġem": 720,
      "Ġob": 721,
      "als": 722,
      "Ġatt": 723,
      "iet": 724,
      "Ġsur": 725,
      "Ġsc": 726,
      "ark": 727,
      "ics": 728,
      "Ġyears": 729,
      "rop": 730,
      "ife": 731,
      "ower": 732,
      "old": 733,
      "Ġsystem": 734,
      "yp": 735,
      "ful": 736,
      "land": 737,
      "oth": 738,
      "sel": 739,
      "arch": 740,
      "ility": 741,
      "aw": 742,
      "Ġdec": 743,
      "ert": 744,
      "ible": 745,
      "Ġhel": 746,
      "Ġ4": 747,
      "row": 748,
      "ade": 749,
      "Ġass": 750,
      "ten": 751,
      "cy": 752,
      "ased": 753,
      "Ġfe": 754,
      "gan": 755,
      "Ġpr": 756,
      "Ġwater": 757,
      "ited": 758,
      "meric": 759,
      "ng": 760,
      "ram": 761,
      "ange": 762,
      "own": 763,
      "Ġrem": 764,
      "Ġadd": 765,
      "Ġhelp": 766,
      "ution": 767,
      "ble": 768,
      "Ġcould": 769,
      "In": 770,
      "Ġshould": 771,
      "fore": 772,
      "Ġpres": 773,
      "Ġinv": 774,
      "Ġco": 775,
      "Ġfl": 776,
      "Ġsub": 777,
      "Ġ18": 778,
      "ween": 779,
      "ures": 780,
      "ident": 781,
      "ered": 782,
      "Ġsupp": 783,
      "eth": 784,
      "Ġdiffere": 785,
      "Ġinter": 786,
      "ists": 787,
      "ily": 788,
      "ology": 789,
      "uch": 790,
      "hes": 791,
      "Ġpol": 792,
      "Ġwhere": 793,
      "Ġ5": 794,
      "Ġher": 795,
      "Ġwell": 796,
      "Ġbetween": 797,
      "Ġear": 798,
      "chool": 799,
      "ĠAs": 800,
      "Ġrese": 801,
      "ick": 802,
      "Ġ201": 803,
      "its": 804,
      "ĠAmeric": 805,
      "Ġsm": 806,
      "..": 807,
      "Ġcent": 808,
      "ormation": 809,
      "xt": 810,
      "ivers": 811,
      "Ġsaid": 812,
      "chn": 813,
      "ract": 814,
      "ever": 815,
      "gy": 816,
      "Ġhigh": 817,
      "ont": 818,
      "Ġfound": 819,
      "Ġcount": 820,
      "ants": 821,
      "Ġnum": 822,
      "ft": 823,
      "ict": 824,
      "Ġtrans": 825,
      "vern": 826,
      "ins": 827,
      "Ġform": 828,
      "ural": 829,
      "Ġref": 830,
      "Ġpers": 831,
      "urn": 832,
      "Ġmod": 833,
      "Ġlar": 834,
      "Ġmed": 835,
      "ism": 836,
      "Ġhum": 837,
      "Ġbu": 838,
      "Ġlong": 839,
      "itt": 840,
      "ines": 841,
      "other": 842,
      "ature": 843,
      "Ġafter": 844,
      "Ġmake": 845,
      "Ġthen": 846,
      "Ġpub": 847,
      "Ġworld": 848,
      "Ġget": 849,
      "Ġexam": 850,
      "Ġjust": 851,
      "Ġinst": 852,
      "ually": 853,
      "Ġcall": 854,
      "Ġed": 855,
      "oy": 856,
      "Ġthose": 857,
      "ef": 858,
      "Ġdisc": 859,
      "cept": 860,
      "ĠâĢĵ": 861,
      "vent": 862,
      "Ġeven": 863,
      "ved": 864,
      "Ġhealth": 865,
      "Ġbecause": 866,
      "Ġvery": 867,
      "omm": 868,
      "Ġimport": 869,
      "Ġdet": 870,
      "cent": 871,
      "Ġext": 872,
      "ork": 873,
      "eral": 874,
      "Ġeffect": 875,
      "ically": 876,
      "Ġsee": 877,
      "Ġdef": 878,
      "Ġincre": 879,
      "Ġway": 880,
      "iew": 881,
      "Ġloc": 882,
      "roup": 883,
      "Ġsim": 884,
      "Th": 885,
      "Ġfol": 886,
      "ward": 887,
      "get": 888,
      "Ġfam": 889,
      "aking": 890,
      "Ġsign": 891,
      "Ġcar": 892,
      "Ġdist": 893,
      "ases": 894,
      "cer": 895,
      "Ġmy": 896,
      "Ġprog": 897,
      "ĠPro": 898,
      "Ġbeing": 899,
      "Ġresp": 900,
      "Ġinformation": 901,
      "ds": 902,
      "Ġchildren": 903,
      ".\"": 904,
      "ives": 905,
      "Ġexper": 906,
      "arm": 907,
      "ĠWh": 908,
      "ness": 909,
      "ck": 910,
      "Ġfact": 911,
      "Ġmuch": 912,
      "Ġsec": 913,
      "ather": 914,
      "Ġshe": 915,
      "led": 916,
      "imes": 917,
      "Ġright": 918,
      "Ġdifferent": 919,
      "ues": 920,
      "Ġca": 921,
      "ĠAl": 922,
      "Ġart": 923,
      "Ġmade": 924,
      "Ġpat": 925,
      "Ġcommun": 926,
      "Ġpartic": 927,
      "ros": 928,
      "Ġgra": 929,
      "Ġlife": 930,
      "Ġcell": 931,
      "Ġsame": 932,
      "Ġevery": 933,
      "Ġown": 934,
      "io": 935,
      "Ġduring": 936,
      "Ġeach": 937,
      "ata": 938,
      "ruct": 939,
      "Ġtechn": 940,
      "Ġent": 941,
      "con": 942,
      "Ġmon": 943,
      "ages": 944,
      "Ġdep": 945,
      "ars": 946,
      "Ġ6": 947,
      ".âĢĿ": 948,
      "Ġresult": 949,
      "Ġaut": 950,
      "Ġset": 951,
      "Ġke": 952,
      "iron": 953,
      "und": 954,
      "Ġback": 955,
      "orn": 956,
      "||": 957,
      "the": 958,
      "Ġtyp": 959,
      "Ġsci": 960,
      "Ġvar": 961,
      "ince": 962,
      "any": 963,
      "Ġlear": 964,
      "iversity": 965,
      "Ġend": 966,
      "ĠNew": 967,
      "Ġhim": 968,
      "000": 969,
      "Ġpop": 970,
      "ized": 971,
      "Ġfollow": 972,
      "ĠThey": 973,
      "ĠWe": 974,
      "gg": 975,
      "Ġsoc": 976,
      "Ġhist": 977,
      "Ġschool": 978,
      "Ġcre": 979,
      "Ġrequ": 980,
      "ĠAn": 981,
      "Ġagain": 982,
      "ĠAr": 983,
      "Ġmin": 984,
      "Ġread": 985,
      "Ġlead": 986,
      "eg": 987,
      "hip": 988,
      "omen": 989,
      "Ġlevel": 990,
      "19": 991,
      "Ġgovern": 992,
      "ished": 993,
      "ran": 994,
      "ting": 995,
      "Ġnow": 996,
      "ection": 997,
      "Ġstate": 998,
      "Ġgroup": 999,
      "ex": 1000,
      "ody": 1001,
      "Ġprocess": 1002,
      "Ġsk": 1003,
      "Ġdoes": 1004,
      "Ġshow": 1005,
      "ĠFor": 1006,
      "Ġstudy": 1007,
      "ty": 1008,
      "ute": 1009,
      "Ġins": 1010,
      "ven": 1011,
      "ale": 1012,
      "Ġfind": 1013,
      "Ġcur": 1014,
      "ury": 1015,
      "Ġboth": 1016,
      "Ġimportant": 1017,
      "Ġbefore": 1018,
      "ergy": 1019,
      "ize": 1020,
      "Ġgood": 1021,
      "ices": 1022,
      "ined": 1023,
      "Ġproble": 1024,
      "Ġstudents": 1025,
      "form": 1026,
      "ĠInd": 1027,
      "Ġsmall": 1028,
      "Ġcomple": 1029,
      "read": 1030,
      "irect": 1031,
      "oh": 1032,
      "Ġche": 1033,
      "Ġmem": 1034,
      "Ġfood": 1035,
      "Ġpower": 1036,
      "Ġav": 1037,
      "ĠIf": 1038,
      "viron": 1039,
      "Ġstr": 1040,
      "Ġexpl": 1041,
      "Ġperson": 1042,
      "ient": 1043,
      "ral": 1044,
      "inal": 1045,
      "ax": 1046,
      "ix": 1047,
      "nce": 1048,
      "Ġdise": 1049,
      "Ġocc": 1050,
      "ving": 1051,
      "imate": 1052,
      "Ġdi": 1053,
      "ands": 1054,
      "rol": 1055,
      "Ġthree": 1056,
      "Ġgl": 1057,
      "Ġtreat": 1058,
      "ron": 1059,
      "Ġ7": 1060,
      "iel": 1061,
      "ially": 1062,
      "Ġlook": 1063,
      "der": 1064,
      "Ġtest": 1065,
      "Ġdid": 1066,
      "ĠSp": 1067,
      "Ġprovid": 1068,
      "ah": 1069,
      "Ġposs": 1070,
      "Ġorgan": 1071,
      "ĠIs": 1072,
      "hers": 1073,
      "Ġoften": 1074,
      "Ġnumber": 1075,
      "Ġhuman": 1076,
      "ves": 1077,
      "up": 1078,
      "air": 1079,
      "ee": 1080,
      "ital": 1081,
      "ulation": 1082,
      "Ġwhile": 1083,
      "Ġ199": 1084,
      "Ġless": 1085,
      "Ġreport": 1086,
      "Ġprot": 1087,
      "Ġresearch": 1088,
      "Ġbel": 1089,
      "cl": 1090,
      "ĠBut": 1091,
      "Ġcontin": 1092,
      "'t": 1093,
      "Ġusing": 1094,
      "Ġserv": 1095,
      "Ġest": 1096,
      "Ġdown": 1097,
      "Ġvis": 1098,
      "Ġday": 1099,
      "ected": 1100,
      "ivid": 1101,
      "Ġ10": 1102,
      "ters": 1103,
      "self": 1104,
      "Ġgrow": 1105,
      "âĢĶ": 1106,
      "Ġser": 1107,
      "aj": 1108,
      "vironment": 1109,
      "Ġgreat": 1110,
      "Ġmain": 1111,
      "Ġchar": 1112,
      "ency": 1113,
      "ier": 1114,
      "Ġtake": 1115,
      "ave": 1116,
      "ouse": 1117,
      "Ġlarge": 1118,
      "day": 1119,
      ".,": 1120,
      "ock": 1121,
      "ains": 1122,
      "Ġval": 1123,
      "ared": 1124,
      "ring": 1125,
      "Ġcalled": 1126,
      "Ġsol": 1127,
      "outh": 1128,
      "ĠHow": 1129,
      "stit": 1130,
      "Ġelect": 1131,
      "uss": 1132,
      "rent": 1133,
      "Ġdata": 1134,
      "Ġret": 1135,
      "dition": 1136,
      "ination": 1137,
      "Ġmust": 1138,
      "Ġ8": 1139,
      "Ġcour": 1140,
      "stand": 1141,
      "Ġpublic": 1142,
      "akes": 1143,
      "Ġconf": 1144,
      ",\"": 1145,
      "Ġaround": 1146,
      "Ġfun": 1147,
      "Ġclass": 1148,
      "Ġcommon": 1149,
      "way": 1150,
      "Ġris": 1151,
      "Ġdesign": 1152,
      "ality": 1153,
      "bers": 1154,
      "Ġplan": 1155,
      "Ġsupport": 1156,
      "Ġthough": 1157,
      "lear": 1158,
      "Ġexample": 1159,
      "ull": 1160,
      "Ġconsid": 1161,
      "ross": 1162,
      "orth": 1163,
      "Ġactiv": 1164,
      "iety": 1165,
      "Wh": 1166,
      "ead": 1167,
      "ians": 1168,
      "ĠAmerican": 1169,
      "itions": 1170,
      "iqu": 1171,
      "com": 1172,
      "osed": 1173,
      "oun": 1174,
      "ash": 1175,
      "ior": 1176,
      "ĠUniversity": 1177,
      "Ġstill": 1178,
      "Ġ9": 1179,
      "ger": 1180,
      "Ġknown": 1181,
      "ĠAnd": 1182,
      "Ġop": 1183,
      "illion": 1184,
      "Ġequ": 1185,
      "Ġsom": 1186,
      "Ġgovernment": 1187,
      "ton": 1188,
      "Ġgener": 1189,
      "20": 1190,
      "Ġbody": 1191,
      "Ġaff": 1192,
      "Ġmet": 1193,
      "conom": 1194,
      "Ġthink": 1195,
      "This": 1196,
      "Ġwrit": 1197,
      "erest": 1198,
      "Ġincluding": 1199,
      "Ġeduc": 1200,
      "Ġbo": 1201,
      "Ġbook": 1202,
      "acter": 1203,
      "ional": 1204,
      "Ġredu": 1205,
      "Ġadv": 1206,
      "man": 1207,
      "Ġstart": 1208,
      "Ġcare": 1209,
      "Ġplace": 1210,
      "Ġlaw": 1211,
      "Ġgre": 1212,
      "Ġallow": 1213,
      "oci": 1214,
      "esp": 1215,
      "ted": 1216,
      "to": 1217,
      "Ġcor": 1218,
      "Ġfew": 1219,
      "Ġmat": 1220,
      "ĠCon": 1221,
      "amp": 1222,
      "Ġmight": 1223,
      ",âĢĿ": 1224,
      "Ġtem": 1225,
      "10": 1226,
      "iod": 1227,
      "ense": 1228,
      "raph": 1229,
      "Ġmil": 1230,
      "Ġenergy": 1231,
      "ris": 1232,
      "ization": 1233,
      "Ġcap": 1234,
      "Ġwithout": 1235,
      "ĠThere": 1236,
      "ries": 1237,
      "lish": 1238,
      "Ġdirect": 1239,
      "Ġappro": 1240,
      "Ġgu": 1241,
      "ources": 1242,
      "âĢĵ": 1243,
      "els": 1244,
      "Ġquest": 1245,
      "ids": 1246,
      "Ġpercent": 1247,
      "ired": 1248,
      "Ġbuild": 1249,
      "less": 1250,
      "âĢľ": 1251,
      "Ġwomen": 1252,
      "Ġbeh": 1253,
      "ording": 1254,
      "iving": 1255,
      "de": 1256,
      "me": 1257,
      "Ġchang": 1258,
      "ĠDe": 1259,
      "Ġpresent": 1260,
      "rain": 1261,
      "Ġanother": 1262,
      "Ġdisease": 1263,
      "Ġdem": 1264,
      "ium": 1265,
      "Ġide": 1266,
      "Ġland": 1267,
      "Ġsl": 1268,
      "Ġdesc": 1269,
      "arent": 1270,
      "ertain": 1271,
      "ĠEng": 1272,
      "ason": 1273,
      "ĠAt": 1274,
      "Ġrest": 1275,
      "ration": 1276,
      "aterial": 1277,
      "Ġagainst": 1278,
      "iven": 1279,
      "lished": 1280,
      "Ġenvironment": 1281,
      "eng": 1282,
      "Ġinterest": 1283,
      "ug": 1284,
      "Ġwithin": 1285,
      "ering": 1286,
      "ĠUnited": 1287,
      "Ġident": 1288,
      "Ġchange": 1289,
      "Ġcaus": 1290,
      "Ġphys": 1291,
      "ission": 1292,
      "Ġbelie": 1293,
      "ained": 1294,
      "ĠSe": 1295,
      "ajor": 1296,
      "Ġpass": 1297,
      "gin": 1298,
      "Ġeas": 1299,
      "rist": 1300,
      "Ġwar": 1301,
      "Ġiss": 1302,
      "ĠCol": 1303,
      "ccess": 1304,
      "Ġdevelopment": 1305,
      "Ġstand": 1306,
      "Ġearly": 1307,
      "ived": 1308,
      "ividual": 1309,
      "Ġeconom": 1310,
      "irc": 1311,
      "ability": 1312,
      "az": 1313,
      "here": 1314,
      "ĠThese": 1315,
      "ern": 1316,
      "hor": 1317,
      "Ġ&": 1318,
      "Ġeng": 1319,
      "Ġpract": 1320,
      "ĠComm": 1321,
      "Ġarea": 1322,
      "ified": 1323,
      "Ġlight": 1324,
      "ĠPh": 1325,
      "ats": 1326,
      "att": 1327,
      "ets": 1328,
      "rodu": 1329,
      "Ġnear": 1330,
      "itive": 1331,
      "Ġleg": 1332,
      "Ġsay": 1333,
      "ator": 1334,
      "Ġmar": 1335,
      "ption": 1336,
      "atural": 1337,
      "Ġanim": 1338,
      "Ġunderstand": 1339,
      "ential": 1340,
      "oms": 1341,
      "Ġcontrol": 1342,
      "Ġbre": 1343,
      "line": 1344,
      "ret": 1345,
      "Ġpar": 1346,
      "ĠCan": 1347,
      "ner": 1348,
      "alk": 1349,
      "Ġbro": 1350,
      "Ġimm": 1351,
      "Ġbas": 1352,
      "ik": 1353,
      "Ġlast": 1354,
      "ĠSh": 1355,
      "ĠYou": 1356,
      "Ġhistory": 1357,
      "ĠAd": 1358,
      "Ġcells": 1359,
      "Ġfamily": 1360,
      "Ġold": 1361,
      "ological": 1362,
      "iver": 1363,
      "ank": 1364,
      "Ġunt": 1365,
      "ĠRe": 1366,
      "ently": 1367,
      "Ġexperi": 1368,
      "Ġsever": 1369,
      "Ġsays": 1370,
      "Ġhand": 1371,
      "Ġpur": 1372,
      "Ġsecond": 1373,
      "Ġpoint": 1374,
      "Ġmaterial": 1375,
      "ĠâĢĶ": 1376,
      "Ġscient": 1377,
      "agn": 1378,
      "Ġwant": 1379,
      "It": 1380,
      "Ġprof": 1381,
      "ned": 1382,
      "Ġopp": 1383,
      "ote": 1384,
      "Ġpot": 1385,
      "bs": 1386,
      "Ġ15": 1387,
      "Ġant": 1388,
      "Ġlow": 1389,
      "Ġproduct": 1390,
      "osp": 1391,
      "ĠStates": 1392,
      "Ġmus": 1393,
      "Ġve": 1394,
      "Ġdon": 1395,
      "Ġsocial": 1396,
      "ittle": 1397,
      "atic": 1398,
      "Ġindividual": 1399,
      "Ġproject": 1400,
      "Ġinclude": 1401,
      "arc": 1402,
      "Ġblood": 1403,
      "Ġprogram": 1404,
      "use": 1405,
      "Ġfore": 1406,
      "Ġoper": 1407,
      "ethod": 1408,
      "Ġoccur": 1409,
      "ield": 1410,
      "Ġpos": 1411,
      "ining": 1412,
      "ina": 1413,
      "rap": 1414,
      "Ġmajor": 1415,
      "Ġbecome": 1416,
      "ĠGod": 1417,
      "Ġter": 1418,
      "angu": 1419,
      "sp": 1420,
      "ograph": 1421,
      "cing": 1422,
      "Ġcountry": 1423,
      "Ġparticular": 1424,
      "eed": 1425,
      "Ġavail": 1426,
      "Ġhome": 1427,
      "ĠNational": 1428,
      "Ġorig": 1429,
      "Ġspecies": 1430,
      "Ġben": 1431,
      "omp": 1432,
      "Ġmark": 1433,
      "Ġorder": 1434,
      "of": 1435,
      "Ġconst": 1436,
      "Ġele": 1437,
      "Ġsit": 1438,
      "Ġsince": 1439,
      "Ġhere": 1440,
      "Ġcult": 1441,
      "Ġseveral": 1442,
      "Ġmeas": 1443,
      "Ġtre": 1444,
      "ames": 1445,
      "ories": 1446,
      "Ġprovide": 1447,
      "though": 1448,
      "ences": 1449,
      "Ġmen": 1450,
      "ision": 1451,
      "Ġcurrent": 1452,
      "Ġmove": 1453,
      "Ġsym": 1454,
      "inc": 1455,
      "oid": 1456,
      "sy": 1457,
      "Ġtoo": 1458,
      "ards": 1459,
      "Ġlim": 1460,
      "ource": 1461,
      "Ġfour": 1462,
      "idence": 1463,
      "Ġplay": 1464,
      "Ġpain": 1465,
      "Ġdev": 1466,
      "ify": 1467,
      "Ġprom": 1468,
      "Ġpolit": 1469,
      "Ġ[": 1470,
      "Ġtop": 1471,
      "ĠRes": 1472,
      "iter": 1473,
      "Ġ17": 1474,
      "ww": 1475,
      "ention": 1476,
      "Ġbest": 1477,
      "Ġproper": 1478,
      "gen": 1479,
      "Ġname": 1480,
      "Ġinvol": 1481,
      "urop": 1482,
      "ĠZ": 1483,
      "ĠWhen": 1484,
      "ĠEx": 1485,
      "Ġ'": 1486,
      "Ġprop": 1487,
      "Ġmeans": 1488,
      "Ġet": 1489,
      "ples": 1490,
      "12": 1491,
      "Ġtri": 1492,
      "ĠCl": 1493,
      "Ġrisk": 1494,
      "Ġfar": 1495,
      "iness": 1496,
      "Ġlater": 1497,
      "Ġimpro": 1498,
      "Ġpossible": 1499,
      "Ġel": 1500,
      "ably": 1501,
      "Ġperiod": 1502,
      "Ġfre": 1503,
      "Ġhig": 1504,
      "ĠHowever": 1505,
      "lu": 1506,
      "ĠâĢĺ": 1507,
      "ways": 1508,
      "ole": 1509,
      "Ġopen": 1510,
      "ĠEn": 1511,
      "ended": 1512,
      "Ġtimes": 1513,
      "Ġreal": 1514,
      "une": 1515,
      "Ġlocal": 1516,
      "tt": 1517,
      "resent": 1518,
      "Ġaddition": 1519,
      "view": 1520,
      "Ġtreatment": 1521,
      "ĠAf": 1522,
      "Ġfin": 1523,
      "Ġpri": 1524,
      "Ġamong": 1525,
      "Ġ.": 1526,
      "ĠCent": 1527,
      "Ġview": 1528,
      "Ġair": 1529,
      "Ġobject": 1530,
      "Ġanal": 1531,
      "ged": 1532,
      "Ġavailable": 1533,
      "ĠQ": 1534,
      "Ġpress": 1535,
      "Ġbetter": 1536,
      "ills": 1537,
      "Ġmethod": 1538,
      "Ġrece": 1539,
      "Ġareas": 1540,
      "Ġsuccess": 1541,
      "18": 1542,
      "par": 1543,
      "ĠChrist": 1544,
      "Ġhapp": 1545,
      "urope": 1546,
      "ients": 1547,
      "ternational": 1548,
      "Ġkeep": 1549,
      "Ġsaf": 1550,
      "Ġnon": 1551,
      "rid": 1552,
      "Ġpost": 1553,
      "Ġcertain": 1554,
      "Ġbir": 1555,
      "Ġuntil": 1556,
      "ental": 1557,
      "Ġfollowing": 1558,
      "ohn": 1559,
      "olution": 1560,
      "Ġcentury": 1561,
      "Ġ16": 1562,
      "Ġable": 1563,
      "Ġrun": 1564,
      "Ġothers": 1565,
      "Ġlittle": 1566,
      "Ġcond": 1567,
      "Ġ$": 1568,
      "Ġbased": 1569,
      "Ġperform": 1570,
      "ek": 1571,
      "icle": 1572,
      "abor": 1573,
      "ised": 1574,
      "ĠPl": 1575,
      "Ġ12": 1576,
      "ĠMed": 1577,
      "ither": 1578,
      "Ġmean": 1579,
      "not": 1580,
      "Ġput": 1581,
      "Ġcause": 1582,
      "Ġbi": 1583,
      "ploy": 1584,
      "Ġthings": 1585,
      "Ġfree": 1586,
      "Ġhead": 1587,
      "Ġcost": 1588,
      "Ġstruct": 1589,
      "por": 1590,
      "Ġmonth": 1591,
      "urther": 1592,
      "Ġgiven": 1593,
      "ling": 1594,
      "Ġcal": 1595,
      "ware": 1596,
      "ĠOr": 1597,
      "ilar": 1598,
      "ggest": 1599,
      "Ġdel": 1600,
      "over": 1601,
      "aken": 1602,
      "ĠBrit": 1603,
      "Ġrad": 1604,
      "ĠEurope": 1605,
      "ĠTo": 1606,
      "Ġturn": 1607,
      "Ġcase": 1608,
      "ĠEar": 1609,
      "Ġseem": 1610,
      "ends": 1611,
      "ym": 1612,
      "Ġcome": 1613,
      "Ġlangu": 1614,
      "ething": 1615,
      "Ġsignific": 1616,
      "Ġfac": 1617,
      "Ġshort": 1618,
      "Ġdeterm": 1619,
      "rim": 1620,
      "face": 1621,
      "Ġprevent": 1622,
      "cial": 1623,
      "Ġage": 1624,
      "be": 1625,
      "Ġaccess": 1626,
      "We": 1627,
      "ĠAfric": 1628,
      "Ġnatural": 1629,
      "unt": 1630,
      "Ġsuggest": 1631,
      "Ġproblems": 1632,
      "Ġmillion": 1633,
      "...": 1634,
      "Ġsing": 1635,
      "Ġlist": 1636,
      "Ġobs": 1637,
      "ĠOn": 1638,
      "work": 1639,
      "ope": 1640,
      "ley": 1641,
      "Ġ198": 1642,
      "ured": 1643,
      "Ġsw": 1644,
      "Ġauthor": 1645,
      "Ġbenef": 1646,
      "ĠAll": 1647,
      "ately": 1648,
      "Ġlet": 1649,
      "aps": 1650,
      "alf": 1651,
      "ots": 1652,
      "atory": 1653,
      "ogn": 1654,
      "15": 1655,
      "Ġpopulation": 1656,
      "Ġproblem": 1657,
      "pect": 1658,
      "aim": 1659,
      "etic": 1660,
      "Ġappear": 1661,
      "ler": 1662,
      "ones": 1663,
      "Ġassoci": 1664,
      "Ġbus": 1665,
      "Ġabove": 1666,
      "ored": 1667,
      "aster": 1668,
      "Ġplant": 1669,
      "Ġamount": 1670,
      "Ġflow": 1671,
      "ication": 1672,
      "Ġdeath": 1673,
      "Ġrecord": 1674,
      "Ġyoung": 1675,
      "Ġheart": 1676,
      "Ġhard": 1677,
      "orts": 1678,
      "Ġsomething": 1679,
      "uture": 1680,
      "Ġalong": 1681,
      "orld": 1682,
      "ĠUS": 1683,
      "Ġdays": 1684,
      "idd": 1685,
      "Ġspace": 1686,
      "Ġlevels": 1687,
      "Ġclear": 1688,
      "elf": 1689,
      "Ġdra": 1690,
      "Ġconn": 1691,
      "aper": 1692,
      "ĠBe": 1693,
      "--": 1694,
      "Ġcomput": 1695,
      "Ġcirc": 1696,
      "ression": 1697,
      "Ġtemper": 1698,
      "Ġvol": 1699,
      "let": 1700,
      "Ġcomb": 1701,
      "ides": 1702,
      "nal": 1703,
      "ĠWar": 1704,
      "ued": 1705,
      "Ġdescrib": 1706,
      "rate": 1707,
      "Ġindust": 1708,
      "Ġrele": 1709,
      "ĠJohn": 1710,
      "app": 1711,
      "Ġeducation": 1712,
      "ances": 1713,
      "Ġinvest": 1714,
      "ĠSci": 1715,
      "Ġcrit": 1716,
      "Ġcommunity": 1717,
      "ators": 1718,
      "vious": 1719,
      "ocus": 1720,
      "As": 1721,
      "obal": 1722,
      "most": 1723,
      "hem": 1724,
      "Ġleft": 1725,
      "ĠTe": 1726,
      "Ġhowever": 1727,
      "11": 1728,
      "Ġlikely": 1729,
      "ales": 1730,
      "edi": 1731,
      "Ġestab": 1732,
      "by": 1733,
      "Ġmult": 1734,
      "Ġbecame": 1735,
      "Ġpast": 1736,
      "Ġill": 1737,
      "Ġdri": 1738,
      "Ġside": 1739,
      "pr": 1740,
      "for": 1741,
      "Ġ197": 1742,
      "Ġfeel": 1743,
      "Ġexist": 1744,
      "50": 1745,
      "Ġfunction": 1746,
      "Ġparent": 1747,
      "Ġlo": 1748,
      "Ġnext": 1749,
      "Ġwords": 1750,
      "Ġfil": 1751,
      "ude": 1752,
      "Ġleast": 1753,
      "mber": 1754,
      "ember": 1755,
      "ledge": 1756,
      "aining": 1757,
      "ortun": 1758,
      "rug": 1759,
      "Ġspecial": 1760,
      "Ġnever": 1761,
      "Ġmaking": 1762,
      "200": 1763,
      "icult": 1764,
      "Ġcancer": 1765,
      "Ġtechnology": 1766,
      "Ġcourse": 1767,
      "ray": 1768,
      "Ġmot": 1769,
      "Ġbegin": 1770,
      "oph": 1771,
      "min": 1772,
      "isc": 1773,
      "selves": 1774,
      "Ġresearc": 1775,
      "Ġtoday": 1776,
      "Ġconditions": 1777,
      "erc": 1778,
      "If": 1779,
      "ending": 1780,
      "ape": 1781,
      "ode": 1782,
      "ĠSc": 1783,
      "ours": 1784,
      "Ġlearning": 1785,
      "Ġdr": 1786,
      "oman": 1787,
      "val": 1788,
      "Ġtype": 1789,
      "Ġdue": 1790,
      "Ġer": 1791,
      "Ġteac": 1792,
      "Ġnecess": 1793,
      "Ġlearn": 1794,
      "Ġtru": 1795,
      "ung": 1796,
      "sw": 1797,
      "NA": 1798,
      "Ġask": 1799,
      "Ġcho": 1800,
      "oint": 1801,
      "yd": 1802,
      "Ġcharacter": 1803,
      "Ġchanges": 1804,
      "Ġrepresent": 1805,
      "ument": 1806,
      "Ġtoget": 1807,
      "Ġusually": 1808,
      "Ġtogether": 1809,
      "Ġur": 1810,
      "Ġaway": 1811,
      "Ġ0": 1812,
      "ruction": 1813,
      "Ġcountries": 1814,
      "wh": 1815,
      "Ġcreat": 1816,
      "asing": 1817,
      "ĠNorth": 1818,
      "enn": 1819,
      "ormal": 1820,
      "reen": 1821,
      "What": 1822,
      "Ġsignificant": 1823,
      "right": 1824,
      "Ġcases": 1825,
      "Ġoffic": 1826,
      "lement": 1827,
      "ecially": 1828,
      "Ġenc": 1829,
      "Ġdam": 1830,
      "Ġvir": 1831,
      "ively": 1832,
      "Ġline": 1833,
      "erence": 1834,
      "Ġ14": 1835,
      "Ġsum": 1836,
      "Ġenough": 1837,
      "Ġkind": 1838,
      "30": 1839,
      "Ġprim": 1840,
      "Ġgeneral": 1841,
      "Ġfuture": 1842,
      "ĠSo": 1843,
      "ĠWhat": 1844,
      "eb": 1845,
      "Ġapplic": 1846,
      "Ġchem": 1847,
      "Ġsystems": 1848,
      "ribut": 1849,
      "Ġrespons": 1850,
      "Ġstrong": 1851,
      "Ġincrease": 1852,
      "St": 1853,
      "ĠYork": 1854,
      "yn": 1855,
      "ilt": 1856,
      "cle": 1857,
      "itor": 1858,
      "Ġgr": 1859,
      "Ġterm": 1860,
      "Ġmov": 1861,
      "Ġmembers": 1862,
      "Ġgive": 1863,
      "Ġplac": 1864,
      "Ġcomplete": 1865,
      "son": 1866,
      "Ġalways": 1867,
      "Ġbehav": 1868,
      "Ġhigher": 1869,
      "Ġcity": 1870,
      "ird": 1871,
      "\".": 1872,
      "ĠCar": 1873,
      "Ġacross": 1874,
      "ox": 1875,
      "especially": 1876,
      "Ġspecific": 1877,
      "ges": 1878,
      "Ġfocus": 1879,
      "Ġimpact": 1880,
      "Ġpolitical": 1881,
      "duct": 1882,
      "Ġey": 1883,
      "There": 1884,
      "Ġhaving": 1885,
      "ivil": 1886,
      "oot": 1887,
      "af": 1888,
      "Ġsuff": 1889,
      "ĠGo": 1890,
      "Ġresults": 1891,
      "Ġsimilar": 1892,
      "Ġlanguage": 1893,
      "ĠSoc": 1894,
      "ĠMar": 1895,
      "atch": 1896,
      "ĠGen": 1897,
      "Ġdiscuss": 1898,
      "Ġcolle": 1899,
      "ott": 1900,
      "ches": 1901,
      "ilities": 1902,
      "Ġfund": 1903,
      "oney": 1904,
      "Ġnet": 1905,
      "omes": 1906,
      "Ġprofess": 1907,
      "ush": 1908,
      "ĠGe": 1909,
      "Ġdifficult": 1910,
      "ane": 1911,
      "ĠGerm": 1912,
      "istic": 1913,
      "Ġlower": 1914,
      "ĠMay": 1915,
      "Ġvarious": 1916,
      "ique": 1917,
      "Ġsubject": 1918,
      "Ġstudies": 1919,
      "Ġz": 1920,
      "Ġfull": 1921,
      "ipp": 1922,
      "ĠJew": 1923,
      "eter": 1924,
      "Ġrather": 1925,
      "ĠEarth": 1926,
      "Ġnational": 1927,
      "urch": 1928,
      "Ġworks": 1929,
      "ready": 1930,
      "Ġground": 1931,
      "Ġsite": 1932,
      "ĠWorld": 1933,
      "Ġinflu": 1934,
      "agement": 1935,
      "Ġconsider": 1936,
      "ires": 1937,
      "Ġess": 1938,
      "Ġclose": 1939,
      "Ġ30": 1940,
      "aring": 1941,
      "Ġeffects": 1942,
      "An": 1943,
      "Ġtry": 1944,
      "ump": 1945,
      "Ġrights": 1946,
      "Ġword": 1947,
      "aves": 1948,
      "Ġloss": 1949,
      "Ġfurther": 1950,
      "ĠSome": 1951,
      "ĠSouth": 1952,
      "Ġupon": 1953,
      "Ġwhy": 1954,
      "Ġgroups": 1955,
      "Ġplants": 1956,
      "Ġblack": 1957,
      "Ġann": 1958,
      "lo": 1959,
      "Ġseen": 1960,
      "artment": 1961,
      "ĠThat": 1962,
      "Ġprob": 1963,
      "iting": 1964,
      "acy": 1965,
      "Ġrelations": 1966,
      "Ġpolic": 1967,
      "rated": 1968,
      "ĠAmerica": 1969,
      "thing": 1970,
      "Ġsun": 1971,
      "Ġreturn": 1972,
      "17": 1973,
      "ublic": 1974,
      "Ġsurface": 1975,
      "Ġcy": 1976,
      "ĠDep": 1977,
      "13": 1978,
      "ream": 1979,
      "ĠOne": 1980,
      "Ġsent": 1981,
      "ĠHis": 1982,
      "Ġgoing": 1983,
      "ann": 1984,
      "ule": 1985,
      "Ġhouse": 1986,
      "Ġworking": 1987,
      "ĠEnglish": 1988,
      "Ġespecially": 1989,
      "Ġla": 1990,
      "Ġcame": 1991,
      "Ġwhether": 1992,
      "Ġlive": 1993,
      "ĠLe": 1994,
      "Ġphot": 1995,
      "Ġstep": 1996,
      "Ġquestion": 1997,
      "ison": 1998,
      "Ġdeveloped": 1999,
      "Ġpatients": 2000,
      "Ġscience": 2001,
      "Ġconsum": 2002,
      "Ġneeds": 2003,
      "Ġtaken": 2004,
      "augh": 2005,
      "Ġri": 2006,
      "ER": 2007,
      "ĠRep": 2008,
      "ibility": 2009,
      "rown": 2010,
      "ĠCal": 2011,
      "Ġsingle": 2012,
      "iation": 2013,
      "side": 2014,
      "Ġgrowth": 2015,
      "Ġcreate": 2016,
      "Ġbrain": 2017,
      "aut": 2018,
      "amm": 2019,
      "ĠDr": 2020,
      "Ġfall": 2021,
      "Ġeither": 2022,
      "Ġreason": 2023,
      "Ġalready": 2024,
      "ster": 2025,
      "Ġdest": 2026,
      "overed": 2027,
      "Ġ196": 2028,
      "For": 2029,
      "rict": 2030,
      "reg": 2031,
      "iam": 2032,
      "Ġonce": 2033,
      "Ġfive": 2034,
      "rams": 2035,
      "roll": 2036,
      "Ġexperience": 2037,
      "14": 2038,
      "Ġindic": 2039,
      "ysis": 2040,
      "Ġways": 2041,
      "Ġevidence": 2042,
      "Ġrequire": 2043,
      "mp": 2044,
      "earch": 2045,
      "Ġprotect": 2046,
      "sych": 2047,
      "verage": 2048,
      "Ġmind": 2049,
      "rel": 2050,
      "ĠBl": 2051,
      "Ġneg": 2052,
      "Ġevent": 2053,
      "ĠWith": 2054,
      "Ġfail": 2055,
      "aching": 2056,
      "ĠAct": 2057,
      "Ġstory": 2058,
      "Ġresearchers": 2059,
      ".)": 2060,
      "Ġbelow": 2061,
      "Ġknowledge": 2062,
      "Ġmass": 2063,
      "Ġitself": 2064,
      "Ġstat": 2065,
      "Ġtoward": 2066,
      "Ġhalf": 2067,
      "illed": 2068,
      "etimes": 2069,
      "Ġrole": 2070,
      "Ġfamil": 2071,
      "amin": 2072,
      "sh": 2073,
      "Ġaccording": 2074,
      "Ġwr": 2075,
      "Ġthemselves": 2076,
      "Ġmodel": 2077,
      "ules": 2078,
      "ĠAb": 2079,
      "Ġdoct": 2080,
      "16": 2081,
      "chie": 2082,
      "Ġdrug": 2083,
      "Ġemploy": 2084,
      "ront": 2085,
      "Ġconcer": 2086,
      "ĠAss": 2087,
      "Ġreally": 2088,
      "//": 2089,
      "ournal": 2090,
      "ederal": 2091,
      "icient": 2092,
      "Ġdeg": 2093,
      "ttp": 2094,
      "het": 2095,
      "Ġfish": 2096,
      "Ġliving": 2097,
      "ĠHealth": 2098,
      "Ġwhole": 2099,
      "Ġresources": 2100,
      "ĠCanad": 2101,
      "Ġrange": 2102,
      "Ġparticip": 2103,
      "Ġdone": 2104,
      "ĠAust": 2105,
      "ptoms": 2106,
      "Ġtext": 2107,
      "ober": 2108,
      "Ġactivity": 2109,
      "Ġclimate": 2110,
      "epend": 2111,
      "Ġrelig": 2112,
      "Ġanimals": 2113,
      "esc": 2114,
      "Ġpred": 2115,
      "Ġpublished": 2116,
      "Ġhistor": 2117,
      "__": 2118,
      "Ġmedical": 2119,
      "utes": 2120,
      "ications": 2121,
      "Ġskin": 2122,
      "Ġmic": 2123,
      "Ġabs": 2124,
      "Ġthought": 2125,
      "itary": 2126,
      "mb": 2127,
      "Ġdoc": 2128,
      "Ġcollect": 2129,
      "Ġaccount": 2130,
      "Ġpay": 2131,
      "ites": 2132,
      "Ġrepl": 2133,
      "ĠBy": 2134,
      "Ġmeet": 2135,
      "ĠHist": 2136,
      "alt": 2137,
      "iol": 2138,
      "Ġstates": 2139,
      "Ġtool": 2140,
      "ĠState": 2141,
      "Ġtradition": 2142,
      "oura": 2143,
      "ened": 2144,
      "://": 2145,
      "Ġfield": 2146,
      "Ġhold": 2147,
      "Ġbegan": 2148,
      "Ġphysical": 2149,
      "oon": 2150,
      "Ġfrequ": 2151,
      "apt": 2152,
      "Ġoil": 2153,
      "org": 2154,
      "stitute": 2155,
      "hib": 2156,
      "Ġred": 2157,
      "Ġ13": 2158,
      "Ġobserv": 2159,
      "onst": 2160,
      "Ġalmost": 2161,
      "Ġclaim": 2162,
      "atures": 2163,
      "Ġrate": 2164,
      "Ġtook": 2165,
      "Ġincreased": 2166,
      "Ġbuilding": 2167,
      "ints": 2168,
      "ried": 2169,
      "Ġchall": 2170,
      "Ġtot": 2171,
      "Ġdom": 2172,
      "Ġvalue": 2173,
      "Ġpressure": 2174,
      "lying": 2175,
      "Ġ--": 2176,
      "ney": 2177,
      "my": 2178,
      "ateg": 2179,
      "Ġengine": 2180,
      "Ġwide": 2181,
      "Ġbig": 2182,
      "Ġmakes": 2183,
      "Ġcannot": 2184,
      "ibr": 2185,
      "Ġsens": 2186,
      "uel": 2187,
      "Ġkey": 2188,
      "Ġopt": 2189,
      "Ġaddress": 2190,
      "Ġtypes": 2191,
      "Ġbusiness": 2192,
      "Ġeconomic": 2193,
      "like": 2194,
      "Ġtell": 2195,
      "Ġconsidered": 2196,
      "oll": 2197,
      "Ġwhite": 2198,
      "Ġinit": 2199,
      "Ġrecogn": 2200,
      "SA": 2201,
      "Ġentire": 2202,
      "ification": 2203,
      "Ġwind": 2204,
      "Ġpotential": 2205,
      "gest": 2206,
      "reme": 2207,
      "Ġsitu": 2208,
      "fact": 2209,
      "vere": 2210,
      "Ġparts": 2211,
      "Ġteam": 2212,
      "Ġproduction": 2213,
      "Ġmodern": 2214,
      "cient": 2215,
      "ĠBritish": 2216,
      "Ġlay": 2217,
      "Ġregion": 2218,
      "Ġsource": 2219,
      "ĠII": 2220,
      "Ġglobal": 2221,
      "Ġintrodu": 2222,
      "ae": 2223,
      "How": 2224,
      "Ġself": 2225,
      "port": 2226,
      "Ġactivities": 2227,
      "Ġimprove": 2228,
      "Ġcreated": 2229,
      "Ġconcept": 2230,
      "Ġattack": 2231,
      "Ġdetail": 2232,
      "Ġsex": 2233,
      "Ġmor": 2234,
      "Ġsepar": 2235,
      "ables": 2236,
      "Ġneeded": 2237,
      "Ġnature": 2238,
      "osis": 2239,
      "ched": 2240,
      "Ġprote": 2241,
      "Ġweek": 2242,
      "fer": 2243,
      "itude": 2244,
      "Ġflu": 2245,
      "Ġcomplex": 2246,
      "Ġge": 2247,
      "Ġactually": 2248,
      "itted": 2249,
      "Ġcut": 2250,
      "ĠComp": 2251,
      "estern": 2252,
      "ĠAg": 2253,
      "Ġ2012": 2254,
      "ulations": 2255,
      "ĠPres": 2256,
      "Ġfig": 2257,
      "ounds": 2258,
      "Ġarticle": 2259,
      "Ġansw": 2260,
      "ĠX": 2261,
      "Ġrecent": 2262,
      "ister": 2263,
      "ights": 2264,
      "lor": 2265,
      "ĠShe": 2266,
      "Ġproducts": 2267,
      "):": 2268,
      "aged": 2269,
      "Ã©": 2270,
      "Ġcr": 2271,
      "Ġarg": 2272,
      "Ġaffect": 2273,
      "Ġachie": 2274,
      "iple": 2275,
      "icine": 2276,
      "Ġliter": 2277,
      "urity": 2278,
      "Ġdig": 2279,
      "ĠStud": 2280,
      "Ġport": 2281,
      "Ġsure": 2282,
      "opy": 2283,
      "Ġrequired": 2284,
      "Ġyet": 2285,
      "Ġquestions": 2286,
      "attle": 2287,
      "irm": 2288,
      "Ġsize": 2289,
      "ene": 2290,
      "bon": 2291,
      "iddle": 2292,
      "Ġbar": 2293,
      "Ġsix": 2294,
      "When": 2295,
      "Ġidea": 2296,
      "Ġcamp": 2297,
      "abit": 2298,
      "Ġsuper": 2299,
      "rought": 2300,
      "apan": 2301,
      "ma": 2302,
      "oes": 2303,
      "Ġwin": 2304,
      "ival": 2305,
      "Ġrelated": 2306,
      "Ġprovides": 2307,
      "Ġcle": 2308,
      "Ġpaper": 2309,
      "Ch": 2310,
      "olic": 2311,
      "Ġissues": 2312,
      "Al": 2313,
      "hing": 2314,
      "eds": 2315,
      "Ġsymptoms": 2316,
      "Ġpriv": 2317,
      "Ġver": 2318,
      "ips": 2319,
      "Ġearth": 2320,
      "sequ": 2321,
      "Ġschools": 2322,
      "Ġmoney": 2323,
      "rect": 2324,
      "ĠCo": 2325,
      "ivity": 2326,
      "Ġscientists": 2327,
      "Ġreact": 2328,
      "Ġ50": 2329,
      "Ġgas": 2330,
      "empt": 2331,
      "Ġregard": 2332,
      "leep": 2333,
      "ĠAm": 2334,
      "Ġ2010": 2335,
      "ety": 2336,
      "Ġparents": 2337,
      "Ġadult": 2338,
      "Ġcomputer": 2339,
      "Ġvers": 2340,
      "put": 2341,
      "Ġassociated": 2342,
      "Ġrelationship": 2343,
      "sc": 2344,
      "Ġstudent": 2345,
      "uck": 2346,
      "ĠSy": 2347,
      "ĠKing": 2348,
      "ĠIr": 2349,
      "ĠGu": 2350,
      "Ġrelative": 2351,
      "ery": 2352,
      "Ġaction": 2353,
      "Ġlot": 2354,
      "Ġ100": 2355,
      "oses": 2356,
      "Ġdiet": 2357,
      "amed": 2358,
      "Ġ25": 2359,
      "Ġmaint": 2360,
      "Ġnut": 2361,
      "vey": 2362,
      "Ġreduce": 2363,
      "Ġmonths": 2364,
      "go": 2365,
      "Ġ11": 2366,
      "Ġtherap": 2367,
      "ask": 2368,
      "rad": 2369,
      "Ġstop": 2370,
      "Ġmarket": 2371,
      "erve": 2372,
      "Ġcondition": 2373,
      "umb": 2374,
      "ply": 2375,
      "Ġchemical": 2376,
      "Ġthroughout": 2377,
      "cil": 2378,
      "Ġever": 2379,
      "chan": 2380,
      "usion": 2381,
      "Ġspe": 2382,
      "Ġopportun": 2383,
      "iment": 2384,
      "Ġbuilt": 2385,
      "Ġsense": 2386,
      "ĠCont": 2387,
      "Ġsurv": 2388,
      "Ġenvironmental": 2389,
      "ĠPe": 2390,
      "Ġtemperature": 2391,
      "Ġprovided": 2392,
      "Ġnecessary": 2393,
      "ript": 2394,
      "Ġtrue": 2395,
      "Ġheav": 2396,
      "Ġinteract": 2397,
      "Ġstructure": 2398,
      "Ġfarm": 2399,
      "Ġrecomm": 2400,
      "atives": 2401,
      "Ġshows": 2402,
      "ging": 2403,
      "Ġlink": 2404,
      "Ġgreen": 2405,
      "Ġemer": 2406,
      "ections": 2407,
      "ume": 2408,
      "To": 2409,
      "Ġfri": 2410,
      "Ġability": 2411,
      "ervation": 2412,
      "Ġfat": 2413,
      "Ġrev": 2414,
      "ius": 2415,
      "pid": 2416,
      "reland": 2417,
      "Ġdeb": 2418,
      "Ġwild": 2419,
      "ccording": 2420,
      "utions": 2421,
      "ington": 2422,
      "abet": 2423,
      "Ġweight": 2424,
      "ĠNo": 2425,
      "ĠMan": 2426,
      "ĠNe": 2427,
      "ĠAfter": 2428,
      "adem": 2429,
      "ĠJapan": 2430,
      "Ġproduce": 2431,
      "Ġsimple": 2432,
      "Ġarch": 2433,
      "ES": 2434,
      "ĠTr": 2435,
      "Ġquality": 2436,
      "fully": 2437,
      "Ġ|": 2438,
      "Ġconduct": 2439,
      "Ġlonger": 2440,
      "Ġsett": 2441,
      "minist": 2442,
      "Ġens": 2443,
      "ief": 2444,
      "aff": 2445,
      "ĠDepartment": 2446,
      "ĠMin": 2447,
      "inary": 2448,
      "Ġhours": 2449,
      "iction": 2450,
      "Ġce": 2451,
      "ĠEd": 2452,
      "Ġaccept": 2453,
      "Ġservice": 2454,
      "Ġpurp": 2455,
      "Ġmaterials": 2456,
      "rie": 2457,
      "Ġlab": 2458,
      "Ġprevious": 2459,
      "asc": 2460,
      "Ġpattern": 2461,
      "Ġstri": 2462,
      "Ġheat": 2463,
      "Ġcoll": 2464,
      "Ġtaking": 2465,
      "Ġpage": 2466,
      "ĠResearch": 2467,
      "ai": 2468,
      "stitution": 2469,
      "Ġsam": 2470,
      "Ġsubst": 2471,
      "Ġprograms": 2472,
      "Ġreported": 2473,
      "urs": 2474,
      "Ġtotal": 2475,
      "Ġpopular": 2476,
      "ronic": 2477,
      "Ġpractice": 2478,
      "ĠSec": 2479,
      "imately": 2480,
      "Ġservices": 2481,
      "Ġthreat": 2482,
      "Ġcaused": 2483,
      "ricult": 2484,
      "Ġquick": 2485,
      "rial": 2486,
      "Ġpath": 2487,
      "dom": 2488,
      "mon": 2489,
      "Ġ=": 2490,
      "Ġnormal": 2491,
      "Ġstandard": 2492,
      "Ġunderstanding": 2493,
      "Ġterms": 2494,
      "Ġhttp": 2495,
      "hood": 2496,
      "atter": 2497,
      "erous": 2498,
      "Ġforce": 2499,
      "ensive": 2500,
      "ening": 2501,
      "Ġcomes": 2502,
      "Ġmusic": 2503,
      "But": 2504,
      "Ġtravel": 2505,
      "Ġorigin": 2506,
      "new": 2507,
      "order": 2508,
      "Ġled": 2509,
      "acc": 2510,
      "izing": 2511,
      "ĠSchool": 2512,
      "ising": 2513,
      "Ġincreasing": 2514,
      "Ġavoid": 2515,
      "Ġmeasure": 2516,
      "Ġrespect": 2517,
      "Ġbring": 2518,
      "Ġdiv": 2519,
      "ternal": 2520,
      "Ġbur": 2521,
      "hern": 2522,
      "Ġsoft": 2523,
      "Ġemb": 2524,
      "arily": 2525,
      "Ġaverage": 2526,
      "ached": 2527,
      "rench": 2528,
      "Ġlate": 2529,
      "ze": 2530,
      "Ġforms": 2531,
      "lin": 2532,
      "Ġtown": 2533,
      "ops": 2534,
      "Ġcoun": 2535,
      "Ġgreater": 2536,
      "Ġoriginal": 2537,
      "Ġfire": 2538,
      "ĠCenter": 2539,
      "ressed": 2540,
      "Ġut": 2541,
      "Ġmess": 2542,
      "Ġpict": 2543,
      "raft": 2544,
      "ĠAustral": 2545,
      "Ġdeep": 2546,
      "Ġcolor": 2547,
      "Ġsometimes": 2548,
      "lex": 2549,
      "Ġmatter": 2550,
      "aries": 2551,
      "Ġanalysis": 2552,
      "Ġcit": 2553,
      "Ġshown": 2554,
      "ĠInstitute": 2555,
      "ĠIreland": 2556,
      "Ġdesigned": 2557,
      "Ġtax": 2558,
      "ows": 2559,
      "Ġapproach": 2560,
      "You": 2561,
      "ropri": 2562,
      "Ġwritten": 2563,
      "âĢ¦": 2564,
      "Ġmother": 2565,
      "Ġtraining": 2566,
      "Ġspir": 2567,
      "Ġviol": 2568,
      "ps": 2569,
      "ades": 2570,
      "ift": 2571,
      "Ġeffective": 2572,
      "Ġsea": 2573,
      "Ġposition": 2574,
      "ĠScience": 2575,
      "ici": 2576,
      "che": 2577,
      "Ġsources": 2578,
      "Ġthing": 2579,
      "ĠJu": 2580,
      "Ġtar": 2581,
      "Ġjob": 2582,
      "light": 2583,
      "rand": 2584,
      "Ġfactors": 2585,
      "Ġ2011": 2586,
      "duc": 2587,
      "ON": 2588,
      "hold": 2589,
      "Ġsqu": 2590,
      "ĠDav": 2591,
      "nces": 2592,
      "Ġ/": 2593,
      "Ġprobably": 2594,
      "lim": 2595,
      "amb": 2596,
      "Ġexerc": 2597,
      "yl": 2598,
      "ĠCount": 2599,
      "Ġcompl": 2600,
      "Ġsimply": 2601,
      "Ġvisit": 2602,
      "cean": 2603,
      "Ġmiles": 2604,
      "Ġbirth": 2605,
      "cies": 2606,
      "ĠPart": 2607,
      "orthern": 2608,
      "based": 2609,
      "eration": 2610,
      "Ġcivil": 2611,
      "Ġmechan": 2612,
      "haps": 2613,
      "ores": 2614,
      "Ġattempt": 2615,
      "Ġhealthy": 2616,
      "Ġslow": 2617,
      "Ġinternational": 2618,
      "aging": 2619,
      "Ġsat": 2620,
      "Ġbelieve": 2621,
      "ĠHar": 2622,
      "Ġcontain": 2623,
      "aving": 2624,
      "Ġmedia": 2625,
      "Ġskills": 2626,
      "ength": 2627,
      "ese": 2628,
      "Ġparticularly": 2629,
      "oly": 2630,
      "ĠPer": 2631,
      "osition": 2632,
      "ĠRuss": 2633,
      "Ġpersonal": 2634,
      "Ġple": 2635,
      "ĠJan": 2636,
      "ĠAfrican": 2637,
      "Ġfa": 2638,
      "Ġinvolved": 2639,
      "ĠCalif": 2640,
      "lt": 2641,
      "lies": 2642,
      "Ġlives": 2643,
      "lands": 2644,
      "Ġevents": 2645,
      "ĠPar": 2646,
      "Ġmanagement": 2647,
      "ID": 2648,
      "uk": 2649,
      "Ġnation": 2650,
      "pro": 2651,
      "Ġbehavior": 2652,
      "40": 2653,
      "uary": 2654,
      "Ġcompany": 2655,
      "icles": 2656,
      "Ġmeaning": 2657,
      "AT": 2658,
      "Ġlack": 2659,
      "Ġinteg": 2660,
      "Ġreading": 2661,
      "know": 2662,
      "vention": 2663,
      "Ġtalk": 2664,
      "Ġconc": 2665,
      "Ġking": 2666,
      "Ġrefer": 2667,
      "Ġindividuals": 2668,
      "Ġwent": 2669,
      "Ġnuc": 2670,
      "Ġdeveloping": 2671,
      "Ġnetwork": 2672,
      "Ġdiagn": 2673,
      "elt": 2674,
      "Ġseries": 2675,
      "ĠInternational": 2676,
      "Ġdemonst": 2677,
      "Ġir": 2678,
      "Ġtheory": 2679,
      "Ġindepend": 2680,
      "Ġinj": 2681,
      "Ġsoil": 2682,
      "25": 2683,
      "ror": 2684,
      "Ġface": 2685,
      "Ġheld": 2686,
      "Ġste": 2687,
      "uge": 2688,
      "Ġcontinue": 2689,
      "Ġissue": 2690,
      "Ġcontact": 2691,
      "Ġpoor": 2692,
      "ornia": 2693,
      "Ġgenerally": 2694,
      "Ġnight": 2695,
      "Ġetc": 2696,
      "onse": 2697,
      "On": 2698,
      "Ġindustry": 2699,
      "Ġwhose": 2700,
      "Ġthous": 2701,
      "ĠCons": 2702,
      "Ġoutside": 2703,
      "Ġassess": 2704,
      "Ġago": 2705,
      "ternet": 2706,
      "'re": 2707,
      "ĠÂ": 2708,
      "ĠWhile": 2709,
      "undred": 2710,
      "aily": 2711,
      "Ġofficial": 2712,
      "Ġspread": 2713,
      "IN": 2714,
      "Ġfem": 2715,
      "thern": 2716,
      "Ġcontent": 2717,
      "Ġuses": 2718,
      "Ġbasic": 2719,
      "anced": 2720,
      "Ġmovement": 2721,
      "aters": 2722,
      "Ġproduced": 2723,
      "istance": 2724,
      "Ġanimal": 2725,
      "ino": 2726,
      "Ġjo": 2727,
      "Ġmilitary": 2728,
      "Ġforest": 2729,
      "ĠWill": 2730,
      "Ġdou": 2731,
      "ĠMore": 2732,
      "Ġfeet": 2733,
      "Ġthus": 2734,
      "ĠCor": 2735,
      "Ġculture": 2736,
      "verse": 2737,
      "IS": 2738,
      "ership": 2739,
      "Ġfamilies": 2740,
      "Ġestablished": 2741,
      "ĠMarch": 2742,
      "ribution": 2743,
      "Ġmount": 2744,
      "imum": 2745,
      "Ġvariety": 2746,
      "Ġalthough": 2747,
      "Ġbreak": 2748,
      "ns": 2749,
      "Ġpsych": 2750,
      "Ġvide": 2751,
      "ĠJune": 2752,
      "olec": 2753,
      "Ġap": 2754,
      "edia": 2755,
      "Ġjud": 2756,
      "Ġnumbers": 2757,
      "Ġsociety": 2758,
      "overy": 2759,
      "ĠRiver": 2760,
      "Ġinvestig": 2761,
      "Ġast": 2762,
      "ĠRet": 2763,
      "Ġserious": 2764,
      "Ġbooks": 2765,
      "inks": 2766,
      "erg": 2767,
      "Ġcapital": 2768,
      "ided": 2769,
      "osure": 2770,
      "Ġcapt": 2771,
      "aling": 2772,
      "Ġonline": 2773,
      "ĠChina": 2774,
      "ĠSu": 2775,
      "Ġexc": 2776,
      "Ġwriting": 2777,
      "Ġcauses": 2778,
      "Ġnorth": 2779,
      "ĠAc": 2780,
      "ĠWest": 2781,
      "pril": 2782,
      "Ġsou": 2783,
      "ĠMus": 2784,
      "eding": 2785,
      "ĠFran": 2786,
      "Ġremov": 2787,
      "rew": 2788,
      "ecause": 2789,
      "abetes": 2790,
      "Ġbr": 2791,
      "aches": 2792,
      "Ġscientific": 2793,
      "Ġsafe": 2794,
      "Ġteachers": 2795,
      "ashington": 2796,
      "rast": 2797,
      "Ġlove": 2798,
      "Ġcompan": 2799,
      "ĠQu": 2800,
      "Ġ24": 2801,
      "ĠChar": 2802,
      "Ġincludes": 2803,
      "Ġextreme": 2804,
      "cell": 2805,
      "rael": 2806,
      "www": 2807,
      "Ġdog": 2808,
      "ĠPr": 2809,
      "AR": 2810,
      "Ġ40": 2811,
      "Ġthird": 2812,
      "ctions": 2813,
      "Ġvit": 2814,
      "Ġfront": 2815,
      "istics": 2816,
      "Ġ2008": 2817,
      "Ġpolicy": 2818,
      "ulate": 2819,
      "Ġconcent": 2820,
      "ĠCalifornia": 2821,
      "21": 2822,
      "ĠApp": 2823,
      "Ġ2009": 2824,
      "ads": 2825,
      "ĠPress": 2826,
      "reng": 2827,
      "Ġinstead": 2828,
      "Ġdocument": 2829,
      "isms": 2830,
      "ĠIndian": 2831,
      "Ġwood": 2832,
      "Ġaltern": 2833,
      "ĠPresident": 2834,
      "Ġtend": 2835,
      "ĠFrench": 2836,
      "Ġreview": 2837,
      "Ġestim": 2838,
      "AN": 2839,
      "ille": 2840,
      "Ġimage": 2841,
      "Ġ2007": 2842,
      "Ġcross": 2843,
      "Ġlabor": 2844,
      "ĠEuropean": 2845,
      "where": 2846,
      "yle": 2847,
      "bor": 2848,
      "Ġcompet": 2849,
      "Ġcentral": 2850,
      "Ġwall": 2851,
      "Ġshare": 2852,
      "Ġincluded": 2853,
      "Ġgrowing": 2854,
      "Ġeat": 2855,
      "Ġox": 2856,
      "Ġsleep": 2857,
      "Ġfederal": 2858,
      "Ġprep": 2859,
      "Ġencoura": 2860,
      "Ġquite": 2861,
      "Ġcarbon": 2862,
      "ana": 2863,
      "Ġsafety": 2864,
      "Ġcommunities": 2865,
      "ira": 2866,
      "ming": 2867,
      "Ġtherefore": 2868,
      "ĠInt": 2869,
      "Ġstress": 2870,
      "ĠMany": 2871,
      "isions": 2872,
      "uth": 2873,
      "Ġperm": 2874,
      "ography": 2875,
      "Ġful": 2876,
      "ĠAug": 2877,
      "Ġdraw": 2878,
      "oard": 2879,
      "Ġx": 2880,
      "Ġfav": 2881,
      "Ġwebs": 2882,
      "Ġbroad": 2883,
      "ĠIrish": 2884,
      "Ġpositive": 2885,
      "Ġfru": 2886,
      "Ġlost": 2887,
      "term": 2888,
      "Ġattention": 2889,
      "Ġbab": 2890,
      "ĠMe": 2891,
      "Ġmethods": 2892,
      "Ġseems": 2893,
      "enced": 2894,
      "Ġselect": 2895,
      "Ġimmedi": 2896,
      "ancy": 2897,
      "Ġregular": 2898,
      "Ġtakes": 2899,
      "ufact": 2900,
      "ĠSch": 2901,
      "Ġnearly": 2902,
      "And": 2903,
      "Ġprimary": 2904,
      "Ġconsist": 2905,
      "Ġreflect": 2906,
      "Ġtarget": 2907,
      "Ġcat": 2908,
      "Ġhundred": 2909,
      "ground": 2910,
      "Ġadded": 2911,
      "Ġhor": 2912,
      "Ġcheck": 2913,
      "Ġdamage": 2914,
      "80": 2915,
      "Ġlog": 2916,
      "Ġreceived": 2917,
      "hel": 2918,
      "ony": 2919,
      "uman": 2920,
      "elling": 2921,
      "Ġworkers": 2922,
      "Ġvill": 2923,
      "Ġhost": 2924,
      "Ġhyd": 2925,
      "Ġclean": 2926,
      "Ġbeginning": 2927,
      "Ġtur": 2928,
      "Ġsouth": 2929,
      "Ġbacter": 2930,
      "useum": 2931,
      "ulated": 2932,
      "Ġinstit": 2933,
      "Ġeasy": 2934,
      "ĠInf": 2935,
      "Ġdoing": 2936,
      "ilos": 2937,
      "na": 2938,
      "itation": 2939,
      "Ġmid": 2940,
      "ĠIm": 2941,
      "Ġidentify": 2942,
      "Ġlarger": 2943,
      "Ġcourt": 2944,
      "Ġsold": 2945,
      "lam": 2946,
      "Ġwarm": 2947,
      "Ġbul": 2948,
      "ĠEduc": 2949,
      "Ġprec": 2950,
      "Ġbehind": 2951,
      "bit": 2952,
      "Ġrout": 2953,
      "Ġdefin": 2954,
      "Ġhimself": 2955,
      "ellow": 2956,
      "Ġdoctor": 2957,
      "60": 2958,
      "ĠWashington": 2959,
      "22": 2960,
      "mosp": 2961,
      "ĠVal": 2962,
      "Ġmicro": 2963,
      "Ġdoesn": 2964,
      "Ġtree": 2965,
      "Ġstreng": 2966,
      "Ġkids": 2967,
      "ĠHistory": 2968,
      "IC": 2969,
      "ĠPol": 2970,
      "ĠHer": 2971,
      "Ġvari": 2972,
      "orders": 2973,
      "aid": 2974,
      "aul": 2975,
      "oor": 2976,
      "Ġhumans": 2977,
      "Ġdiseases": 2978,
      "ĠSept": 2979,
      "Ġsummer": 2980,
      "ĠCanada": 2981,
      "rs": 2982,
      "Ġreve": 2983,
      "omb": 2984,
      "see": 2985,
      "ĠMost": 2986,
      "used": 2987,
      "issions": 2988,
      "Ġinterp": 2989,
      "lied": 2990,
      "yond": 2991,
      "He": 2992,
      "ĠSm": 2993,
      "ĠMc": 2994,
      "Ġsust": 2995,
      "Ġdisp": 2996,
      "Ġfoods": 2997,
      "Ġmach": 2998,
      "Ġmagn": 2999,
      "lection": 3000,
      "life": 3001,
      "Ġsus": 3002,
      "ĠCong": 3003,
      "199": 3004,
      "Ġlooking": 3005,
      "osing": 3006,
      "Ġappropri": 3007,
      "ĠIsrael": 3008,
      "Ġpan": 3009,
      "icated": 3010,
      "ama": 3011,
      "Ġbenefits": 3012,
      "Ġbrought": 3013,
      "Ġimplement": 3014,
      "Ġcitiz": 3015,
      "Ġang": 3016,
      "Ġsevere": 3017,
      "Ġgetting": 3018,
      "ĠGovern": 3019,
      "asons": 3020,
      "Ġdirectly": 3021,
      "Ġshall": 3022,
      "Ġdecl": 3023,
      "ovember": 3024,
      "pper": 3025,
      "Ġelectric": 3026,
      "rates": 3027,
      "Ġdispl": 3028,
      "Ġcompared": 3029,
      "book": 3030,
      "Ġcover": 3031,
      "pe": 3032,
      "Ġactive": 3033,
      "ĠPre": 3034,
      "Ġhabit": 3035,
      "erson": 3036,
      "Ġunc": 3037,
      "Ġemot": 3038,
      "Ġresponse": 3039,
      "IV": 3040,
      "cember": 3041,
      "Ġstarted": 3042,
      "OR": 3043,
      "coh": 3044,
      "ĠTra": 3045,
      "ĠOct": 3046,
      "Ġadditional": 3047,
      "omet": 3048,
      "ĠBar": 3049,
      "ĠAnt": 3050,
      "Ġimpl": 3051,
      "Ġdescribed": 3052,
      "Ġcust": 3053,
      "Ġagree": 3054,
      "ĠJuly": 3055,
      "Ġideas": 3056,
      "ĠEl": 3057,
      "Ġcontains": 3058,
      "gn": 3059,
      "unch": 3060,
      "Ġnews": 3061,
      "Ġdrink": 3062,
      "Ġgot": 3063,
      "Ġpoll": 3064,
      "gar": 3065,
      "ĠChild": 3066,
      "Ġdetermine": 3067,
      "wise": 3068,
      "ises": 3069,
      "Ġsoon": 3070,
      "den": 3071,
      "alu": 3072,
      "ĠChristian": 3073,
      "ĠAssoci": 3074,
      "One": 3075,
      "Ġcred": 3076,
      "rig": 3077,
      "Ġseason": 3078,
      "Ġlimited": 3079,
      "Ġtiss": 3080,
      "Ġlands": 3081,
      "Ġ21": 3082,
      "Ġcontinued": 3083,
      "Ġlaws": 3084,
      "Ġaud": 3085,
      "Ġpack": 3086,
      "ĠApril": 3087,
      "ĠRec": 3088,
      "hens": 3089,
      "\",": 3090,
      "Ġborn": 3091,
      "Ġsearch": 3092,
      "Ġgenetic": 3093,
      "Ġprotein": 3094,
      "Ġsound": 3095,
      "resh": 3096,
      "ondon": 3097,
      "Ġremain": 3098,
      ");": 3099,
      "ription": 3100,
      "Ġcoast": 3101,
      "Ġtraditional": 3102,
      "Ġdaily": 3103,
      "Ġcommand": 3104,
      "So": 3105,
      "ĠGerman": 3106,
      "Ġclin": 3107,
      "ĠArt": 3108,
      "ying": 3109,
      "Ġsection": 3110,
      "rieved": 3111,
      "istry": 3112,
      "Ġvirus": 3113,
      "Ġtold": 3114,
      "ĠEngland": 3115,
      "Ġsal": 3116,
      "Ġspeed": 3117,
      "Ġacid": 3118,
      "Ġminutes": 3119,
      "oe": 3120,
      "ĠGree": 3121,
      "ension": 3122,
      "set": 3123,
      "ologies": 3124,
      "ext": 3125,
      "Ġbit": 3126,
      "Ġec": 3127,
      "uries": 3128,
      "ĠIndia": 3129,
      "ĠAfrica": 3130,
      "ĠJewish": 3131,
      "Ġord": 3132,
      "Ġmanufact": 3133,
      "ridge": 3134,
      "Ġcard": 3135,
      "rote": 3136,
      "Ġappe": 3137,
      "Ġveget": 3138,
      "Ġwalk": 3139,
      "Ġeasily": 3140,
      "iciency": 3141,
      "ĠOther": 3142,
      "Ġdark": 3143,
      "water": 3144,
      "ĠSee": 3145,
      "Ġlargest": 3146,
      "Ġancient": 3147,
      "ĠGl": 3148,
      "Ġcritical": 3149,
      "lier": 3150,
      "room": 3151,
      "Ġpatient": 3152,
      "gram": 3153,
      "isl": 3154,
      "Ġkill": 3155,
      "uous": 3156,
      "estic": 3157,
      "ender": 3158,
      "Ġdifference": 3159,
      "ibrary": 3160,
      "Ġfather": 3161,
      "leb": 3162,
      "ĠJes": 3163,
      "Ġ194": 3164,
      "Ġleading": 3165,
      "ĠTw": 3166,
      "Ġsil": 3167,
      "Ġdang": 3168,
      "Ġones": 3169,
      "Ġexcept": 3170,
      "Ġfile": 3171,
      "Ġrock": 3172,
      "Ġoffer": 3173,
      "ĠAlthough": 3174,
      "Ġsolar": 3175,
      "Ġcorrect": 3176,
      "IT": 3177,
      "Ġfoot": 3178,
      "ĠServ": 3179,
      "Ġprior": 3180,
      "Ġice": 3181,
      "Ġdry": 3182,
      "ĠIS": 3183,
      "itch": 3184,
      "Ġfram": 3185,
      "Ġbillion": 3186,
      "Ġapplication": 3187,
      "Ġinfluence": 3188,
      "oke": 3189,
      "Ġmill": 3190,
      "Ġlength": 3191,
      "Ġden": 3192,
      "ĠReg": 3193,
      "Ġvict": 3194,
      "Ġlocated": 3195,
      "Ġreligious": 3196,
      "Ġprivate": 3197,
      "Ġcompanies": 3198,
      "ĠChurch": 3199,
      "ky": 3200,
      "arr": 3201,
      "uff": 3202,
      "Ġdead": 3203,
      "itting": 3204,
      "Ġbasis": 3205,
      "Ġtrees": 3206,
      "ev": 3207,
      "Ġhands": 3208,
      "Ġspeak": 3209,
      "rag": 3210,
      "Ġthinking": 3211,
      "Ġnegative": 3212,
      "Ġbal": 3213,
      "Ġbad": 3214,
      "Ġson": 3215,
      "Ġharm": 3216,
      "iles": 3217,
      "Ġlif": 3218,
      "Ġagricult": 3219,
      "ĠSociety": 3220,
      "Ġextra": 3221,
      "ceed": 3222,
      "Ġdecre": 3223,
      "Ġinside": 3224,
      "Ġcarry": 3225,
      "Ġ,": 3226,
      "Ġgard": 3227,
      "ĠAugust": 3228,
      "cks": 3229,
      "ties": 3230,
      "Ġformer": 3231,
      "Ġspirit": 3232,
      "Ġcommer": 3233,
      "Ġadminist": 3234,
      "Ġinfection": 3235,
      "Ġremains": 3236,
      "Ġachieve": 3237,
      "Ġep": 3238,
      "Ġgame": 3239,
      "ĠFirst": 3240,
      "Ġobt": 3241,
      "cohol": 3242,
      "olar": 3243,
      "23": 3244,
      "ĠJanuary": 3245,
      "Ġanswer": 3246,
      "Ġdied": 3247,
      "gypt": 3248,
      "rance": 3249,
      "alled": 3250,
      "ham": 3251,
      "Ġfuel": 3252,
      "Ġhy": 3253,
      "Ġhot": 3254,
      "Ġpoints": 3255,
      "Ġwrite": 3256,
      "Ġforces": 3257,
      "ems": 3258,
      "ĠDo": 3259,
      "Ġproced": 3260,
      "Ġfinan": 3261,
      "Ġmom": 3262,
      "rogen": 3263,
      "Ġegg": 3264,
      "ĠCoun": 3265,
      "aces": 3266,
      "Ġi": 3267,
      "oles": 3268,
      "Ġsupply": 3269,
      "Ġelse": 3270,
      "Ġeight": 3271,
      "eks": 3272,
      "inct": 3273,
      "Ġder": 3274,
      "Ġefforts": 3275,
      "Ġtests": 3276,
      "Ġaware": 3277,
      "ĠLaw": 3278,
      "oming": 3279,
      "ĠPark": 3280,
      "ĠNot": 3281,
      "ĠAmericans": 3282,
      "ĠChe": 3283,
      "Ġperformance": 3284,
      "ĠCounty": 3285,
      "ĠRetrieved": 3286,
      "Ġeth": 3287,
      "uls": 3288,
      "Ġatmosp": 3289,
      "Ġ2013": 3290,
      "Ġcenter": 3291,
      "Ġchalleng": 3292,
      "Ġmolec": 3293,
      "24": 3294,
      "AC": 3295,
      "Ġcontribut": 3296,
      "Ġwid": 3297,
      "ĠDay": 3298,
      "Ġrecently": 3299,
      "Ġbank": 3300,
      "Ġfight": 3301,
      "anks": 3302,
      "Ġgoal": 3303,
      "Ġtransm": 3304,
      "Ġsurround": 3305,
      "Ġeye": 3306,
      "Ġarri": 3307,
      "Ġsomeone": 3308,
      "Ġuseful": 3309,
      "ils": 3310,
      "Ġunique": 3311,
      "ĠDecember": 3312,
      "Ġestablish": 3313,
      "ĠVir": 3314,
      "arian": 3315,
      "ĠFeb": 3316,
      "ields": 3317,
      "Ġquickly": 3318,
      "ĠSeptember": 3319,
      "Ġlines": 3320,
      "Ġ23": 3321,
      "itte": 3322,
      "ĠEast": 3323,
      "Ġcompon": 3324,
      "Ġevalu": 3325,
      "Ġhighly": 3326,
      "Ġallows": 3327,
      "Ġnamed": 3328,
      "At": 3329,
      "Ġhelps": 3330,
      "Ġprogress": 3331,
      "Ġgradu": 3332,
      "Ġplanet": 3333,
      "Ġessential": 3334,
      "come": 3335,
      "Ġbott": 3336,
      "Ġ60": 3337,
      "Ġplaces": 3338,
      "ls": 3339,
      "Ġdiabetes": 3340,
      "inate": 3341,
      "Ġadop": 3342,
      "ĠWilliam": 3343,
      "ari": 3344,
      "idents": 3345,
      "Ġlegal": 3346,
      "Ġinn": 3347,
      "Ġexact": 3348,
      "ĠRed": 3349,
      "Ġtrade": 3350,
      "Ġ2006": 3351,
      "Ġtransport": 3352,
      "Ġcapac": 3353,
      "Ġasked": 3354,
      "odies": 3355,
      "Ġquant": 3356,
      "Ġsaw": 3357,
      "edom": 3358,
      "ĠLondon": 3359,
      "astic": 3360,
      "Ġten": 3361,
      "Ġbase": 3362,
      "enth": 3363,
      "iques": 3364,
      "off": 3365,
      "ĠNovember": 3366,
      "mar": 3367,
      "Ġhar": 3368,
      "Ġstru": 3369,
      "Ġprint": 3370,
      "rition": 3371,
      "Ġwa": 3372,
      "Ġrates": 3373,
      "Ġsituation": 3374,
      "Ġsites": 3375,
      "Ġbeaut": 3376,
      "Ġstra": 3377,
      "ĠHouse": 3378,
      "izations": 3379,
      "ĠVol": 3380,
      "Ġrare": 3381,
      "EN": 3382,
      "Ġrequires": 3383,
      "Ġaspect": 3384,
      "Ġenj": 3385,
      "Ġaccur": 3386,
      "Ġtools": 3387,
      "ĠDavid": 3388,
      "ĠDNA": 3389,
      "Ġpurpose": 3390,
      "70": 3391,
      "fect": 3392,
      "iers": 3393,
      "year": 3394,
      "Ġtit": 3395,
      "ĠEgypt": 3396,
      "Ġadj": 3397,
      "Ġpresident": 3398,
      "Ġdestro": 3399,
      "29": 3400,
      "Ġreach": 3401,
      "Ġsoftware": 3402,
      "med": 3403,
      "atur": 3404,
      "Ġbeyond": 3405,
      "ĠOf": 3406,
      "entially": 3407,
      "âĢ¢": 3408,
      "ects": 3409,
      "ĠWater": 3410,
      "Ġrule": 3411,
      "Ġnothing": 3412,
      "Ġpregn": 3413,
      "Ġbeg": 3414,
      "By": 3415,
      "Ġwinter": 3416,
      "uments": 3417,
      "aly": 3418,
      "Ġmiddle": 3419,
      "Ġprotection": 3420,
      "Ġmultiple": 3421,
      "aught": 3422,
      "Ġmag": 3423,
      "sec": 3424,
      "oday": 3425,
      "Ġvideo": 3426,
      "Ġeconomy": 3427,
      "ospital": 3428,
      "Ġaim": 3429,
      "Ġcool": 3430,
      "Ġcorn": 3431,
      "Ġwrote": 3432,
      "sect": 3433,
      "ĠCity": 3434,
      "Ġdecision": 3435,
      "iology": 3436,
      "Ġweeks": 3437,
      "Ġdemand": 3438,
      "Ġresponsible": 3439,
      "ĠMon": 3440,
      "Ġimages": 3441,
      "Ġcolon": 3442,
      "ica": 3443,
      "Ġensure": 3444,
      "Ġwoman": 3445,
      "ĠMy": 3446,
      "ĠCommun": 3447,
      "ĠJesus": 3448,
      "ĠAng": 3449,
      "Ġgene": 3450,
      "Ġanything": 3451,
      "Ġdepend": 3452,
      "Ġapprox": 3453,
      "Ġproperty": 3454,
      "Ġwebsite": 3455,
      "Ġcou": 3456,
      "Ġrapid": 3457,
      "Ġ2000": 3458,
      "airs": 3459,
      "hest": 3460,
      "ĠCour": 3461,
      "ĠTechn": 3462,
      "Ġund": 3463,
      "Ġdrugs": 3464,
      "Ġmonitor": 3465,
      "aled": 3466,
      "omy": 3467,
      "Ġgave": 3468,
      "Ġtherapy": 3469,
      "ban": 3470,
      "Ġvalues": 3471,
      "Ġappropriate": 3472,
      "nes": 3473,
      "rest": 3474,
      "ĠUN": 3475,
      "Ġ2005": 3476,
      "Ġfear": 3477,
      "gery": 3478,
      "Ġriver": 3479,
      "Ġcode": 3480,
      "ĠEm": 3481,
      "Ġsequ": 3482,
      "Ġweb": 3483,
      "Ġmemory": 3484,
      "Ġelements": 3485,
      "ĠUs": 3486,
      "Ġperhaps": 3487,
      "Ġsecurity": 3488,
      "Ġoccurs": 3489,
      "26": 3490,
      "head": 3491,
      "encies": 3492,
      "Ġhyp": 3493,
      "Ġhope": 3494,
      "iece": 3495,
      "ĠInc": 3496,
      "Ġcold": 3497,
      "Ġanti": 3498,
      "iar": 3499,
      "vest": 3500,
      "Ġtable": 3501,
      "Ġimag": 3502,
      "Ġprinc": 3503,
      "equ": 3504,
      "oring": 3505,
      "ico": 3506,
      "Ġhon": 3507,
      "odes": 3508,
      "Ġeyes": 3509,
      "Ġexercise": 3510,
      "Ġnuclear": 3511,
      "ĠEducation": 3512,
      "Ġpp": 3513,
      "Ġmiss": 3514,
      "Ġwaste": 3515,
      "ĠCouncil": 3516,
      "AS": 3517,
      "Ġrain": 3518,
      "AL": 3519,
      "urg": 3520,
      "ĠFrom": 3521,
      "ocr": 3522,
      "Ġcontroll": 3523,
      "Ġbecomes": 3524,
      "ford": 3525,
      "Ġtowards": 3526,
      "ĠGreat": 3527,
      "inated": 3528,
      "atric": 3529,
      "Ġsn": 3530,
      "Ġceleb": 3531,
      "Ġpen": 3532,
      "Ġevolution": 3533,
      "Ġcommunication": 3534,
      "back": 3535,
      "Ġhous": 3536,
      "Ġadults": 3537,
      "Ġcitizens": 3538,
      "Ġcook": 3539,
      "Ġcrop": 3540,
      "ingu": 3541,
      "ĠOb": 3542,
      "iber": 3543,
      "ĠYour": 3544,
      "Ġgives": 3545,
      "ĠOctober": 3546,
      "king": 3547,
      "rees": 3548,
      "ĠDevelop": 3549,
      "ĠJournal": 3550,
      "apter": 3551,
      "These": 3552,
      "ruary": 3553,
      "Ġcosts": 3554,
      "Ġfinal": 3555,
      "Ġdevice": 3556,
      "Ġexpected": 3557,
      "Ġorganization": 3558,
      "ĠSystem": 3559,
      "eff": 3560,
      "Ġfast": 3561,
      "Ġtox": 3562,
      "Ġdate": 3563,
      "Ġeffort": 3564,
      "Ġstrateg": 3565,
      "Ġbreast": 3566,
      "aint": 3567,
      "Ġ22": 3568,
      "Ġdiscovered": 3569,
      "Ġtransl": 3570,
      "time": 3571,
      "Ġmal": 3572,
      "ĠOff": 3573,
      "Ġphilos": 3574,
      "Ġillust": 3575,
      "ĠSan": 3576,
      "Ġinteresting": 3577,
      "enge": 3578,
      "ĠMod": 3579,
      "ought": 3580,
      "Ġfigure": 3581,
      "Ġimportance": 3582,
      "Ġwon": 3583,
      "Ġstay": 3584,
      "Ġlocation": 3585,
      "Ġsuccessful": 3586,
      "vant": 3587,
      "orks": 3588,
      "Ġteaching": 3589,
      "Ġearlier": 3590,
      "Ġfollowed": 3591,
      "Ġcompletely": 3592,
      "ĠKe": 3593,
      "Ġaffected": 3594,
      "hetic": 3595,
      "oma": 3596,
      "oted": 3597,
      "ĠHigh": 3598,
      "Ġexpect": 3599,
      "Ġenjoy": 3600,
      "ha": 3601,
      "orge": 3602,
      "Ġobjects": 3603,
      "Ġcalc": 3604,
      "Ġmis": 3605,
      "ĠAccording": 3606,
      "Ġalone": 3607,
      "ipment": 3608,
      "Ġcurrently": 3609,
      "ĠAssociation": 3610,
      "Ġcoming": 3611,
      "Ġgoes": 3612,
      "Ġfeed": 3613,
      "Ġreceive": 3614,
      "ittee": 3615,
      "cles": 3616,
      "enty": 3617,
      "ĠHere": 3618,
      "Ġuser": 3619,
      "Ġexposure": 3620,
      "Ġsmaller": 3621,
      "imal": 3622,
      "Ġpeace": 3623,
      "II": 3624,
      "Ġbenefit": 3625,
      "Ġfair": 3626,
      "Ġneigh": 3627,
      "Ġformed": 3628,
      "With": 3629,
      "wide": 3630,
      "Ġsch": 3631,
      "ession": 3632,
      "Ġsustain": 3633,
      "Ġult": 3634,
      "Ġmention": 3635,
      "ĠRoman": 3636,
      "Ġ190": 3637,
      "Ġconstruction": 3638,
      "Ġdevices": 3639,
      "Ġbirds": 3640,
      "Ġcopy": 3641,
      "Ġmodels": 3642,
      "reet": 3643,
      "Ġwaters": 3644,
      "Ġmax": 3645,
      "ĠSun": 3646,
      "Ġproviding": 3647,
      "ĠSocial": 3648,
      "Ġmut": 3649,
      "Ġweather": 3650,
      "irection": 3651,
      "iot": 3652,
      "RE": 3653,
      "more": 3654,
      "ixed": 3655,
      "33": 3656,
      "Ġtechniques": 3657,
      "can": 3658,
      "ĠMich": 3659,
      "Ġ2004": 3660,
      "Ġallowed": 3661,
      "Ġhistorical": 3662,
      "ĠSw": 3663,
      "ĠBook": 3664,
      "resp": 3665,
      "ocol": 3666,
      "Ġrise": 3667,
      "Ġapplications": 3668,
      "Ġ:": 3669,
      "oud": 3670,
      "Ġtrying": 3671,
      "ĠDuring": 3672,
      "Ġfeatures": 3673,
      "Ġdistance": 3674,
      "Ġplaced": 3675,
      "Ġchurch": 3676,
      "Ġkid": 3677,
      "Ġelectr": 3678,
      "Ġolder": 3679,
      "Ġteacher": 3680,
      "Ġalt": 3681,
      "Ġleave": 3682,
      "Ġjournal": 3683,
      "ype": 3684,
      "Ġanaly": 3685,
      "Ġsexual": 3686,
      "idel": 3687,
      "Ġsymb": 3688,
      "iny": 3689,
      "Ġsem": 3690,
      "Ġfresh": 3691,
      "ding": 3692,
      "27": 3693,
      "Ġautom": 3694,
      "Ġdegree": 3695,
      "que": 3696,
      "Ġcollection": 3697,
      "PA": 3698,
      "Ġrich": 3699,
      "Ġrules": 3700,
      "Ġdidn": 3701,
      "ander": 3702,
      "ĠEven": 3703,
      "Ġoccup": 3704,
      "known": 3705,
      "lege": 3706,
      "ĠInter": 3707,
      "cious": 3708,
      "Ġtrib": 3709,
      "Ġroad": 3710,
      "Ġexpand": 3711,
      "ĠGeneral": 3712,
      "ĠCongress": 3713,
      "ĠSince": 3714,
      "Ġdeal": 3715,
      "icate": 3716,
      "Ġreports": 3717,
      "HE": 3718,
      "Ġnames": 3719,
      "Ġ28": 3720,
      "ĠInternet": 3721,
      "Ġstatus": 3722,
      "Ġrespond": 3723,
      "Ġinsp": 3724,
      "Ġmember": 3725,
      "Ġsteps": 3726,
      "ald": 3727,
      "ologist": 3728,
      "wards": 3729,
      "ĠIslam": 3730,
      "ĠAustralia": 3731,
      "Ġfinancial": 3732,
      "och": 3733,
      "ĠMex": 3734,
      "Ġblock": 3735,
      "Ġeverything": 3736,
      "itable": 3737,
      "Ġpow": 3738,
      "ests": 3739,
      "ĠNow": 3740,
      "ords": 3741,
      "nam": 3742,
      "iful": 3743,
      "ĠUnion": 3744,
      "Ġoffice": 3745,
      "Ġexamples": 3746,
      "Ġmajority": 3747,
      "Ġseparate": 3748,
      "Ġexec": 3749,
      "Ġ26": 3750,
      "Ġstandards": 3751,
      "Ġappears": 3752,
      "Ġmaintain": 3753,
      "35": 3754,
      "Ġapplied": 3755,
      "Ġball": 3756,
      "Ġcustom": 3757,
      "Ġsect": 3758,
      "ĠSur": 3759,
      "Ġ195": 3760,
      "Ġpoly": 3761,
      "Pro": 3762,
      "Ġpet": 3763,
      "semb": 3764,
      "rab": 3765,
      "aced": 3766,
      "Ġscreen": 3767,
      "Ġcultural": 3768,
      "90": 3769,
      "ĠSim": 3770,
      "Ġalcohol": 3771,
      "Ġconflic": 3772,
      "Ġbacteria": 3773,
      "Ġconstruct": 3774,
      "izes": 3775,
      "Ġtesting": 3776,
      "bl": 3777,
      "ciples": 3778,
      "Ġbelieved": 3779,
      "Ġconsequ": 3780,
      "Ġacqu": 3781,
      "Ġinstru": 3782,
      "Ġbreat": 3783,
      "Ġprocesses": 3784,
      "Ġshowed": 3785,
      "phas": 3786,
      "ĠProt": 3787,
      "Ġpassed": 3788,
      "Ġconstant": 3789,
      "Ġpopulations": 3790,
      "Ġreduced": 3791,
      "asion": 3792,
      "Ġadvant": 3793,
      "Ġwond": 3794,
      "ĠNA": 3795,
      "ĠFebruary": 3796,
      "iant": 3797,
      "ĠArch": 3798,
      "28": 3799,
      "Ġswe": 3800,
      "ara": 3801,
      "Ġves": 3802,
      "Ġtele": 3803,
      "Ġregions": 3804,
      "ĠThen": 3805,
      "Ġvirt": 3806,
      "Ġocean": 3807,
      "ĠMiss": 3808,
      "Ġcreating": 3809,
      "icip": 3810,
      "pped": 3811,
      "Ġprin": 3812,
      "ĠConf": 3813,
      "Ġlegisl": 3814,
      "ĠEnvironment": 3815,
      "ĠMuslim": 3816,
      "ken": 3817,
      "hemat": 3818,
      "Ġthousands": 3819,
      "Ex": 3820,
      "ners": 3821,
      "Ġmission": 3822,
      "ida": 3823,
      "ĠHen": 3824,
      "rief": 3825,
      "Ġadm": 3826,
      "rupt": 3827,
      "ĠProgram": 3828,
      "Ġstories": 3829,
      "Ġstream": 3830,
      "Ġfully": 3831,
      "fort": 3832,
      "Ġlat": 3833,
      "inese": 3834,
      "Ġversion": 3835,
      "ĠTrans": 3836,
      "Ġdestroy": 3837,
      "ste": 3838,
      "Ġgod": 3839,
      "Ġstaff": 3840,
      "ĠJames": 3841,
      "Ġenter": 3842,
      "Ġtechnologies": 3843,
      "Ġcommonly": 3844,
      "Un": 3845,
      "Ġbound": 3846,
      "Ġcompar": 3847,
      "Ġgenes": 3848,
      "force": 3849,
      "ibly": 3850,
      "Ġparty": 3851,
      "Ġassign": 3852,
      "ĠJews": 3853,
      "Ġrelatively": 3854,
      "Ġreasons": 3855,
      "Ġtrack": 3856,
      "Ġeveryone": 3857,
      "Ġpowerful": 3858,
      "Ġchanged": 3859,
      "itect": 3860,
      "Ġadapt": 3861,
      "ĠProf": 3862,
      "Ġexperim": 3863,
      "Ġequipment": 3864,
      "Ġidentified": 3865,
      "aign": 3866,
      "ios": 3867,
      "su": 3868,
      "ĠMal": 3869,
      "ĠBecause": 3870,
      "ĠGreen": 3871,
      "Ġbelief": 3872,
      "Ġpicture": 3873,
      "oration": 3874,
      "Ġfriends": 3875,
      "Ġcommercial": 3876,
      "ĠAre": 3877,
      "ĠMor": 3878,
      "ĠMars": 3879,
      "Ġroom": 3880,
      "aur": 3881,
      "co": 3882,
      "hy": 3883,
      "Ġtou": 3884,
      "Ġrepe": 3885,
      "ĠGermany": 3886,
      "ĠRepublic": 3887,
      "Ġapproximately": 3888,
      "ula": 3889,
      "Ġ27": 3890,
      "Ġusers": 3891,
      "icial": 3892,
      "Ġsolution": 3893,
      "Ġfaith": 3894,
      "cast": 3895,
      "orial": 3896,
      "Ġstar": 3897,
      "apers": 3898,
      "Ġworked": 3899,
      "Ġvitamin": 3900,
      "ocks": 3901,
      "Ġ2003": 3902,
      "eech": 3903,
      "Ġequal": 3904,
      "Ġmedicine": 3905,
      "ĠAlso": 3906,
      "ĠAv": 3907,
      "vert": 3908,
      "Ġmilk": 3909,
      "Ġopportunity": 3910,
      "ygen": 3911,
      "Ġrecords": 3912,
      "men": 3913,
      "ogen": 3914,
      "pris": 3915,
      "Ġsac": 3916,
      "Ġdirection": 3917,
      "Ġstage": 3918,
      "Ġvacc": 3919,
      "Ġbaby": 3920,
      "ĠCollege": 3921,
      "ĠPhil": 3922,
      "Ġveh": 3923,
      "Ġestimated": 3924,
      "lant": 3925,
      "Ġmer": 3926,
      "rome": 3927,
      "Ġtypically": 3928,
      "Ġpractices": 3929,
      "Ġlimit": 3930,
      "Ġdoub": 3931,
      "Ġdisplay": 3932,
      "ĠCur": 3933,
      "Ġvia": 3934,
      "Ġnote": 3935,
      "Ġrob": 3936,
      "Ġeventually": 3937,
      "Ġliterature": 3938,
      "Ġcapacity": 3939,
      "Ġpiece": 3940,
      "udd": 3941,
      "Ġchoice": 3942,
      "riage": 3943,
      "Ġturned": 3944,
      "ĠWestern": 3945,
      "bre": 3946,
      "Ġemp": 3947,
      "ience": 3948,
      "Ġeating": 3949,
      "Ġwhom": 3950,
      "ĠMary": 3951,
      "Ġfavor": 3952,
      "Some": 3953,
      "Ġoffers": 3954,
      "atin": 3955,
      "Ġlived": 3956,
      "ĠDis": 3957,
      "Ġshape": 3958,
      "Ġfactor": 3959,
      "ĠGovernment": 3960,
      "DA": 3961,
      "rehens": 3962,
      "Ġcra": 3963,
      "Ġdisorders": 3964,
      "Ġexisting": 3965,
      "Ġnotes": 3966,
      "Ġgrant": 3967,
      "Ġiniti": 3968,
      "Ġfruit": 3969,
      "house": 3970,
      "Ġbran": 3971,
      "Ġmob": 3972,
      "ĠTheir": 3973,
      "Ġdefined": 3974,
      "Ġhair": 3975,
      "Ġleaves": 3976,
      "Ġfindings": 3977,
      "Ġboard": 3978,
      "Ġrunning": 3979,
      "Ġpredict": 3980,
      "ĠOur": 3981,
      "Ġreference": 3982,
      "Ġforeign": 3983,
      "porary": 3984,
      "Ġrecommend": 3985,
      "za": 3986,
      "Ġupper": 3987,
      "Ġincreases": 3988,
      "While": 3989,
      "Ġalternative": 3990,
      "Ġcop": 3991,
      "ĠFound": 3992,
      "Ġspring": 3993,
      "Ġprojects": 3994,
      "Ġfemale": 3995,
      "EC": 3996,
      "Ġbodies": 3997,
      "Ġdivid": 3998,
      "ider": 3999,
      "Ġhighest": 4000,
      "Ġmoment": 4001,
      "Ġcru": 4002,
      "Ġchance": 4003,
      "ĠUse": 4004,
      "related": 4005,
      "ĠPeople": 4006,
      "Ġtissue": 4007,
      "part": 4008,
      "amer": 4009,
      "Ġacadem": 4010,
      "'ve": 4011,
      "ĠFl": 4012,
      "ĠThus": 4013,
      "Ġsuggests": 4014,
      "load": 4015,
      "Ġactual": 4016,
      "Ġpresence": 4017,
      "Ġ186": 4018,
      "orage": 4019,
      "Ġmel": 4020,
      "Ġhuge": 4021,
      "ĠMass": 4022,
      "They": 4023,
      "ribute": 4024,
      "Ġassist": 4025,
      "Ġphysic": 4026,
      "78": 4027,
      "Ġseven": 4028,
      "Ġdifferences": 4029,
      "omas": 4030,
      "ĠEv": 4031,
      "Â°": 4032,
      "itis": 4033,
      "unte": 4034,
      "Ġindustrial": 4035,
      "Ġpatterns": 4036,
      "Ġaid": 4037,
      "Ġphen": 4038,
      "otes": 4039,
      "ĠCath": 4040,
      "âĢĿ.": 4041,
      "Ġpurch": 4042,
      "ĠMedicine": 4043,
      "ĠBritain": 4044,
      "ĠCourt": 4045,
      "45": 4046,
      "ED": 4047,
      "iable": 4048,
      "rations": 4049,
      "Ġmental": 4050,
      "Ġkilled": 4051,
      "Ġinfl": 4052,
      "ĠChinese": 4053,
      "Ġstrength": 4054,
      "gency": 4055,
      "ĠBra": 4056,
      "ĠHuman": 4057,
      "Ġscale": 4058,
      "Ġdecades": 4059,
      "anish": 4060,
      "igen": 4061,
      "ĠPublic": 4062,
      "ĠRead": 4063,
      "Ġdrive": 4064,
      "ĠBlack": 4065,
      "Ġmessage": 4066,
      "Ġgold": 4067,
      "Ġforward": 4068,
      "unction": 4069,
      "Ġexpress": 4070,
      "Ġtransfer": 4071,
      "Ġproperties": 4072,
      "Ġchoose": 4073,
      "Americ": 4074,
      "ĠMount": 4075,
      "Ġefficient": 4076,
      "Ġdetails": 4077,
      "Ġstrugg": 4078,
      "Ġcateg": 4079,
      "Ġworth": 4080,
      "Ġsurgery": 4081,
      "Ġfamous": 4082,
      "cers": 4083,
      "ĠIsland": 4084,
      "Ġreleased": 4085,
      "ĠJust": 4086,
      "Ġnorthern": 4087,
      "ologists": 4088,
      "Ġ2001": 4089,
      "Ġorganizations": 4090,
      "All": 4091,
      "Ġtruth": 4092,
      "Ġfunctions": 4093,
      "Ġmeasures": 4094,
      "36": 4095
    },
    "merges": [
      [
        "Ġ",
        "t"
      ],
      [
        "Ġ",
        "a"
      ],
      [
        "h",
        "e"
      ],
      [
        "i",
        "n"
      ],
      [
        "r",
        "e"
      ],
      [
        "Ġt",
        "he"
      ],
      [
        "Ġ",
        "o"
      ],
      [
        "e",
        "r"
      ],
      [
        "o",
        "n"
      ],
      [
        "a",
        "t"
      ],
      [
        "Ġ",
        "s"
      ],
      [
        "e",
        "n"
      ],
      [
        "Ġ",
        "c"
      ],
      [
        "Ġ",
        "w"
      ],
      [
        "e",
        "s"
      ],
      [
        "i",
        "s"
      ],
      [
        "n",
        "d"
      ],
      [
        "i",
        "t"
      ],
      [
        "o",
        "r"
      ],
      [
        "Ġ",
        "p"
      ],
      [
        "Ġo",
        "f"
      ],
      [
        "e",
        "d"
      ],
      [
        "a",
        "l"
      ],
      [
        "Ġ",
        "b"
      ],
      [
        "Ġ",
        "f"
      ],
      [
        "a",
        "n"
      ],
      [
        "Ġ",
        "in"
      ],
      [
        "in",
        "g"
      ],
      [
        "a",
        "r"
      ],
      [
        "o",
        "u"
      ],
      [
        "Ġ",
        "m"
      ],
      [
        "Ġa",
        "nd"
      ],
      [
        "i",
        "c"
      ],
      [
        "Ġt",
        "o"
      ],
      [
        "i",
        "on"
      ],
      [
        "Ġ",
        "d"
      ],
      [
        "l",
        "e"
      ],
      [
        "r",
        "o"
      ],
      [
        "a",
        "s"
      ],
      [
        "Ġ",
        "h"
      ],
      [
        "en",
        "t"
      ],
      [
        "Ġt",
        "h"
      ],
      [
        "i",
        "l"
      ],
      [
        "c",
        "t"
      ],
      [
        "Ġ",
        "e"
      ],
      [
        "Ġ",
        "re"
      ],
      [
        "o",
        "m"
      ],
      [
        "Ġ",
        "l"
      ],
      [
        "Ġ",
        "n"
      ],
      [
        "v",
        "e"
      ],
      [
        "s",
        "t"
      ],
      [
        "l",
        "y"
      ],
      [
        "Ġb",
        "e"
      ],
      [
        "Ġ",
        "is"
      ],
      [
        "Ġ",
        "T"
      ],
      [
        "o",
        "l"
      ],
      [
        "s",
        "e"
      ],
      [
        "Ġ",
        "g"
      ],
      [
        "at",
        "ion"
      ],
      [
        "i",
        "d"
      ],
      [
        "â",
        "Ģ"
      ],
      [
        "i",
        "m"
      ],
      [
        "u",
        "t"
      ],
      [
        "c",
        "e"
      ],
      [
        "o",
        "t"
      ],
      [
        "e",
        "t"
      ],
      [
        "Ġ",
        "A"
      ],
      [
        "u",
        "r"
      ],
      [
        "c",
        "h"
      ],
      [
        "r",
        "a"
      ],
      [
        "o",
        "w"
      ],
      [
        "Ġ",
        "S"
      ],
      [
        "Ġf",
        "or"
      ],
      [
        "i",
        "g"
      ],
      [
        "Ġth",
        "at"
      ],
      [
        "Ġo",
        "n"
      ],
      [
        "Ġ",
        "C"
      ],
      [
        "Ġ",
        "u"
      ],
      [
        "v",
        "er"
      ],
      [
        "Ġ",
        "I"
      ],
      [
        "Ġs",
        "t"
      ],
      [
        "i",
        "r"
      ],
      [
        "a",
        "m"
      ],
      [
        "u",
        "l"
      ],
      [
        "a",
        "y"
      ],
      [
        "a",
        "d"
      ],
      [
        "e",
        "l"
      ],
      [
        "Ġa",
        "s"
      ],
      [
        "it",
        "h"
      ],
      [
        "he",
        "r"
      ],
      [
        "Ġ",
        "y"
      ],
      [
        "Ġp",
        "ro"
      ],
      [
        "Ġc",
        "on"
      ],
      [
        "Ġa",
        "n"
      ],
      [
        "Ġw",
        "h"
      ],
      [
        "Ġ",
        "M"
      ],
      [
        "Ġw",
        "ith"
      ],
      [
        "Ġa",
        "re"
      ],
      [
        "Ġ",
        "1"
      ],
      [
        "t",
        "er"
      ],
      [
        "Ġo",
        "r"
      ],
      [
        "Ġ",
        "it"
      ],
      [
        "i",
        "f"
      ],
      [
        "ĠT",
        "he"
      ],
      [
        "Ġa",
        "l"
      ],
      [
        "Ġ",
        "("
      ],
      [
        "o",
        "d"
      ],
      [
        "Ġ",
        "P"
      ],
      [
        "t",
        "h"
      ],
      [
        "m",
        "ent"
      ],
      [
        "is",
        "t"
      ],
      [
        "g",
        "e"
      ],
      [
        "o",
        "p"
      ],
      [
        "er",
        "s"
      ],
      [
        "at",
        "e"
      ],
      [
        "Ġd",
        "e"
      ],
      [
        "Ġ",
        "B"
      ],
      [
        "i",
        "es"
      ],
      [
        "il",
        "l"
      ],
      [
        "u",
        "s"
      ],
      [
        "Ġy",
        "ou"
      ],
      [
        "Ġ",
        "he"
      ],
      [
        "e",
        "re"
      ],
      [
        "a",
        "b"
      ],
      [
        "Ġe",
        "x"
      ],
      [
        "re",
        "s"
      ],
      [
        "Ġ",
        "H"
      ],
      [
        "u",
        "m"
      ],
      [
        "es",
        "s"
      ],
      [
        "it",
        "y"
      ],
      [
        "Ġc",
        "om"
      ],
      [
        "Ġb",
        "y"
      ],
      [
        "ro",
        "m"
      ],
      [
        "e",
        "ct"
      ],
      [
        "es",
        "t"
      ],
      [
        "l",
        "d"
      ],
      [
        "o",
        "re"
      ],
      [
        "a",
        "nd"
      ],
      [
        "Ġs",
        "u"
      ],
      [
        "a",
        "c"
      ],
      [
        "o",
        "s"
      ],
      [
        "r",
        "i"
      ],
      [
        "Ġw",
        "as"
      ],
      [
        "Ġa",
        "t"
      ],
      [
        "e",
        "m"
      ],
      [
        "Ġ",
        "v"
      ],
      [
        "Ġ",
        "W"
      ],
      [
        "n",
        "t"
      ],
      [
        "i",
        "ve"
      ],
      [
        "Ġ",
        "D"
      ],
      [
        "q",
        "u"
      ],
      [
        "a",
        "in"
      ],
      [
        "k",
        "e"
      ],
      [
        "an",
        "t"
      ],
      [
        "ig",
        "h"
      ],
      [
        "Ġ",
        "E"
      ],
      [
        "p",
        "p"
      ],
      [
        "Ġf",
        "rom"
      ],
      [
        "Ġh",
        "a"
      ],
      [
        "Ġ",
        "R"
      ],
      [
        "u",
        "d"
      ],
      [
        "Ġ",
        "F"
      ],
      [
        "o",
        "c"
      ],
      [
        "Ġc",
        "h"
      ],
      [
        "Ġ",
        "2"
      ],
      [
        "Ġn",
        "e"
      ],
      [
        "i",
        "v"
      ],
      [
        "or",
        "t"
      ],
      [
        "Ġs",
        "e"
      ],
      [
        "Ġ",
        "N"
      ],
      [
        "âĢ",
        "Ļ"
      ],
      [
        "Ġ",
        "r"
      ],
      [
        "Ġ",
        "G"
      ],
      [
        "u",
        "n"
      ],
      [
        "u",
        "re"
      ],
      [
        "Ġn",
        "ot"
      ],
      [
        "ar",
        "t"
      ],
      [
        "ic",
        "al"
      ],
      [
        "Ġc",
        "an"
      ],
      [
        "i",
        "al"
      ],
      [
        "Ġha",
        "ve"
      ],
      [
        "Ġ",
        "L"
      ],
      [
        "0",
        "0"
      ],
      [
        "Ġ",
        "le"
      ],
      [
        "o",
        "g"
      ],
      [
        "Ġs",
        "h"
      ],
      [
        "Ġ",
        "en"
      ],
      [
        "Ġs",
        "p"
      ],
      [
        "ic",
        "h"
      ],
      [
        "igh",
        "t"
      ],
      [
        "Ġ",
        "âĢ"
      ],
      [
        "Ġth",
        "is"
      ],
      [
        "al",
        "l"
      ],
      [
        "r",
        "ou"
      ],
      [
        "ou",
        "ld"
      ],
      [
        "Ġa",
        "b"
      ],
      [
        "g",
        "h"
      ],
      [
        "T",
        "he"
      ],
      [
        "p",
        "t"
      ],
      [
        "t",
        "her"
      ],
      [
        "o",
        "st"
      ],
      [
        "ou",
        "r"
      ],
      [
        "Ġw",
        "or"
      ],
      [
        "Ġw",
        "e"
      ],
      [
        "ion",
        "s"
      ],
      [
        "om",
        "e"
      ],
      [
        "ar",
        "d"
      ],
      [
        "at",
        "ed"
      ],
      [
        "in",
        "e"
      ],
      [
        "u",
        "st"
      ],
      [
        "el",
        "l"
      ],
      [
        "ou",
        "t"
      ],
      [
        "Ġ",
        "O"
      ],
      [
        "e",
        "ar"
      ],
      [
        "Ġ",
        "J"
      ],
      [
        "p",
        "er"
      ],
      [
        "as",
        "t"
      ],
      [
        "Ġthe",
        "ir"
      ],
      [
        "a",
        "g"
      ],
      [
        "Ġin",
        "t"
      ],
      [
        "an",
        "s"
      ],
      [
        "Ġu",
        "s"
      ],
      [
        "f",
        "f"
      ],
      [
        "Ġ",
        "im"
      ],
      [
        "'",
        "s"
      ],
      [
        "Ġwh",
        "ich"
      ],
      [
        "Ġ",
        "U"
      ],
      [
        "p",
        "l"
      ],
      [
        "a",
        "ct"
      ],
      [
        "Ġp",
        "l"
      ],
      [
        "Ġ",
        "k"
      ],
      [
        "a",
        "ge"
      ],
      [
        "e",
        "c"
      ],
      [
        "ou",
        "s"
      ],
      [
        "d",
        "u"
      ],
      [
        "a",
        "k"
      ],
      [
        "id",
        "e"
      ],
      [
        "ĠI",
        "n"
      ],
      [
        "a",
        "re"
      ],
      [
        "Ġw",
        "he"
      ],
      [
        "i",
        "a"
      ],
      [
        "e",
        "w"
      ],
      [
        "Ġal",
        "l"
      ],
      [
        "Ġcon",
        "t"
      ],
      [
        "Ġthe",
        "y"
      ],
      [
        "i",
        "z"
      ],
      [
        "Ġd",
        "is"
      ],
      [
        "on",
        "g"
      ],
      [
        "i",
        "b"
      ],
      [
        "en",
        "d"
      ],
      [
        "o",
        "od"
      ],
      [
        "c",
        "c"
      ],
      [
        "a",
        "p"
      ],
      [
        "Ġa",
        "d"
      ],
      [
        "r",
        "u"
      ],
      [
        "Ġh",
        "as"
      ],
      [
        "ar",
        "y"
      ],
      [
        "Ġm",
        "ore"
      ],
      [
        "Ġin",
        "c"
      ],
      [
        "ve",
        "l"
      ],
      [
        "ul",
        "t"
      ],
      [
        "Ġw",
        "ere"
      ],
      [
        "ation",
        "s"
      ],
      [
        "at",
        "er"
      ],
      [
        "Ġw",
        "ill"
      ],
      [
        "i",
        "p"
      ],
      [
        "or",
        "m"
      ],
      [
        "Ġcom",
        "p"
      ],
      [
        "Ġre",
        "s"
      ],
      [
        "Ġ1",
        "9"
      ],
      [
        "Ġ",
        "\""
      ],
      [
        "Ġb",
        "ut"
      ],
      [
        "âĢ",
        "Ŀ"
      ],
      [
        "Ġd",
        "o"
      ],
      [
        "i",
        "re"
      ],
      [
        "il",
        "d"
      ],
      [
        "s",
        "o"
      ],
      [
        "Ġc",
        "l"
      ],
      [
        "Ġo",
        "ther"
      ],
      [
        "en",
        "ce"
      ],
      [
        "Ġp",
        "er"
      ],
      [
        "r",
        "y"
      ],
      [
        "u",
        "al"
      ],
      [
        "Ġm",
        "an"
      ],
      [
        "ĠT",
        "h"
      ],
      [
        "o",
        "k"
      ],
      [
        "Ġon",
        "e"
      ],
      [
        "ab",
        "le"
      ],
      [
        "e",
        "p"
      ],
      [
        "o",
        "se"
      ],
      [
        "in",
        "d"
      ],
      [
        "Ġyou",
        "r"
      ],
      [
        "Ġm",
        "e"
      ],
      [
        "Ġh",
        "is"
      ],
      [
        "an",
        "ce"
      ],
      [
        "is",
        "h"
      ],
      [
        "Ġ",
        "j"
      ],
      [
        "a",
        "ch"
      ],
      [
        "Ġa",
        "r"
      ],
      [
        "as",
        "s"
      ],
      [
        "ac",
        "k"
      ],
      [
        "res",
        "s"
      ],
      [
        "re",
        "at"
      ],
      [
        "ig",
        "n"
      ],
      [
        "ent",
        "s"
      ],
      [
        "Ġp",
        "art"
      ],
      [
        "b",
        "er"
      ],
      [
        "a",
        "v"
      ],
      [
        "or",
        "d"
      ],
      [
        "ic",
        "e"
      ],
      [
        "Ġu",
        "n"
      ],
      [
        "Ġt",
        "e"
      ],
      [
        "am",
        "e"
      ],
      [
        "Ġal",
        "so"
      ],
      [
        "a",
        "u"
      ],
      [
        "as",
        "e"
      ],
      [
        "ct",
        "ion"
      ],
      [
        "Ġwh",
        "o"
      ],
      [
        "a",
        "ke"
      ],
      [
        "ĠâĢ",
        "ľ"
      ],
      [
        "ĠS",
        "t"
      ],
      [
        "a",
        "ce"
      ],
      [
        "ou",
        "nt"
      ],
      [
        "or",
        "y"
      ],
      [
        "it",
        "ion"
      ],
      [
        "Ġim",
        "p"
      ],
      [
        "Ġa",
        "pp"
      ],
      [
        "Ġo",
        "ut"
      ],
      [
        "Ġs",
        "o"
      ],
      [
        "u",
        "b"
      ],
      [
        "im",
        "e"
      ],
      [
        "Ġab",
        "out"
      ],
      [
        "Ġe",
        "v"
      ],
      [
        "Ġp",
        "re"
      ],
      [
        ")",
        "."
      ],
      [
        "Ġ",
        "K"
      ],
      [
        "ver",
        "y"
      ],
      [
        "on",
        "e"
      ],
      [
        "m",
        "er"
      ],
      [
        "Ġin",
        "f"
      ],
      [
        "en",
        "s"
      ],
      [
        "ou",
        "nd"
      ],
      [
        "re",
        "e"
      ],
      [
        "ol",
        "og"
      ],
      [
        "Ġst",
        "ud"
      ],
      [
        "c",
        "i"
      ],
      [
        "or",
        "s"
      ],
      [
        "Ġp",
        "e"
      ],
      [
        "it",
        "e"
      ],
      [
        "Ġy",
        "ear"
      ],
      [
        "u",
        "e"
      ],
      [
        "Ġu",
        "p"
      ],
      [
        "c",
        "es"
      ],
      [
        "Ġcom",
        "m"
      ],
      [
        "i",
        "an"
      ],
      [
        "Ġth",
        "an"
      ],
      [
        "Ġbe",
        "en"
      ],
      [
        "Ġs",
        "y"
      ],
      [
        "Ġthe",
        "m"
      ],
      [
        "r",
        "ic"
      ],
      [
        "ĠC",
        "h"
      ],
      [
        "n",
        "ow"
      ],
      [
        "i",
        "e"
      ],
      [
        "Ġm",
        "ay"
      ],
      [
        "o",
        "ok"
      ],
      [
        "i",
        "le"
      ],
      [
        "Ġbe",
        "c"
      ],
      [
        "k",
        "s"
      ],
      [
        "an",
        "g"
      ],
      [
        "l",
        "ow"
      ],
      [
        "Ġit",
        "s"
      ],
      [
        "at",
        "es"
      ],
      [
        "i",
        "ke"
      ],
      [
        "Ġs",
        "ome"
      ],
      [
        "Ġh",
        "ad"
      ],
      [
        "Ġre",
        "c"
      ],
      [
        "Ġ",
        "V"
      ],
      [
        "Ġa",
        "g"
      ],
      [
        "Ġthe",
        "re"
      ],
      [
        "ĠI",
        "t"
      ],
      [
        "Ġg",
        "o"
      ],
      [
        "a",
        "il"
      ],
      [
        "Ġ",
        "qu"
      ],
      [
        "ay",
        "s"
      ],
      [
        "ou",
        "gh"
      ],
      [
        "nd",
        "er"
      ],
      [
        "Ġint",
        "o"
      ],
      [
        "ver",
        "s"
      ],
      [
        "on",
        "s"
      ],
      [
        "p",
        "h"
      ],
      [
        "op",
        "le"
      ],
      [
        "r",
        "it"
      ],
      [
        "Ġwhe",
        "n"
      ],
      [
        "er",
        "v"
      ],
      [
        "ing",
        "s"
      ],
      [
        "ter",
        "n"
      ],
      [
        "if",
        "f"
      ],
      [
        "Ġt",
        "ra"
      ],
      [
        "on",
        "d"
      ],
      [
        "rou",
        "gh"
      ],
      [
        "re",
        "n"
      ],
      [
        "Ġ",
        "3"
      ],
      [
        "Ġthe",
        "se"
      ],
      [
        "Ġo",
        "ver"
      ],
      [
        "Ġw",
        "ould"
      ],
      [
        "m",
        "s"
      ],
      [
        "Ġt",
        "w"
      ],
      [
        "Ġs",
        "a"
      ],
      [
        "al",
        "ly"
      ],
      [
        "Ġ",
        "ra"
      ],
      [
        "Ġt",
        "ime"
      ],
      [
        "t",
        "e"
      ],
      [
        "ir",
        "st"
      ],
      [
        "Ġin",
        "d"
      ],
      [
        "o",
        "ve"
      ],
      [
        "l",
        "ic"
      ],
      [
        "Ġ",
        "ro"
      ],
      [
        "Ġwor",
        "k"
      ],
      [
        "l",
        "l"
      ],
      [
        "Ġne",
        "w"
      ],
      [
        "t",
        "s"
      ],
      [
        "l",
        "ud"
      ],
      [
        "ation",
        "al"
      ],
      [
        "Ġcon",
        "s"
      ],
      [
        "Ġpe",
        "ople"
      ],
      [
        "Ġre",
        "p"
      ],
      [
        "Ġd",
        "es"
      ],
      [
        "Ġm",
        "ost"
      ],
      [
        "Ġc",
        "ol"
      ],
      [
        "he",
        "d"
      ],
      [
        "re",
        "d"
      ],
      [
        "w",
        "n"
      ],
      [
        "Ġu",
        "nder"
      ],
      [
        "ĠTh",
        "is"
      ],
      [
        "le",
        "ct"
      ],
      [
        "Ġa",
        "ct"
      ],
      [
        "au",
        "se"
      ],
      [
        "y",
        "s"
      ],
      [
        "j",
        "ect"
      ],
      [
        "Ġh",
        "ow"
      ],
      [
        "Ġb",
        "l"
      ],
      [
        "Ġk",
        "now"
      ],
      [
        "w",
        "e"
      ],
      [
        "Ġbe",
        "t"
      ],
      [
        "Ġg",
        "en"
      ],
      [
        "Ġn",
        "o"
      ],
      [
        "if",
        "ic"
      ],
      [
        "Ġ2",
        "0"
      ],
      [
        "Ġre",
        "l"
      ],
      [
        "ment",
        "s"
      ],
      [
        "Ġ",
        "Y"
      ],
      [
        "it",
        "ies"
      ],
      [
        "vel",
        "op"
      ],
      [
        "Ġd",
        "iff"
      ],
      [
        "Ġu",
        "se"
      ],
      [
        "Ġsu",
        "ch"
      ],
      [
        "ĠU",
        "n"
      ],
      [
        "Ġa",
        "cc"
      ],
      [
        "Ġ2",
        "00"
      ],
      [
        "Ġl",
        "ike"
      ],
      [
        "o",
        "b"
      ],
      [
        "st",
        "em"
      ],
      [
        "Ġo",
        "ur"
      ],
      [
        "l",
        "es"
      ],
      [
        "Ġch",
        "ild"
      ],
      [
        ")",
        ","
      ],
      [
        "Ġan",
        "y"
      ],
      [
        "Ġ",
        "-"
      ],
      [
        "Ġ",
        "if"
      ],
      [
        "Ġt",
        "r"
      ],
      [
        "Ġf",
        "irst"
      ],
      [
        "at",
        "ive"
      ],
      [
        "n",
        "ing"
      ],
      [
        "Ġon",
        "ly"
      ],
      [
        "i",
        "ous"
      ],
      [
        "Ġpro",
        "v"
      ],
      [
        "Ġof",
        "f"
      ],
      [
        "ul",
        "ar"
      ],
      [
        "c",
        "ed"
      ],
      [
        "al",
        "th"
      ],
      [
        "Ġe",
        "ff"
      ],
      [
        "o",
        "ol"
      ],
      [
        "is",
        "s"
      ],
      [
        "Ġinc",
        "lud"
      ],
      [
        "p",
        "le"
      ],
      [
        "Ġtw",
        "o"
      ],
      [
        "at",
        "h"
      ],
      [
        "Ġp",
        "h"
      ],
      [
        "Ġa",
        "m"
      ],
      [
        "o",
        "v"
      ],
      [
        "ĠH",
        "e"
      ],
      [
        "Ġwh",
        "at"
      ],
      [
        "Ġre",
        "g"
      ],
      [
        "Ġne",
        "ed"
      ],
      [
        "ri",
        "b"
      ],
      [
        "Ġth",
        "rough"
      ],
      [
        "Ġman",
        "y"
      ],
      [
        "n",
        "e"
      ],
      [
        "in",
        "t"
      ],
      [
        "f",
        "ter"
      ],
      [
        "er",
        "m"
      ],
      [
        "Ġsp",
        "ec"
      ],
      [
        "Ġus",
        "ed"
      ],
      [
        "os",
        "s"
      ],
      [
        "u",
        "c"
      ],
      [
        "Ġp",
        "o"
      ],
      [
        "i",
        "ed"
      ],
      [
        "Ġex",
        "p"
      ],
      [
        "Ġde",
        "velop"
      ],
      [
        "at",
        "ing"
      ],
      [
        "c",
        "ess"
      ],
      [
        "Ġpro",
        "du"
      ],
      [
        "Ġa",
        "c"
      ],
      [
        "rou",
        "nd"
      ],
      [
        "he",
        "n"
      ],
      [
        "is",
        "e"
      ],
      [
        "ur",
        "ing"
      ],
      [
        "in",
        "k"
      ],
      [
        "Ġe",
        "m"
      ],
      [
        "Ġo",
        "b"
      ],
      [
        "al",
        "s"
      ],
      [
        "Ġat",
        "t"
      ],
      [
        "i",
        "et"
      ],
      [
        "Ġs",
        "ur"
      ],
      [
        "Ġs",
        "c"
      ],
      [
        "ar",
        "k"
      ],
      [
        "ic",
        "s"
      ],
      [
        "Ġyear",
        "s"
      ],
      [
        "ro",
        "p"
      ],
      [
        "if",
        "e"
      ],
      [
        "ow",
        "er"
      ],
      [
        "ol",
        "d"
      ],
      [
        "Ġsy",
        "stem"
      ],
      [
        "y",
        "p"
      ],
      [
        "f",
        "ul"
      ],
      [
        "l",
        "and"
      ],
      [
        "ot",
        "h"
      ],
      [
        "se",
        "l"
      ],
      [
        "ar",
        "ch"
      ],
      [
        "il",
        "ity"
      ],
      [
        "a",
        "w"
      ],
      [
        "Ġde",
        "c"
      ],
      [
        "er",
        "t"
      ],
      [
        "ib",
        "le"
      ],
      [
        "Ġhe",
        "l"
      ],
      [
        "Ġ",
        "4"
      ],
      [
        "ro",
        "w"
      ],
      [
        "ad",
        "e"
      ],
      [
        "Ġas",
        "s"
      ],
      [
        "t",
        "en"
      ],
      [
        "c",
        "y"
      ],
      [
        "as",
        "ed"
      ],
      [
        "Ġf",
        "e"
      ],
      [
        "g",
        "an"
      ],
      [
        "Ġp",
        "r"
      ],
      [
        "Ġw",
        "ater"
      ],
      [
        "it",
        "ed"
      ],
      [
        "mer",
        "ic"
      ],
      [
        "n",
        "g"
      ],
      [
        "ra",
        "m"
      ],
      [
        "an",
        "ge"
      ],
      [
        "ow",
        "n"
      ],
      [
        "Ġre",
        "m"
      ],
      [
        "Ġad",
        "d"
      ],
      [
        "Ġhel",
        "p"
      ],
      [
        "ut",
        "ion"
      ],
      [
        "b",
        "le"
      ],
      [
        "Ġc",
        "ould"
      ],
      [
        "I",
        "n"
      ],
      [
        "Ġsh",
        "ould"
      ],
      [
        "f",
        "ore"
      ],
      [
        "Ġp",
        "res"
      ],
      [
        "Ġin",
        "v"
      ],
      [
        "Ġc",
        "o"
      ],
      [
        "Ġf",
        "l"
      ],
      [
        "Ġsu",
        "b"
      ],
      [
        "Ġ1",
        "8"
      ],
      [
        "we",
        "en"
      ],
      [
        "u",
        "res"
      ],
      [
        "id",
        "ent"
      ],
      [
        "ere",
        "d"
      ],
      [
        "Ġsu",
        "pp"
      ],
      [
        "et",
        "h"
      ],
      [
        "Ġdiff",
        "ere"
      ],
      [
        "Ġin",
        "ter"
      ],
      [
        "ist",
        "s"
      ],
      [
        "il",
        "y"
      ],
      [
        "olog",
        "y"
      ],
      [
        "u",
        "ch"
      ],
      [
        "he",
        "s"
      ],
      [
        "Ġp",
        "ol"
      ],
      [
        "Ġwhe",
        "re"
      ],
      [
        "Ġ",
        "5"
      ],
      [
        "Ġ",
        "her"
      ],
      [
        "Ġw",
        "ell"
      ],
      [
        "Ġbet",
        "ween"
      ],
      [
        "Ġe",
        "ar"
      ],
      [
        "ch",
        "ool"
      ],
      [
        "ĠA",
        "s"
      ],
      [
        "Ġre",
        "se"
      ],
      [
        "ic",
        "k"
      ],
      [
        "Ġ20",
        "1"
      ],
      [
        "it",
        "s"
      ],
      [
        "ĠA",
        "meric"
      ],
      [
        "Ġs",
        "m"
      ],
      [
        ".",
        "."
      ],
      [
        "Ġc",
        "ent"
      ],
      [
        "orm",
        "ation"
      ],
      [
        "x",
        "t"
      ],
      [
        "i",
        "vers"
      ],
      [
        "Ġsa",
        "id"
      ],
      [
        "ch",
        "n"
      ],
      [
        "ra",
        "ct"
      ],
      [
        "e",
        "ver"
      ],
      [
        "g",
        "y"
      ],
      [
        "Ġh",
        "igh"
      ],
      [
        "on",
        "t"
      ],
      [
        "Ġf",
        "ound"
      ],
      [
        "Ġc",
        "ount"
      ],
      [
        "ant",
        "s"
      ],
      [
        "Ġn",
        "um"
      ],
      [
        "f",
        "t"
      ],
      [
        "ic",
        "t"
      ],
      [
        "Ġtr",
        "ans"
      ],
      [
        "ver",
        "n"
      ],
      [
        "in",
        "s"
      ],
      [
        "Ġfor",
        "m"
      ],
      [
        "ur",
        "al"
      ],
      [
        "Ġre",
        "f"
      ],
      [
        "Ġp",
        "ers"
      ],
      [
        "ur",
        "n"
      ],
      [
        "Ġm",
        "od"
      ],
      [
        "Ġl",
        "ar"
      ],
      [
        "Ġm",
        "ed"
      ],
      [
        "is",
        "m"
      ],
      [
        "Ġh",
        "um"
      ],
      [
        "Ġb",
        "u"
      ],
      [
        "Ġl",
        "ong"
      ],
      [
        "it",
        "t"
      ],
      [
        "in",
        "es"
      ],
      [
        "ot",
        "her"
      ],
      [
        "at",
        "ure"
      ],
      [
        "Ġa",
        "fter"
      ],
      [
        "Ġm",
        "ake"
      ],
      [
        "Ġthe",
        "n"
      ],
      [
        "Ġp",
        "ub"
      ],
      [
        "Ġwor",
        "ld"
      ],
      [
        "Ġg",
        "et"
      ],
      [
        "Ġex",
        "am"
      ],
      [
        "Ġj",
        "ust"
      ],
      [
        "Ġin",
        "st"
      ],
      [
        "ual",
        "ly"
      ],
      [
        "Ġc",
        "all"
      ],
      [
        "Ġ",
        "ed"
      ],
      [
        "o",
        "y"
      ],
      [
        "Ġth",
        "ose"
      ],
      [
        "e",
        "f"
      ],
      [
        "Ġdis",
        "c"
      ],
      [
        "ce",
        "pt"
      ],
      [
        "ĠâĢ",
        "ĵ"
      ],
      [
        "v",
        "ent"
      ],
      [
        "Ġev",
        "en"
      ],
      [
        "v",
        "ed"
      ],
      [
        "Ġhe",
        "alth"
      ],
      [
        "Ġbec",
        "ause"
      ],
      [
        "Ġ",
        "very"
      ],
      [
        "om",
        "m"
      ],
      [
        "Ġimp",
        "ort"
      ],
      [
        "Ġd",
        "et"
      ],
      [
        "c",
        "ent"
      ],
      [
        "Ġex",
        "t"
      ],
      [
        "or",
        "k"
      ],
      [
        "er",
        "al"
      ],
      [
        "Ġeff",
        "ect"
      ],
      [
        "ical",
        "ly"
      ],
      [
        "Ġse",
        "e"
      ],
      [
        "Ġde",
        "f"
      ],
      [
        "Ġinc",
        "re"
      ],
      [
        "Ġw",
        "ay"
      ],
      [
        "i",
        "ew"
      ],
      [
        "Ġl",
        "oc"
      ],
      [
        "rou",
        "p"
      ],
      [
        "Ġs",
        "im"
      ],
      [
        "T",
        "h"
      ],
      [
        "Ġf",
        "ol"
      ],
      [
        "w",
        "ard"
      ],
      [
        "g",
        "et"
      ],
      [
        "Ġf",
        "am"
      ],
      [
        "ak",
        "ing"
      ],
      [
        "Ġs",
        "ign"
      ],
      [
        "Ġc",
        "ar"
      ],
      [
        "Ġd",
        "ist"
      ],
      [
        "as",
        "es"
      ],
      [
        "c",
        "er"
      ],
      [
        "Ġm",
        "y"
      ],
      [
        "Ġpro",
        "g"
      ],
      [
        "ĠP",
        "ro"
      ],
      [
        "Ġbe",
        "ing"
      ],
      [
        "Ġres",
        "p"
      ],
      [
        "Ġinf",
        "ormation"
      ],
      [
        "d",
        "s"
      ],
      [
        "Ġchild",
        "ren"
      ],
      [
        ".",
        "\""
      ],
      [
        "iv",
        "es"
      ],
      [
        "Ġex",
        "per"
      ],
      [
        "ar",
        "m"
      ],
      [
        "ĠW",
        "h"
      ],
      [
        "n",
        "ess"
      ],
      [
        "c",
        "k"
      ],
      [
        "Ġf",
        "act"
      ],
      [
        "Ġm",
        "uch"
      ],
      [
        "Ġse",
        "c"
      ],
      [
        "at",
        "her"
      ],
      [
        "Ġs",
        "he"
      ],
      [
        "l",
        "ed"
      ],
      [
        "im",
        "es"
      ],
      [
        "Ġr",
        "ight"
      ],
      [
        "Ġdiffere",
        "nt"
      ],
      [
        "u",
        "es"
      ],
      [
        "Ġc",
        "a"
      ],
      [
        "ĠA",
        "l"
      ],
      [
        "Ġar",
        "t"
      ],
      [
        "Ġm",
        "ade"
      ],
      [
        "Ġp",
        "at"
      ],
      [
        "Ġcomm",
        "un"
      ],
      [
        "Ġpart",
        "ic"
      ],
      [
        "ro",
        "s"
      ],
      [
        "Ġg",
        "ra"
      ],
      [
        "Ġl",
        "ife"
      ],
      [
        "Ġc",
        "ell"
      ],
      [
        "Ġs",
        "ame"
      ],
      [
        "Ġe",
        "very"
      ],
      [
        "Ġo",
        "wn"
      ],
      [
        "i",
        "o"
      ],
      [
        "Ġd",
        "uring"
      ],
      [
        "Ġe",
        "ach"
      ],
      [
        "at",
        "a"
      ],
      [
        "ru",
        "ct"
      ],
      [
        "Ġte",
        "chn"
      ],
      [
        "Ġ",
        "ent"
      ],
      [
        "c",
        "on"
      ],
      [
        "Ġm",
        "on"
      ],
      [
        "ag",
        "es"
      ],
      [
        "Ġde",
        "p"
      ],
      [
        "ar",
        "s"
      ],
      [
        "Ġ",
        "6"
      ],
      [
        ".",
        "âĢĿ"
      ],
      [
        "Ġres",
        "ult"
      ],
      [
        "Ġa",
        "ut"
      ],
      [
        "Ġs",
        "et"
      ],
      [
        "Ġ",
        "ke"
      ],
      [
        "ir",
        "on"
      ],
      [
        "u",
        "nd"
      ],
      [
        "Ġb",
        "ack"
      ],
      [
        "or",
        "n"
      ],
      [
        "|",
        "|"
      ],
      [
        "t",
        "he"
      ],
      [
        "Ġt",
        "yp"
      ],
      [
        "Ġs",
        "ci"
      ],
      [
        "Ġv",
        "ar"
      ],
      [
        "in",
        "ce"
      ],
      [
        "an",
        "y"
      ],
      [
        "Ġle",
        "ar"
      ],
      [
        "ivers",
        "ity"
      ],
      [
        "Ġen",
        "d"
      ],
      [
        "ĠN",
        "ew"
      ],
      [
        "Ġh",
        "im"
      ],
      [
        "00",
        "0"
      ],
      [
        "Ġp",
        "op"
      ],
      [
        "iz",
        "ed"
      ],
      [
        "Ġfol",
        "low"
      ],
      [
        "ĠThe",
        "y"
      ],
      [
        "ĠW",
        "e"
      ],
      [
        "g",
        "g"
      ],
      [
        "Ġs",
        "oc"
      ],
      [
        "Ġh",
        "ist"
      ],
      [
        "Ġs",
        "chool"
      ],
      [
        "Ġc",
        "re"
      ],
      [
        "Ġre",
        "qu"
      ],
      [
        "ĠA",
        "n"
      ],
      [
        "Ġag",
        "ain"
      ],
      [
        "ĠA",
        "r"
      ],
      [
        "Ġm",
        "in"
      ],
      [
        "Ġre",
        "ad"
      ],
      [
        "Ġle",
        "ad"
      ],
      [
        "e",
        "g"
      ],
      [
        "h",
        "ip"
      ],
      [
        "om",
        "en"
      ],
      [
        "Ġle",
        "vel"
      ],
      [
        "1",
        "9"
      ],
      [
        "Ġgo",
        "vern"
      ],
      [
        "is",
        "hed"
      ],
      [
        "r",
        "an"
      ],
      [
        "t",
        "ing"
      ],
      [
        "Ġn",
        "ow"
      ],
      [
        "ect",
        "ion"
      ],
      [
        "Ġst",
        "ate"
      ],
      [
        "Ġg",
        "roup"
      ],
      [
        "e",
        "x"
      ],
      [
        "od",
        "y"
      ],
      [
        "Ġpro",
        "cess"
      ],
      [
        "Ġs",
        "k"
      ],
      [
        "Ġdo",
        "es"
      ],
      [
        "Ġsh",
        "ow"
      ],
      [
        "ĠF",
        "or"
      ],
      [
        "Ġstud",
        "y"
      ],
      [
        "t",
        "y"
      ],
      [
        "ut",
        "e"
      ],
      [
        "Ġin",
        "s"
      ],
      [
        "v",
        "en"
      ],
      [
        "al",
        "e"
      ],
      [
        "Ġf",
        "ind"
      ],
      [
        "Ġc",
        "ur"
      ],
      [
        "ur",
        "y"
      ],
      [
        "Ġb",
        "oth"
      ],
      [
        "Ġimport",
        "ant"
      ],
      [
        "Ġbe",
        "fore"
      ],
      [
        "er",
        "gy"
      ],
      [
        "iz",
        "e"
      ],
      [
        "Ġg",
        "ood"
      ],
      [
        "ic",
        "es"
      ],
      [
        "in",
        "ed"
      ],
      [
        "Ġpro",
        "ble"
      ],
      [
        "Ġstud",
        "ents"
      ],
      [
        "f",
        "orm"
      ],
      [
        "ĠI",
        "nd"
      ],
      [
        "Ġsm",
        "all"
      ],
      [
        "Ġcomp",
        "le"
      ],
      [
        "re",
        "ad"
      ],
      [
        "ire",
        "ct"
      ],
      [
        "o",
        "h"
      ],
      [
        "Ġc",
        "he"
      ],
      [
        "Ġm",
        "em"
      ],
      [
        "Ġf",
        "ood"
      ],
      [
        "Ġp",
        "ower"
      ],
      [
        "Ġa",
        "v"
      ],
      [
        "ĠI",
        "f"
      ],
      [
        "v",
        "iron"
      ],
      [
        "Ġst",
        "r"
      ],
      [
        "Ġex",
        "pl"
      ],
      [
        "Ġpers",
        "on"
      ],
      [
        "i",
        "ent"
      ],
      [
        "r",
        "al"
      ],
      [
        "in",
        "al"
      ],
      [
        "a",
        "x"
      ],
      [
        "i",
        "x"
      ],
      [
        "n",
        "ce"
      ],
      [
        "Ġdis",
        "e"
      ],
      [
        "Ġo",
        "cc"
      ],
      [
        "v",
        "ing"
      ],
      [
        "im",
        "ate"
      ],
      [
        "Ġd",
        "i"
      ],
      [
        "and",
        "s"
      ],
      [
        "ro",
        "l"
      ],
      [
        "Ġth",
        "ree"
      ],
      [
        "Ġg",
        "l"
      ],
      [
        "Ġt",
        "reat"
      ],
      [
        "r",
        "on"
      ],
      [
        "Ġ",
        "7"
      ],
      [
        "i",
        "el"
      ],
      [
        "ial",
        "ly"
      ],
      [
        "Ġl",
        "ook"
      ],
      [
        "d",
        "er"
      ],
      [
        "Ġt",
        "est"
      ],
      [
        "Ġd",
        "id"
      ],
      [
        "ĠS",
        "p"
      ],
      [
        "Ġprov",
        "id"
      ],
      [
        "a",
        "h"
      ],
      [
        "Ġp",
        "oss"
      ],
      [
        "Ġor",
        "gan"
      ],
      [
        "ĠI",
        "s"
      ],
      [
        "her",
        "s"
      ],
      [
        "Ġof",
        "ten"
      ],
      [
        "Ġnum",
        "ber"
      ],
      [
        "Ġhum",
        "an"
      ],
      [
        "v",
        "es"
      ],
      [
        "u",
        "p"
      ],
      [
        "a",
        "ir"
      ],
      [
        "e",
        "e"
      ],
      [
        "it",
        "al"
      ],
      [
        "ul",
        "ation"
      ],
      [
        "Ġwh",
        "ile"
      ],
      [
        "Ġ19",
        "9"
      ],
      [
        "Ġl",
        "ess"
      ],
      [
        "Ġrep",
        "ort"
      ],
      [
        "Ġpro",
        "t"
      ],
      [
        "Ġrese",
        "arch"
      ],
      [
        "Ġbe",
        "l"
      ],
      [
        "c",
        "l"
      ],
      [
        "ĠB",
        "ut"
      ],
      [
        "Ġcont",
        "in"
      ],
      [
        "'",
        "t"
      ],
      [
        "Ġus",
        "ing"
      ],
      [
        "Ġs",
        "erv"
      ],
      [
        "Ġ",
        "est"
      ],
      [
        "Ġd",
        "own"
      ],
      [
        "Ġv",
        "is"
      ],
      [
        "Ġd",
        "ay"
      ],
      [
        "ect",
        "ed"
      ],
      [
        "iv",
        "id"
      ],
      [
        "Ġ1",
        "0"
      ],
      [
        "ter",
        "s"
      ],
      [
        "sel",
        "f"
      ],
      [
        "Ġg",
        "row"
      ],
      [
        "âĢ",
        "Ķ"
      ],
      [
        "Ġs",
        "er"
      ],
      [
        "a",
        "j"
      ],
      [
        "viron",
        "ment"
      ],
      [
        "Ġg",
        "reat"
      ],
      [
        "Ġm",
        "ain"
      ],
      [
        "Ġch",
        "ar"
      ],
      [
        "en",
        "cy"
      ],
      [
        "i",
        "er"
      ],
      [
        "Ġt",
        "ake"
      ],
      [
        "a",
        "ve"
      ],
      [
        "ou",
        "se"
      ],
      [
        "Ġlar",
        "ge"
      ],
      [
        "d",
        "ay"
      ],
      [
        ".",
        ","
      ],
      [
        "oc",
        "k"
      ],
      [
        "ain",
        "s"
      ],
      [
        "Ġv",
        "al"
      ],
      [
        "are",
        "d"
      ],
      [
        "r",
        "ing"
      ],
      [
        "Ġcall",
        "ed"
      ],
      [
        "Ġs",
        "ol"
      ],
      [
        "ou",
        "th"
      ],
      [
        "ĠH",
        "ow"
      ],
      [
        "st",
        "it"
      ],
      [
        "Ġe",
        "lect"
      ],
      [
        "us",
        "s"
      ],
      [
        "re",
        "nt"
      ],
      [
        "Ġd",
        "ata"
      ],
      [
        "Ġre",
        "t"
      ],
      [
        "d",
        "ition"
      ],
      [
        "in",
        "ation"
      ],
      [
        "Ġm",
        "ust"
      ],
      [
        "Ġ",
        "8"
      ],
      [
        "Ġc",
        "our"
      ],
      [
        "st",
        "and"
      ],
      [
        "Ġpub",
        "lic"
      ],
      [
        "ak",
        "es"
      ],
      [
        "Ġcon",
        "f"
      ],
      [
        ",",
        "\""
      ],
      [
        "Ġa",
        "round"
      ],
      [
        "Ġf",
        "un"
      ],
      [
        "Ġcl",
        "ass"
      ],
      [
        "Ġcomm",
        "on"
      ],
      [
        "w",
        "ay"
      ],
      [
        "Ġr",
        "is"
      ],
      [
        "Ġdes",
        "ign"
      ],
      [
        "al",
        "ity"
      ],
      [
        "b",
        "ers"
      ],
      [
        "Ġpl",
        "an"
      ],
      [
        "Ġsupp",
        "ort"
      ],
      [
        "Ġth",
        "ough"
      ],
      [
        "le",
        "ar"
      ],
      [
        "Ġexam",
        "ple"
      ],
      [
        "ul",
        "l"
      ],
      [
        "Ġcons",
        "id"
      ],
      [
        "ros",
        "s"
      ],
      [
        "or",
        "th"
      ],
      [
        "Ġact",
        "iv"
      ],
      [
        "iet",
        "y"
      ],
      [
        "W",
        "h"
      ],
      [
        "e",
        "ad"
      ],
      [
        "i",
        "ans"
      ],
      [
        "ĠAmeric",
        "an"
      ],
      [
        "it",
        "ions"
      ],
      [
        "i",
        "qu"
      ],
      [
        "c",
        "om"
      ],
      [
        "os",
        "ed"
      ],
      [
        "ou",
        "n"
      ],
      [
        "as",
        "h"
      ],
      [
        "i",
        "or"
      ],
      [
        "ĠUn",
        "iversity"
      ],
      [
        "Ġst",
        "ill"
      ],
      [
        "Ġ",
        "9"
      ],
      [
        "g",
        "er"
      ],
      [
        "Ġknow",
        "n"
      ],
      [
        "ĠA",
        "nd"
      ],
      [
        "Ġo",
        "p"
      ],
      [
        "ill",
        "ion"
      ],
      [
        "Ġe",
        "qu"
      ],
      [
        "Ġs",
        "om"
      ],
      [
        "Ġgovern",
        "ment"
      ],
      [
        "t",
        "on"
      ],
      [
        "Ġgen",
        "er"
      ],
      [
        "2",
        "0"
      ],
      [
        "Ġb",
        "ody"
      ],
      [
        "Ġa",
        "ff"
      ],
      [
        "Ġm",
        "et"
      ],
      [
        "con",
        "om"
      ],
      [
        "Ġth",
        "ink"
      ],
      [
        "Th",
        "is"
      ],
      [
        "Ġw",
        "rit"
      ],
      [
        "ere",
        "st"
      ],
      [
        "Ġinclud",
        "ing"
      ],
      [
        "Ġed",
        "uc"
      ],
      [
        "Ġb",
        "o"
      ],
      [
        "Ġb",
        "ook"
      ],
      [
        "act",
        "er"
      ],
      [
        "ion",
        "al"
      ],
      [
        "Ġre",
        "du"
      ],
      [
        "Ġad",
        "v"
      ],
      [
        "m",
        "an"
      ],
      [
        "Ġst",
        "art"
      ],
      [
        "Ġc",
        "are"
      ],
      [
        "Ġpl",
        "ace"
      ],
      [
        "Ġl",
        "aw"
      ],
      [
        "Ġg",
        "re"
      ],
      [
        "Ġall",
        "ow"
      ],
      [
        "oc",
        "i"
      ],
      [
        "es",
        "p"
      ],
      [
        "t",
        "ed"
      ],
      [
        "t",
        "o"
      ],
      [
        "Ġc",
        "or"
      ],
      [
        "Ġf",
        "ew"
      ],
      [
        "Ġm",
        "at"
      ],
      [
        "ĠC",
        "on"
      ],
      [
        "am",
        "p"
      ],
      [
        "Ġm",
        "ight"
      ],
      [
        ",",
        "âĢĿ"
      ],
      [
        "Ġt",
        "em"
      ],
      [
        "1",
        "0"
      ],
      [
        "i",
        "od"
      ],
      [
        "en",
        "se"
      ],
      [
        "ra",
        "ph"
      ],
      [
        "Ġm",
        "il"
      ],
      [
        "Ġen",
        "ergy"
      ],
      [
        "r",
        "is"
      ],
      [
        "iz",
        "ation"
      ],
      [
        "Ġc",
        "ap"
      ],
      [
        "Ġwith",
        "out"
      ],
      [
        "ĠThe",
        "re"
      ],
      [
        "r",
        "ies"
      ],
      [
        "l",
        "ish"
      ],
      [
        "Ġd",
        "irect"
      ],
      [
        "Ġapp",
        "ro"
      ],
      [
        "Ġg",
        "u"
      ],
      [
        "our",
        "ces"
      ],
      [
        "âĢ",
        "ĵ"
      ],
      [
        "el",
        "s"
      ],
      [
        "Ġqu",
        "est"
      ],
      [
        "id",
        "s"
      ],
      [
        "Ġper",
        "cent"
      ],
      [
        "ire",
        "d"
      ],
      [
        "Ġbu",
        "ild"
      ],
      [
        "l",
        "ess"
      ],
      [
        "âĢ",
        "ľ"
      ],
      [
        "Ġw",
        "omen"
      ],
      [
        "Ġbe",
        "h"
      ],
      [
        "ord",
        "ing"
      ],
      [
        "iv",
        "ing"
      ],
      [
        "d",
        "e"
      ],
      [
        "m",
        "e"
      ],
      [
        "Ġch",
        "ang"
      ],
      [
        "ĠD",
        "e"
      ],
      [
        "Ġpres",
        "ent"
      ],
      [
        "ra",
        "in"
      ],
      [
        "Ġan",
        "other"
      ],
      [
        "Ġdise",
        "ase"
      ],
      [
        "Ġde",
        "m"
      ],
      [
        "i",
        "um"
      ],
      [
        "Ġ",
        "ide"
      ],
      [
        "Ġl",
        "and"
      ],
      [
        "Ġs",
        "l"
      ],
      [
        "Ġdes",
        "c"
      ],
      [
        "are",
        "nt"
      ],
      [
        "ert",
        "ain"
      ],
      [
        "ĠE",
        "ng"
      ],
      [
        "as",
        "on"
      ],
      [
        "ĠA",
        "t"
      ],
      [
        "Ġre",
        "st"
      ],
      [
        "r",
        "ation"
      ],
      [
        "ater",
        "ial"
      ],
      [
        "Ġagain",
        "st"
      ],
      [
        "iv",
        "en"
      ],
      [
        "l",
        "ished"
      ],
      [
        "Ġen",
        "vironment"
      ],
      [
        "en",
        "g"
      ],
      [
        "Ġint",
        "erest"
      ],
      [
        "u",
        "g"
      ],
      [
        "Ġwith",
        "in"
      ],
      [
        "er",
        "ing"
      ],
      [
        "ĠUn",
        "ited"
      ],
      [
        "Ġ",
        "ident"
      ],
      [
        "Ġch",
        "ange"
      ],
      [
        "Ġca",
        "us"
      ],
      [
        "Ġph",
        "ys"
      ],
      [
        "iss",
        "ion"
      ],
      [
        "Ġbel",
        "ie"
      ],
      [
        "ain",
        "ed"
      ],
      [
        "ĠS",
        "e"
      ],
      [
        "aj",
        "or"
      ],
      [
        "Ġp",
        "ass"
      ],
      [
        "g",
        "in"
      ],
      [
        "Ġe",
        "as"
      ],
      [
        "r",
        "ist"
      ],
      [
        "Ġw",
        "ar"
      ],
      [
        "Ġis",
        "s"
      ],
      [
        "ĠC",
        "ol"
      ],
      [
        "cc",
        "ess"
      ],
      [
        "Ġdevelop",
        "ment"
      ],
      [
        "Ġst",
        "and"
      ],
      [
        "Ġear",
        "ly"
      ],
      [
        "iv",
        "ed"
      ],
      [
        "ivid",
        "ual"
      ],
      [
        "Ġe",
        "conom"
      ],
      [
        "ir",
        "c"
      ],
      [
        "ab",
        "ility"
      ],
      [
        "a",
        "z"
      ],
      [
        "he",
        "re"
      ],
      [
        "ĠThe",
        "se"
      ],
      [
        "er",
        "n"
      ],
      [
        "h",
        "or"
      ],
      [
        "Ġ",
        "&"
      ],
      [
        "Ġen",
        "g"
      ],
      [
        "Ġp",
        "ract"
      ],
      [
        "ĠC",
        "omm"
      ],
      [
        "Ġare",
        "a"
      ],
      [
        "if",
        "ied"
      ],
      [
        "Ġl",
        "ight"
      ],
      [
        "ĠP",
        "h"
      ],
      [
        "at",
        "s"
      ],
      [
        "at",
        "t"
      ],
      [
        "et",
        "s"
      ],
      [
        "ro",
        "du"
      ],
      [
        "Ġne",
        "ar"
      ],
      [
        "it",
        "ive"
      ],
      [
        "Ġle",
        "g"
      ],
      [
        "Ġs",
        "ay"
      ],
      [
        "at",
        "or"
      ],
      [
        "Ġm",
        "ar"
      ],
      [
        "pt",
        "ion"
      ],
      [
        "at",
        "ural"
      ],
      [
        "Ġan",
        "im"
      ],
      [
        "Ġunder",
        "stand"
      ],
      [
        "ent",
        "ial"
      ],
      [
        "om",
        "s"
      ],
      [
        "Ġcont",
        "rol"
      ],
      [
        "Ġb",
        "re"
      ],
      [
        "l",
        "ine"
      ],
      [
        "re",
        "t"
      ],
      [
        "Ġp",
        "ar"
      ],
      [
        "ĠC",
        "an"
      ],
      [
        "n",
        "er"
      ],
      [
        "al",
        "k"
      ],
      [
        "Ġb",
        "ro"
      ],
      [
        "Ġim",
        "m"
      ],
      [
        "Ġb",
        "as"
      ],
      [
        "i",
        "k"
      ],
      [
        "Ġl",
        "ast"
      ],
      [
        "ĠS",
        "h"
      ],
      [
        "ĠY",
        "ou"
      ],
      [
        "Ġhist",
        "ory"
      ],
      [
        "ĠA",
        "d"
      ],
      [
        "Ġcell",
        "s"
      ],
      [
        "Ġfam",
        "ily"
      ],
      [
        "Ġo",
        "ld"
      ],
      [
        "olog",
        "ical"
      ],
      [
        "i",
        "ver"
      ],
      [
        "an",
        "k"
      ],
      [
        "Ġu",
        "nt"
      ],
      [
        "ĠR",
        "e"
      ],
      [
        "ent",
        "ly"
      ],
      [
        "Ġexper",
        "i"
      ],
      [
        "Ġse",
        "ver"
      ],
      [
        "Ġs",
        "ays"
      ],
      [
        "Ġh",
        "and"
      ],
      [
        "Ġp",
        "ur"
      ],
      [
        "Ġsec",
        "ond"
      ],
      [
        "Ġpo",
        "int"
      ],
      [
        "Ġm",
        "aterial"
      ],
      [
        "ĠâĢ",
        "Ķ"
      ],
      [
        "Ġsci",
        "ent"
      ],
      [
        "ag",
        "n"
      ],
      [
        "Ġw",
        "ant"
      ],
      [
        "I",
        "t"
      ],
      [
        "Ġpro",
        "f"
      ],
      [
        "n",
        "ed"
      ],
      [
        "Ġo",
        "pp"
      ],
      [
        "ot",
        "e"
      ],
      [
        "Ġp",
        "ot"
      ],
      [
        "b",
        "s"
      ],
      [
        "Ġ1",
        "5"
      ],
      [
        "Ġan",
        "t"
      ],
      [
        "Ġl",
        "ow"
      ],
      [
        "Ġprodu",
        "ct"
      ],
      [
        "os",
        "p"
      ],
      [
        "ĠSt",
        "ates"
      ],
      [
        "Ġm",
        "us"
      ],
      [
        "Ġ",
        "ve"
      ],
      [
        "Ġd",
        "on"
      ],
      [
        "Ġsoc",
        "ial"
      ],
      [
        "itt",
        "le"
      ],
      [
        "at",
        "ic"
      ],
      [
        "Ġind",
        "ividual"
      ],
      [
        "Ġpro",
        "ject"
      ],
      [
        "Ġinclud",
        "e"
      ],
      [
        "ar",
        "c"
      ],
      [
        "Ġbl",
        "ood"
      ],
      [
        "Ġprog",
        "ram"
      ],
      [
        "u",
        "se"
      ],
      [
        "Ġf",
        "ore"
      ],
      [
        "Ġo",
        "per"
      ],
      [
        "eth",
        "od"
      ],
      [
        "Ġocc",
        "ur"
      ],
      [
        "iel",
        "d"
      ],
      [
        "Ġp",
        "os"
      ],
      [
        "in",
        "ing"
      ],
      [
        "in",
        "a"
      ],
      [
        "ra",
        "p"
      ],
      [
        "Ġm",
        "ajor"
      ],
      [
        "Ġbec",
        "ome"
      ],
      [
        "ĠG",
        "od"
      ],
      [
        "Ġt",
        "er"
      ],
      [
        "ang",
        "u"
      ],
      [
        "s",
        "p"
      ],
      [
        "og",
        "raph"
      ],
      [
        "c",
        "ing"
      ],
      [
        "Ġcount",
        "ry"
      ],
      [
        "Ġpartic",
        "ular"
      ],
      [
        "e",
        "ed"
      ],
      [
        "Ġav",
        "ail"
      ],
      [
        "Ġh",
        "ome"
      ],
      [
        "ĠN",
        "ational"
      ],
      [
        "Ġor",
        "ig"
      ],
      [
        "Ġspec",
        "ies"
      ],
      [
        "Ġb",
        "en"
      ],
      [
        "om",
        "p"
      ],
      [
        "Ġm",
        "ark"
      ],
      [
        "Ġor",
        "der"
      ],
      [
        "o",
        "f"
      ],
      [
        "Ġcon",
        "st"
      ],
      [
        "Ġe",
        "le"
      ],
      [
        "Ġs",
        "it"
      ],
      [
        "Ġs",
        "ince"
      ],
      [
        "Ġhe",
        "re"
      ],
      [
        "Ġc",
        "ult"
      ],
      [
        "Ġsever",
        "al"
      ],
      [
        "Ġme",
        "as"
      ],
      [
        "Ġt",
        "re"
      ],
      [
        "am",
        "es"
      ],
      [
        "or",
        "ies"
      ],
      [
        "Ġprov",
        "ide"
      ],
      [
        "th",
        "ough"
      ],
      [
        "en",
        "ces"
      ],
      [
        "Ġm",
        "en"
      ],
      [
        "is",
        "ion"
      ],
      [
        "Ġcur",
        "rent"
      ],
      [
        "Ġm",
        "ove"
      ],
      [
        "Ġsy",
        "m"
      ],
      [
        "in",
        "c"
      ],
      [
        "o",
        "id"
      ],
      [
        "s",
        "y"
      ],
      [
        "Ġto",
        "o"
      ],
      [
        "ard",
        "s"
      ],
      [
        "Ġl",
        "im"
      ],
      [
        "our",
        "ce"
      ],
      [
        "Ġf",
        "our"
      ],
      [
        "id",
        "ence"
      ],
      [
        "Ġpl",
        "ay"
      ],
      [
        "Ġp",
        "ain"
      ],
      [
        "Ġde",
        "v"
      ],
      [
        "if",
        "y"
      ],
      [
        "Ġpro",
        "m"
      ],
      [
        "Ġpol",
        "it"
      ],
      [
        "Ġ",
        "["
      ],
      [
        "Ġto",
        "p"
      ],
      [
        "ĠR",
        "es"
      ],
      [
        "it",
        "er"
      ],
      [
        "Ġ1",
        "7"
      ],
      [
        "w",
        "w"
      ],
      [
        "ent",
        "ion"
      ],
      [
        "Ġb",
        "est"
      ],
      [
        "Ġpro",
        "per"
      ],
      [
        "g",
        "en"
      ],
      [
        "Ġn",
        "ame"
      ],
      [
        "Ġinv",
        "ol"
      ],
      [
        "u",
        "rop"
      ],
      [
        "Ġ",
        "Z"
      ],
      [
        "ĠW",
        "hen"
      ],
      [
        "ĠE",
        "x"
      ],
      [
        "Ġ",
        "'"
      ],
      [
        "Ġpro",
        "p"
      ],
      [
        "Ġme",
        "ans"
      ],
      [
        "Ġe",
        "t"
      ],
      [
        "pl",
        "es"
      ],
      [
        "1",
        "2"
      ],
      [
        "Ġt",
        "ri"
      ],
      [
        "ĠC",
        "l"
      ],
      [
        "Ġris",
        "k"
      ],
      [
        "Ġf",
        "ar"
      ],
      [
        "in",
        "ess"
      ],
      [
        "Ġl",
        "ater"
      ],
      [
        "Ġimp",
        "ro"
      ],
      [
        "Ġposs",
        "ible"
      ],
      [
        "Ġe",
        "l"
      ],
      [
        "ab",
        "ly"
      ],
      [
        "Ġper",
        "iod"
      ],
      [
        "Ġf",
        "re"
      ],
      [
        "Ġh",
        "ig"
      ],
      [
        "ĠHow",
        "ever"
      ],
      [
        "l",
        "u"
      ],
      [
        "ĠâĢ",
        "ĺ"
      ],
      [
        "w",
        "ays"
      ],
      [
        "o",
        "le"
      ],
      [
        "Ġop",
        "en"
      ],
      [
        "ĠE",
        "n"
      ],
      [
        "end",
        "ed"
      ],
      [
        "Ġt",
        "imes"
      ],
      [
        "Ġre",
        "al"
      ],
      [
        "un",
        "e"
      ],
      [
        "Ġloc",
        "al"
      ],
      [
        "t",
        "t"
      ],
      [
        "res",
        "ent"
      ],
      [
        "Ġadd",
        "ition"
      ],
      [
        "v",
        "iew"
      ],
      [
        "Ġtreat",
        "ment"
      ],
      [
        "ĠA",
        "f"
      ],
      [
        "Ġf",
        "in"
      ],
      [
        "Ġp",
        "ri"
      ],
      [
        "Ġam",
        "ong"
      ],
      [
        "Ġ",
        "."
      ],
      [
        "ĠC",
        "ent"
      ],
      [
        "Ġv",
        "iew"
      ],
      [
        "Ġa",
        "ir"
      ],
      [
        "Ġob",
        "ject"
      ],
      [
        "Ġan",
        "al"
      ],
      [
        "g",
        "ed"
      ],
      [
        "Ġavail",
        "able"
      ],
      [
        "Ġ",
        "Q"
      ],
      [
        "Ġp",
        "ress"
      ],
      [
        "Ġbet",
        "ter"
      ],
      [
        "ill",
        "s"
      ],
      [
        "Ġm",
        "ethod"
      ],
      [
        "Ġre",
        "ce"
      ],
      [
        "Ġare",
        "as"
      ],
      [
        "Ġsu",
        "ccess"
      ],
      [
        "1",
        "8"
      ],
      [
        "p",
        "ar"
      ],
      [
        "ĠCh",
        "rist"
      ],
      [
        "Ġha",
        "pp"
      ],
      [
        "urop",
        "e"
      ],
      [
        "i",
        "ents"
      ],
      [
        "tern",
        "ational"
      ],
      [
        "Ġke",
        "ep"
      ],
      [
        "Ġsa",
        "f"
      ],
      [
        "Ġn",
        "on"
      ],
      [
        "r",
        "id"
      ],
      [
        "Ġp",
        "ost"
      ],
      [
        "Ġc",
        "ertain"
      ],
      [
        "Ġb",
        "ir"
      ],
      [
        "Ġunt",
        "il"
      ],
      [
        "ent",
        "al"
      ],
      [
        "Ġfollow",
        "ing"
      ],
      [
        "oh",
        "n"
      ],
      [
        "ol",
        "ution"
      ],
      [
        "Ġcent",
        "ury"
      ],
      [
        "Ġ1",
        "6"
      ],
      [
        "Ġab",
        "le"
      ],
      [
        "Ġr",
        "un"
      ],
      [
        "Ġother",
        "s"
      ],
      [
        "Ġl",
        "ittle"
      ],
      [
        "Ġcon",
        "d"
      ],
      [
        "Ġ",
        "$"
      ],
      [
        "Ġb",
        "ased"
      ],
      [
        "Ġper",
        "form"
      ],
      [
        "e",
        "k"
      ],
      [
        "ic",
        "le"
      ],
      [
        "ab",
        "or"
      ],
      [
        "is",
        "ed"
      ],
      [
        "ĠP",
        "l"
      ],
      [
        "Ġ1",
        "2"
      ],
      [
        "ĠM",
        "ed"
      ],
      [
        "it",
        "her"
      ],
      [
        "Ġme",
        "an"
      ],
      [
        "n",
        "ot"
      ],
      [
        "Ġp",
        "ut"
      ],
      [
        "Ġc",
        "ause"
      ],
      [
        "Ġb",
        "i"
      ],
      [
        "pl",
        "oy"
      ],
      [
        "Ġth",
        "ings"
      ],
      [
        "Ġf",
        "ree"
      ],
      [
        "Ġhe",
        "ad"
      ],
      [
        "Ġc",
        "ost"
      ],
      [
        "Ġst",
        "ruct"
      ],
      [
        "p",
        "or"
      ],
      [
        "Ġmon",
        "th"
      ],
      [
        "ur",
        "ther"
      ],
      [
        "Ġg",
        "iven"
      ],
      [
        "l",
        "ing"
      ],
      [
        "Ġc",
        "al"
      ],
      [
        "w",
        "are"
      ],
      [
        "ĠO",
        "r"
      ],
      [
        "il",
        "ar"
      ],
      [
        "gg",
        "est"
      ],
      [
        "Ġd",
        "el"
      ],
      [
        "o",
        "ver"
      ],
      [
        "ak",
        "en"
      ],
      [
        "ĠB",
        "rit"
      ],
      [
        "Ġra",
        "d"
      ],
      [
        "ĠE",
        "urope"
      ],
      [
        "ĠT",
        "o"
      ],
      [
        "Ġt",
        "urn"
      ],
      [
        "Ġc",
        "ase"
      ],
      [
        "ĠE",
        "ar"
      ],
      [
        "Ġse",
        "em"
      ],
      [
        "end",
        "s"
      ],
      [
        "y",
        "m"
      ],
      [
        "Ġcom",
        "e"
      ],
      [
        "Ġl",
        "angu"
      ],
      [
        "eth",
        "ing"
      ],
      [
        "Ġsign",
        "ific"
      ],
      [
        "Ġf",
        "ac"
      ],
      [
        "Ġsh",
        "ort"
      ],
      [
        "Ġdet",
        "erm"
      ],
      [
        "r",
        "im"
      ],
      [
        "f",
        "ace"
      ],
      [
        "Ġpre",
        "vent"
      ],
      [
        "c",
        "ial"
      ],
      [
        "Ġa",
        "ge"
      ],
      [
        "b",
        "e"
      ],
      [
        "Ġacc",
        "ess"
      ],
      [
        "W",
        "e"
      ],
      [
        "ĠAf",
        "ric"
      ],
      [
        "Ġn",
        "atural"
      ],
      [
        "u",
        "nt"
      ],
      [
        "Ġsu",
        "ggest"
      ],
      [
        "Ġproble",
        "ms"
      ],
      [
        "Ġm",
        "illion"
      ],
      [
        "..",
        "."
      ],
      [
        "Ġs",
        "ing"
      ],
      [
        "Ġl",
        "ist"
      ],
      [
        "Ġob",
        "s"
      ],
      [
        "ĠO",
        "n"
      ],
      [
        "w",
        "ork"
      ],
      [
        "op",
        "e"
      ],
      [
        "le",
        "y"
      ],
      [
        "Ġ19",
        "8"
      ],
      [
        "ure",
        "d"
      ],
      [
        "Ġs",
        "w"
      ],
      [
        "Ġaut",
        "hor"
      ],
      [
        "Ġben",
        "ef"
      ],
      [
        "ĠA",
        "ll"
      ],
      [
        "ate",
        "ly"
      ],
      [
        "Ġle",
        "t"
      ],
      [
        "ap",
        "s"
      ],
      [
        "al",
        "f"
      ],
      [
        "ot",
        "s"
      ],
      [
        "at",
        "ory"
      ],
      [
        "og",
        "n"
      ],
      [
        "1",
        "5"
      ],
      [
        "Ġpop",
        "ulation"
      ],
      [
        "Ġproble",
        "m"
      ],
      [
        "p",
        "ect"
      ],
      [
        "a",
        "im"
      ],
      [
        "et",
        "ic"
      ],
      [
        "Ġapp",
        "ear"
      ],
      [
        "l",
        "er"
      ],
      [
        "on",
        "es"
      ],
      [
        "Ġass",
        "oci"
      ],
      [
        "Ġb",
        "us"
      ],
      [
        "Ġab",
        "ove"
      ],
      [
        "ore",
        "d"
      ],
      [
        "as",
        "ter"
      ],
      [
        "Ġpl",
        "ant"
      ],
      [
        "Ġam",
        "ount"
      ],
      [
        "Ġf",
        "low"
      ],
      [
        "ic",
        "ation"
      ],
      [
        "Ġde",
        "ath"
      ],
      [
        "Ġrec",
        "ord"
      ],
      [
        "Ġyou",
        "ng"
      ],
      [
        "Ġhe",
        "art"
      ],
      [
        "Ġh",
        "ard"
      ],
      [
        "ort",
        "s"
      ],
      [
        "Ġsom",
        "ething"
      ],
      [
        "ut",
        "ure"
      ],
      [
        "Ġal",
        "ong"
      ],
      [
        "or",
        "ld"
      ],
      [
        "ĠU",
        "S"
      ],
      [
        "Ġd",
        "ays"
      ],
      [
        "id",
        "d"
      ],
      [
        "Ġsp",
        "ace"
      ],
      [
        "Ġlevel",
        "s"
      ],
      [
        "Ġc",
        "lear"
      ],
      [
        "el",
        "f"
      ],
      [
        "Ġd",
        "ra"
      ],
      [
        "Ġcon",
        "n"
      ],
      [
        "a",
        "per"
      ],
      [
        "ĠB",
        "e"
      ],
      [
        "-",
        "-"
      ],
      [
        "Ġcomp",
        "ut"
      ],
      [
        "Ġc",
        "irc"
      ],
      [
        "ress",
        "ion"
      ],
      [
        "Ġtem",
        "per"
      ],
      [
        "Ġv",
        "ol"
      ],
      [
        "le",
        "t"
      ],
      [
        "Ġcom",
        "b"
      ],
      [
        "id",
        "es"
      ],
      [
        "n",
        "al"
      ],
      [
        "ĠW",
        "ar"
      ],
      [
        "u",
        "ed"
      ],
      [
        "Ġdesc",
        "rib"
      ],
      [
        "r",
        "ate"
      ],
      [
        "Ġind",
        "ust"
      ],
      [
        "Ġre",
        "le"
      ],
      [
        "ĠJ",
        "ohn"
      ],
      [
        "a",
        "pp"
      ],
      [
        "Ġeduc",
        "ation"
      ],
      [
        "an",
        "ces"
      ],
      [
        "Ġinv",
        "est"
      ],
      [
        "ĠS",
        "ci"
      ],
      [
        "Ġc",
        "rit"
      ],
      [
        "Ġcommun",
        "ity"
      ],
      [
        "at",
        "ors"
      ],
      [
        "v",
        "ious"
      ],
      [
        "oc",
        "us"
      ],
      [
        "A",
        "s"
      ],
      [
        "ob",
        "al"
      ],
      [
        "m",
        "ost"
      ],
      [
        "he",
        "m"
      ],
      [
        "Ġle",
        "ft"
      ],
      [
        "ĠT",
        "e"
      ],
      [
        "Ġhow",
        "ever"
      ],
      [
        "1",
        "1"
      ],
      [
        "Ġlike",
        "ly"
      ],
      [
        "al",
        "es"
      ],
      [
        "ed",
        "i"
      ],
      [
        "Ġest",
        "ab"
      ],
      [
        "b",
        "y"
      ],
      [
        "Ġm",
        "ult"
      ],
      [
        "Ġbec",
        "ame"
      ],
      [
        "Ġp",
        "ast"
      ],
      [
        "Ġ",
        "ill"
      ],
      [
        "Ġd",
        "ri"
      ],
      [
        "Ġs",
        "ide"
      ],
      [
        "p",
        "r"
      ],
      [
        "f",
        "or"
      ],
      [
        "Ġ19",
        "7"
      ],
      [
        "Ġfe",
        "el"
      ],
      [
        "Ġex",
        "ist"
      ],
      [
        "5",
        "0"
      ],
      [
        "Ġfun",
        "ction"
      ],
      [
        "Ġp",
        "arent"
      ],
      [
        "Ġl",
        "o"
      ],
      [
        "Ġne",
        "xt"
      ],
      [
        "Ġwor",
        "ds"
      ],
      [
        "Ġf",
        "il"
      ],
      [
        "ud",
        "e"
      ],
      [
        "Ġle",
        "ast"
      ],
      [
        "m",
        "ber"
      ],
      [
        "em",
        "ber"
      ],
      [
        "led",
        "ge"
      ],
      [
        "ain",
        "ing"
      ],
      [
        "ort",
        "un"
      ],
      [
        "ru",
        "g"
      ],
      [
        "Ġspec",
        "ial"
      ],
      [
        "Ġne",
        "ver"
      ],
      [
        "Ġm",
        "aking"
      ],
      [
        "2",
        "00"
      ],
      [
        "ic",
        "ult"
      ],
      [
        "Ġcan",
        "cer"
      ],
      [
        "Ġtechn",
        "ology"
      ],
      [
        "Ġcour",
        "se"
      ],
      [
        "ra",
        "y"
      ],
      [
        "Ġm",
        "ot"
      ],
      [
        "Ġbe",
        "gin"
      ],
      [
        "op",
        "h"
      ],
      [
        "m",
        "in"
      ],
      [
        "is",
        "c"
      ],
      [
        "sel",
        "ves"
      ],
      [
        "Ġrese",
        "arc"
      ],
      [
        "Ġto",
        "day"
      ],
      [
        "Ġcond",
        "itions"
      ],
      [
        "er",
        "c"
      ],
      [
        "I",
        "f"
      ],
      [
        "end",
        "ing"
      ],
      [
        "ap",
        "e"
      ],
      [
        "od",
        "e"
      ],
      [
        "ĠS",
        "c"
      ],
      [
        "our",
        "s"
      ],
      [
        "Ġlear",
        "ning"
      ],
      [
        "Ġd",
        "r"
      ],
      [
        "om",
        "an"
      ],
      [
        "v",
        "al"
      ],
      [
        "Ġtyp",
        "e"
      ],
      [
        "Ġd",
        "ue"
      ],
      [
        "Ġ",
        "er"
      ],
      [
        "Ġte",
        "ac"
      ],
      [
        "Ġne",
        "cess"
      ],
      [
        "Ġlear",
        "n"
      ],
      [
        "Ġt",
        "ru"
      ],
      [
        "un",
        "g"
      ],
      [
        "s",
        "w"
      ],
      [
        "N",
        "A"
      ],
      [
        "Ġas",
        "k"
      ],
      [
        "Ġch",
        "o"
      ],
      [
        "o",
        "int"
      ],
      [
        "y",
        "d"
      ],
      [
        "Ġchar",
        "acter"
      ],
      [
        "Ġchang",
        "es"
      ],
      [
        "Ġrep",
        "resent"
      ],
      [
        "u",
        "ment"
      ],
      [
        "Ġto",
        "get"
      ],
      [
        "Ġus",
        "ually"
      ],
      [
        "Ġtoget",
        "her"
      ],
      [
        "Ġ",
        "ur"
      ],
      [
        "Ġa",
        "way"
      ],
      [
        "Ġ",
        "0"
      ],
      [
        "ru",
        "ction"
      ],
      [
        "Ġcount",
        "ries"
      ],
      [
        "w",
        "h"
      ],
      [
        "Ġc",
        "reat"
      ],
      [
        "as",
        "ing"
      ],
      [
        "ĠN",
        "orth"
      ],
      [
        "en",
        "n"
      ],
      [
        "orm",
        "al"
      ],
      [
        "re",
        "en"
      ],
      [
        "Wh",
        "at"
      ],
      [
        "Ġsignific",
        "ant"
      ],
      [
        "r",
        "ight"
      ],
      [
        "Ġc",
        "ases"
      ],
      [
        "Ġoff",
        "ic"
      ],
      [
        "le",
        "ment"
      ],
      [
        "ec",
        "ially"
      ],
      [
        "Ġen",
        "c"
      ],
      [
        "Ġd",
        "am"
      ],
      [
        "Ġv",
        "ir"
      ],
      [
        "ive",
        "ly"
      ],
      [
        "Ġl",
        "ine"
      ],
      [
        "ere",
        "nce"
      ],
      [
        "Ġ1",
        "4"
      ],
      [
        "Ġs",
        "um"
      ],
      [
        "Ġen",
        "ough"
      ],
      [
        "Ġk",
        "ind"
      ],
      [
        "3",
        "0"
      ],
      [
        "Ġpr",
        "im"
      ],
      [
        "Ġgen",
        "eral"
      ],
      [
        "Ġf",
        "uture"
      ],
      [
        "ĠS",
        "o"
      ],
      [
        "ĠWh",
        "at"
      ],
      [
        "e",
        "b"
      ],
      [
        "Ġapp",
        "lic"
      ],
      [
        "Ġche",
        "m"
      ],
      [
        "Ġsystem",
        "s"
      ],
      [
        "rib",
        "ut"
      ],
      [
        "Ġresp",
        "ons"
      ],
      [
        "Ġstr",
        "ong"
      ],
      [
        "Ġincre",
        "ase"
      ],
      [
        "S",
        "t"
      ],
      [
        "ĠY",
        "ork"
      ],
      [
        "y",
        "n"
      ],
      [
        "il",
        "t"
      ],
      [
        "c",
        "le"
      ],
      [
        "it",
        "or"
      ],
      [
        "Ġg",
        "r"
      ],
      [
        "Ġt",
        "erm"
      ],
      [
        "Ġm",
        "ov"
      ],
      [
        "Ġmem",
        "bers"
      ],
      [
        "Ġg",
        "ive"
      ],
      [
        "Ġpl",
        "ac"
      ],
      [
        "Ġcomple",
        "te"
      ],
      [
        "s",
        "on"
      ],
      [
        "Ġal",
        "ways"
      ],
      [
        "Ġbeh",
        "av"
      ],
      [
        "Ġhig",
        "her"
      ],
      [
        "Ġc",
        "ity"
      ],
      [
        "ir",
        "d"
      ],
      [
        "\"",
        "."
      ],
      [
        "ĠC",
        "ar"
      ],
      [
        "Ġac",
        "ross"
      ],
      [
        "o",
        "x"
      ],
      [
        "esp",
        "ecially"
      ],
      [
        "Ġspec",
        "ific"
      ],
      [
        "g",
        "es"
      ],
      [
        "Ġf",
        "ocus"
      ],
      [
        "Ġimp",
        "act"
      ],
      [
        "Ġpolit",
        "ical"
      ],
      [
        "du",
        "ct"
      ],
      [
        "Ġe",
        "y"
      ],
      [
        "The",
        "re"
      ],
      [
        "Ġha",
        "ving"
      ],
      [
        "iv",
        "il"
      ],
      [
        "o",
        "ot"
      ],
      [
        "a",
        "f"
      ],
      [
        "Ġsu",
        "ff"
      ],
      [
        "ĠG",
        "o"
      ],
      [
        "Ġresult",
        "s"
      ],
      [
        "Ġsim",
        "ilar"
      ],
      [
        "Ġlangu",
        "age"
      ],
      [
        "ĠS",
        "oc"
      ],
      [
        "ĠM",
        "ar"
      ],
      [
        "at",
        "ch"
      ],
      [
        "ĠG",
        "en"
      ],
      [
        "Ġdisc",
        "uss"
      ],
      [
        "Ġcol",
        "le"
      ],
      [
        "ot",
        "t"
      ],
      [
        "c",
        "hes"
      ],
      [
        "il",
        "ities"
      ],
      [
        "Ġf",
        "und"
      ],
      [
        "one",
        "y"
      ],
      [
        "Ġn",
        "et"
      ],
      [
        "om",
        "es"
      ],
      [
        "Ġprof",
        "ess"
      ],
      [
        "us",
        "h"
      ],
      [
        "ĠG",
        "e"
      ],
      [
        "Ġdiff",
        "icult"
      ],
      [
        "an",
        "e"
      ],
      [
        "ĠG",
        "erm"
      ],
      [
        "ist",
        "ic"
      ],
      [
        "Ġl",
        "ower"
      ],
      [
        "ĠM",
        "ay"
      ],
      [
        "Ġvar",
        "ious"
      ],
      [
        "iqu",
        "e"
      ],
      [
        "Ġsub",
        "ject"
      ],
      [
        "Ġstud",
        "ies"
      ],
      [
        "Ġ",
        "z"
      ],
      [
        "Ġf",
        "ull"
      ],
      [
        "i",
        "pp"
      ],
      [
        "ĠJ",
        "ew"
      ],
      [
        "et",
        "er"
      ],
      [
        "Ġr",
        "ather"
      ],
      [
        "ĠEar",
        "th"
      ],
      [
        "Ġn",
        "ational"
      ],
      [
        "ur",
        "ch"
      ],
      [
        "Ġwor",
        "ks"
      ],
      [
        "read",
        "y"
      ],
      [
        "Ġg",
        "round"
      ],
      [
        "Ġs",
        "ite"
      ],
      [
        "ĠW",
        "orld"
      ],
      [
        "Ġinf",
        "lu"
      ],
      [
        "age",
        "ment"
      ],
      [
        "Ġconsid",
        "er"
      ],
      [
        "i",
        "res"
      ],
      [
        "Ġ",
        "ess"
      ],
      [
        "Ġcl",
        "ose"
      ],
      [
        "Ġ3",
        "0"
      ],
      [
        "ar",
        "ing"
      ],
      [
        "Ġeffect",
        "s"
      ],
      [
        "A",
        "n"
      ],
      [
        "Ġt",
        "ry"
      ],
      [
        "um",
        "p"
      ],
      [
        "Ġright",
        "s"
      ],
      [
        "Ġwor",
        "d"
      ],
      [
        "av",
        "es"
      ],
      [
        "Ġl",
        "oss"
      ],
      [
        "Ġf",
        "urther"
      ],
      [
        "ĠS",
        "ome"
      ],
      [
        "ĠS",
        "outh"
      ],
      [
        "Ġup",
        "on"
      ],
      [
        "Ġwh",
        "y"
      ],
      [
        "Ġgroup",
        "s"
      ],
      [
        "Ġpl",
        "ants"
      ],
      [
        "Ġbl",
        "ack"
      ],
      [
        "Ġan",
        "n"
      ],
      [
        "l",
        "o"
      ],
      [
        "Ġse",
        "en"
      ],
      [
        "art",
        "ment"
      ],
      [
        "ĠTh",
        "at"
      ],
      [
        "Ġpro",
        "b"
      ],
      [
        "it",
        "ing"
      ],
      [
        "ac",
        "y"
      ],
      [
        "Ġrel",
        "ations"
      ],
      [
        "Ġpol",
        "ic"
      ],
      [
        "r",
        "ated"
      ],
      [
        "ĠAmeric",
        "a"
      ],
      [
        "th",
        "ing"
      ],
      [
        "Ġsu",
        "n"
      ],
      [
        "Ġret",
        "urn"
      ],
      [
        "1",
        "7"
      ],
      [
        "ub",
        "lic"
      ],
      [
        "Ġsur",
        "face"
      ],
      [
        "Ġc",
        "y"
      ],
      [
        "ĠD",
        "ep"
      ],
      [
        "1",
        "3"
      ],
      [
        "re",
        "am"
      ],
      [
        "ĠO",
        "ne"
      ],
      [
        "Ġs",
        "ent"
      ],
      [
        "ĠH",
        "is"
      ],
      [
        "Ġgo",
        "ing"
      ],
      [
        "an",
        "n"
      ],
      [
        "u",
        "le"
      ],
      [
        "Ġh",
        "ouse"
      ],
      [
        "Ġwork",
        "ing"
      ],
      [
        "ĠEng",
        "lish"
      ],
      [
        "Ġ",
        "especially"
      ],
      [
        "Ġl",
        "a"
      ],
      [
        "Ġc",
        "ame"
      ],
      [
        "Ġwhe",
        "ther"
      ],
      [
        "Ġl",
        "ive"
      ],
      [
        "ĠL",
        "e"
      ],
      [
        "Ġph",
        "ot"
      ],
      [
        "Ġst",
        "ep"
      ],
      [
        "Ġquest",
        "ion"
      ],
      [
        "is",
        "on"
      ],
      [
        "Ġdevelop",
        "ed"
      ],
      [
        "Ġpat",
        "ients"
      ],
      [
        "Ġsci",
        "ence"
      ],
      [
        "Ġcons",
        "um"
      ],
      [
        "Ġneed",
        "s"
      ],
      [
        "Ġt",
        "aken"
      ],
      [
        "au",
        "gh"
      ],
      [
        "Ġ",
        "ri"
      ],
      [
        "E",
        "R"
      ],
      [
        "ĠR",
        "ep"
      ],
      [
        "ib",
        "ility"
      ],
      [
        "ro",
        "wn"
      ],
      [
        "ĠC",
        "al"
      ],
      [
        "Ġsing",
        "le"
      ],
      [
        "i",
        "ation"
      ],
      [
        "s",
        "ide"
      ],
      [
        "Ġgrow",
        "th"
      ],
      [
        "Ġcre",
        "ate"
      ],
      [
        "Ġb",
        "rain"
      ],
      [
        "a",
        "ut"
      ],
      [
        "am",
        "m"
      ],
      [
        "ĠD",
        "r"
      ],
      [
        "Ġf",
        "all"
      ],
      [
        "Ġe",
        "ither"
      ],
      [
        "Ġre",
        "ason"
      ],
      [
        "Ġal",
        "ready"
      ],
      [
        "st",
        "er"
      ],
      [
        "Ġd",
        "est"
      ],
      [
        "ove",
        "red"
      ],
      [
        "Ġ19",
        "6"
      ],
      [
        "F",
        "or"
      ],
      [
        "ric",
        "t"
      ],
      [
        "re",
        "g"
      ],
      [
        "i",
        "am"
      ],
      [
        "Ġon",
        "ce"
      ],
      [
        "Ġf",
        "ive"
      ],
      [
        "ra",
        "ms"
      ],
      [
        "ro",
        "ll"
      ],
      [
        "Ġexperi",
        "ence"
      ],
      [
        "1",
        "4"
      ],
      [
        "Ġind",
        "ic"
      ],
      [
        "ys",
        "is"
      ],
      [
        "Ġw",
        "ays"
      ],
      [
        "Ġev",
        "idence"
      ],
      [
        "Ġrequ",
        "ire"
      ],
      [
        "m",
        "p"
      ],
      [
        "ear",
        "ch"
      ],
      [
        "Ġprot",
        "ect"
      ],
      [
        "sy",
        "ch"
      ],
      [
        "ver",
        "age"
      ],
      [
        "Ġm",
        "ind"
      ],
      [
        "re",
        "l"
      ],
      [
        "ĠB",
        "l"
      ],
      [
        "Ġne",
        "g"
      ],
      [
        "Ġev",
        "ent"
      ],
      [
        "ĠW",
        "ith"
      ],
      [
        "Ġf",
        "ail"
      ],
      [
        "ach",
        "ing"
      ],
      [
        "ĠA",
        "ct"
      ],
      [
        "Ġst",
        "ory"
      ],
      [
        "Ġresearc",
        "hers"
      ],
      [
        ".",
        ")"
      ],
      [
        "Ġbe",
        "low"
      ],
      [
        "Ġknow",
        "ledge"
      ],
      [
        "Ġm",
        "ass"
      ],
      [
        "Ġit",
        "self"
      ],
      [
        "Ġst",
        "at"
      ],
      [
        "Ġto",
        "ward"
      ],
      [
        "Ġh",
        "alf"
      ],
      [
        "ill",
        "ed"
      ],
      [
        "et",
        "imes"
      ],
      [
        "Ġro",
        "le"
      ],
      [
        "Ġfam",
        "il"
      ],
      [
        "am",
        "in"
      ],
      [
        "s",
        "h"
      ],
      [
        "Ġacc",
        "ording"
      ],
      [
        "Ġw",
        "r"
      ],
      [
        "Ġthem",
        "selves"
      ],
      [
        "Ġmod",
        "el"
      ],
      [
        "ul",
        "es"
      ],
      [
        "ĠA",
        "b"
      ],
      [
        "Ġdo",
        "ct"
      ],
      [
        "1",
        "6"
      ],
      [
        "ch",
        "ie"
      ],
      [
        "Ġd",
        "rug"
      ],
      [
        "Ġem",
        "ploy"
      ],
      [
        "r",
        "ont"
      ],
      [
        "Ġcon",
        "cer"
      ],
      [
        "ĠAs",
        "s"
      ],
      [
        "Ġre",
        "ally"
      ],
      [
        "/",
        "/"
      ],
      [
        "our",
        "nal"
      ],
      [
        "ed",
        "eral"
      ],
      [
        "ic",
        "ient"
      ],
      [
        "Ġde",
        "g"
      ],
      [
        "tt",
        "p"
      ],
      [
        "he",
        "t"
      ],
      [
        "Ġf",
        "ish"
      ],
      [
        "Ġl",
        "iving"
      ],
      [
        "ĠHe",
        "alth"
      ],
      [
        "Ġwho",
        "le"
      ],
      [
        "Ġres",
        "ources"
      ],
      [
        "ĠCan",
        "ad"
      ],
      [
        "Ġr",
        "ange"
      ],
      [
        "Ġpartic",
        "ip"
      ],
      [
        "Ġd",
        "one"
      ],
      [
        "ĠA",
        "ust"
      ],
      [
        "pt",
        "oms"
      ],
      [
        "Ġte",
        "xt"
      ],
      [
        "o",
        "ber"
      ],
      [
        "Ġactiv",
        "ity"
      ],
      [
        "Ġcl",
        "imate"
      ],
      [
        "ep",
        "end"
      ],
      [
        "Ġrel",
        "ig"
      ],
      [
        "Ġanim",
        "als"
      ],
      [
        "es",
        "c"
      ],
      [
        "Ġpre",
        "d"
      ],
      [
        "Ġpub",
        "lished"
      ],
      [
        "Ġhist",
        "or"
      ],
      [
        "_",
        "_"
      ],
      [
        "Ġmed",
        "ical"
      ],
      [
        "ut",
        "es"
      ],
      [
        "ic",
        "ations"
      ],
      [
        "Ġsk",
        "in"
      ],
      [
        "Ġm",
        "ic"
      ],
      [
        "Ġab",
        "s"
      ],
      [
        "Ġthough",
        "t"
      ],
      [
        "it",
        "ary"
      ],
      [
        "m",
        "b"
      ],
      [
        "Ġd",
        "oc"
      ],
      [
        "Ġcol",
        "lect"
      ],
      [
        "Ġacc",
        "ount"
      ],
      [
        "Ġp",
        "ay"
      ],
      [
        "it",
        "es"
      ],
      [
        "Ġre",
        "pl"
      ],
      [
        "ĠB",
        "y"
      ],
      [
        "Ġme",
        "et"
      ],
      [
        "ĠH",
        "ist"
      ],
      [
        "al",
        "t"
      ],
      [
        "i",
        "ol"
      ],
      [
        "Ġst",
        "ates"
      ],
      [
        "Ġto",
        "ol"
      ],
      [
        "ĠSt",
        "ate"
      ],
      [
        "Ġtra",
        "dition"
      ],
      [
        "ou",
        "ra"
      ],
      [
        "en",
        "ed"
      ],
      [
        ":",
        "//"
      ],
      [
        "Ġf",
        "ield"
      ],
      [
        "Ġh",
        "old"
      ],
      [
        "Ġbe",
        "gan"
      ],
      [
        "Ġphys",
        "ical"
      ],
      [
        "o",
        "on"
      ],
      [
        "Ġfre",
        "qu"
      ],
      [
        "a",
        "pt"
      ],
      [
        "Ġo",
        "il"
      ],
      [
        "or",
        "g"
      ],
      [
        "stit",
        "ute"
      ],
      [
        "h",
        "ib"
      ],
      [
        "Ġre",
        "d"
      ],
      [
        "Ġ1",
        "3"
      ],
      [
        "Ġobs",
        "erv"
      ],
      [
        "on",
        "st"
      ],
      [
        "Ġal",
        "most"
      ],
      [
        "Ġcl",
        "aim"
      ],
      [
        "at",
        "ures"
      ],
      [
        "Ġr",
        "ate"
      ],
      [
        "Ġto",
        "ok"
      ],
      [
        "Ġincre",
        "ased"
      ],
      [
        "Ġbuild",
        "ing"
      ],
      [
        "in",
        "ts"
      ],
      [
        "ri",
        "ed"
      ],
      [
        "Ġch",
        "all"
      ],
      [
        "Ġto",
        "t"
      ],
      [
        "Ġd",
        "om"
      ],
      [
        "Ġval",
        "ue"
      ],
      [
        "Ġpress",
        "ure"
      ],
      [
        "ly",
        "ing"
      ],
      [
        "Ġ-",
        "-"
      ],
      [
        "ne",
        "y"
      ],
      [
        "m",
        "y"
      ],
      [
        "ate",
        "g"
      ],
      [
        "Ġeng",
        "ine"
      ],
      [
        "Ġw",
        "ide"
      ],
      [
        "Ġb",
        "ig"
      ],
      [
        "Ġm",
        "akes"
      ],
      [
        "Ġcan",
        "not"
      ],
      [
        "ib",
        "r"
      ],
      [
        "Ġs",
        "ens"
      ],
      [
        "u",
        "el"
      ],
      [
        "Ġke",
        "y"
      ],
      [
        "Ġo",
        "pt"
      ],
      [
        "Ġadd",
        "ress"
      ],
      [
        "Ġtyp",
        "es"
      ],
      [
        "Ġbus",
        "iness"
      ],
      [
        "Ġeconom",
        "ic"
      ],
      [
        "l",
        "ike"
      ],
      [
        "Ġt",
        "ell"
      ],
      [
        "Ġconsid",
        "ered"
      ],
      [
        "ol",
        "l"
      ],
      [
        "Ġwh",
        "ite"
      ],
      [
        "Ġin",
        "it"
      ],
      [
        "Ġrec",
        "ogn"
      ],
      [
        "S",
        "A"
      ],
      [
        "Ġent",
        "ire"
      ],
      [
        "ific",
        "ation"
      ],
      [
        "Ġw",
        "ind"
      ],
      [
        "Ġpot",
        "ential"
      ],
      [
        "g",
        "est"
      ],
      [
        "re",
        "me"
      ],
      [
        "Ġsit",
        "u"
      ],
      [
        "f",
        "act"
      ],
      [
        "ve",
        "re"
      ],
      [
        "Ġpart",
        "s"
      ],
      [
        "Ġte",
        "am"
      ],
      [
        "Ġprodu",
        "ction"
      ],
      [
        "Ġmod",
        "ern"
      ],
      [
        "ci",
        "ent"
      ],
      [
        "ĠBrit",
        "ish"
      ],
      [
        "Ġl",
        "ay"
      ],
      [
        "Ġreg",
        "ion"
      ],
      [
        "Ġs",
        "ource"
      ],
      [
        "ĠI",
        "I"
      ],
      [
        "Ġgl",
        "obal"
      ],
      [
        "Ġint",
        "rodu"
      ],
      [
        "a",
        "e"
      ],
      [
        "H",
        "ow"
      ],
      [
        "Ġs",
        "elf"
      ],
      [
        "p",
        "ort"
      ],
      [
        "Ġactiv",
        "ities"
      ],
      [
        "Ġimpro",
        "ve"
      ],
      [
        "Ġcre",
        "ated"
      ],
      [
        "Ġcon",
        "cept"
      ],
      [
        "Ġatt",
        "ack"
      ],
      [
        "Ġdet",
        "ail"
      ],
      [
        "Ġse",
        "x"
      ],
      [
        "Ġm",
        "or"
      ],
      [
        "Ġse",
        "par"
      ],
      [
        "ab",
        "les"
      ],
      [
        "Ġneed",
        "ed"
      ],
      [
        "Ġn",
        "ature"
      ],
      [
        "os",
        "is"
      ],
      [
        "c",
        "hed"
      ],
      [
        "Ġpro",
        "te"
      ],
      [
        "Ġwe",
        "ek"
      ],
      [
        "f",
        "er"
      ],
      [
        "it",
        "ude"
      ],
      [
        "Ġfl",
        "u"
      ],
      [
        "Ġcomple",
        "x"
      ],
      [
        "Ġg",
        "e"
      ],
      [
        "Ġact",
        "ually"
      ],
      [
        "itt",
        "ed"
      ],
      [
        "Ġc",
        "ut"
      ],
      [
        "ĠC",
        "omp"
      ],
      [
        "es",
        "tern"
      ],
      [
        "ĠA",
        "g"
      ],
      [
        "Ġ201",
        "2"
      ],
      [
        "ul",
        "ations"
      ],
      [
        "ĠP",
        "res"
      ],
      [
        "Ġf",
        "ig"
      ],
      [
        "ound",
        "s"
      ],
      [
        "Ġart",
        "icle"
      ],
      [
        "Ġan",
        "sw"
      ],
      [
        "Ġ",
        "X"
      ],
      [
        "Ġrec",
        "ent"
      ],
      [
        "is",
        "ter"
      ],
      [
        "ight",
        "s"
      ],
      [
        "l",
        "or"
      ],
      [
        "ĠS",
        "he"
      ],
      [
        "Ġproduct",
        "s"
      ],
      [
        ")",
        ":"
      ],
      [
        "ag",
        "ed"
      ],
      [
        "Ã",
        "©"
      ],
      [
        "Ġc",
        "r"
      ],
      [
        "Ġar",
        "g"
      ],
      [
        "Ġaff",
        "ect"
      ],
      [
        "Ġa",
        "chie"
      ],
      [
        "ip",
        "le"
      ],
      [
        "ic",
        "ine"
      ],
      [
        "Ġl",
        "iter"
      ],
      [
        "ur",
        "ity"
      ],
      [
        "Ġd",
        "ig"
      ],
      [
        "ĠSt",
        "ud"
      ],
      [
        "Ġp",
        "ort"
      ],
      [
        "Ġsu",
        "re"
      ],
      [
        "op",
        "y"
      ],
      [
        "Ġrequ",
        "ired"
      ],
      [
        "Ġy",
        "et"
      ],
      [
        "Ġquest",
        "ions"
      ],
      [
        "att",
        "le"
      ],
      [
        "ir",
        "m"
      ],
      [
        "Ġs",
        "ize"
      ],
      [
        "en",
        "e"
      ],
      [
        "b",
        "on"
      ],
      [
        "idd",
        "le"
      ],
      [
        "Ġb",
        "ar"
      ],
      [
        "Ġs",
        "ix"
      ],
      [
        "W",
        "hen"
      ],
      [
        "Ġide",
        "a"
      ],
      [
        "Ġc",
        "amp"
      ],
      [
        "ab",
        "it"
      ],
      [
        "Ġsu",
        "per"
      ],
      [
        "rough",
        "t"
      ],
      [
        "ap",
        "an"
      ],
      [
        "m",
        "a"
      ],
      [
        "o",
        "es"
      ],
      [
        "Ġw",
        "in"
      ],
      [
        "iv",
        "al"
      ],
      [
        "Ġrel",
        "ated"
      ],
      [
        "Ġprovid",
        "es"
      ],
      [
        "Ġc",
        "le"
      ],
      [
        "Ġp",
        "aper"
      ],
      [
        "C",
        "h"
      ],
      [
        "ol",
        "ic"
      ],
      [
        "Ġiss",
        "ues"
      ],
      [
        "A",
        "l"
      ],
      [
        "h",
        "ing"
      ],
      [
        "ed",
        "s"
      ],
      [
        "Ġsym",
        "ptoms"
      ],
      [
        "Ġpri",
        "v"
      ],
      [
        "Ġ",
        "ver"
      ],
      [
        "ip",
        "s"
      ],
      [
        "Ġear",
        "th"
      ],
      [
        "se",
        "qu"
      ],
      [
        "Ġschool",
        "s"
      ],
      [
        "Ġm",
        "oney"
      ],
      [
        "re",
        "ct"
      ],
      [
        "ĠC",
        "o"
      ],
      [
        "iv",
        "ity"
      ],
      [
        "Ġscient",
        "ists"
      ],
      [
        "Ġre",
        "act"
      ],
      [
        "Ġ5",
        "0"
      ],
      [
        "Ġg",
        "as"
      ],
      [
        "em",
        "pt"
      ],
      [
        "Ġreg",
        "ard"
      ],
      [
        "le",
        "ep"
      ],
      [
        "ĠA",
        "m"
      ],
      [
        "Ġ201",
        "0"
      ],
      [
        "et",
        "y"
      ],
      [
        "Ġparent",
        "s"
      ],
      [
        "Ġad",
        "ult"
      ],
      [
        "Ġcomput",
        "er"
      ],
      [
        "Ġ",
        "vers"
      ],
      [
        "p",
        "ut"
      ],
      [
        "Ġassoci",
        "ated"
      ],
      [
        "Ġrelations",
        "hip"
      ],
      [
        "s",
        "c"
      ],
      [
        "Ġstud",
        "ent"
      ],
      [
        "uc",
        "k"
      ],
      [
        "ĠS",
        "y"
      ],
      [
        "ĠK",
        "ing"
      ],
      [
        "ĠI",
        "r"
      ],
      [
        "ĠG",
        "u"
      ],
      [
        "Ġrel",
        "ative"
      ],
      [
        "er",
        "y"
      ],
      [
        "Ġa",
        "ction"
      ],
      [
        "Ġl",
        "ot"
      ],
      [
        "Ġ1",
        "00"
      ],
      [
        "os",
        "es"
      ],
      [
        "Ġd",
        "iet"
      ],
      [
        "am",
        "ed"
      ],
      [
        "Ġ2",
        "5"
      ],
      [
        "Ġmain",
        "t"
      ],
      [
        "Ġn",
        "ut"
      ],
      [
        "ve",
        "y"
      ],
      [
        "Ġredu",
        "ce"
      ],
      [
        "Ġmonth",
        "s"
      ],
      [
        "g",
        "o"
      ],
      [
        "Ġ1",
        "1"
      ],
      [
        "Ġthe",
        "rap"
      ],
      [
        "as",
        "k"
      ],
      [
        "ra",
        "d"
      ],
      [
        "Ġst",
        "op"
      ],
      [
        "Ġmark",
        "et"
      ],
      [
        "er",
        "ve"
      ],
      [
        "Ġcon",
        "dition"
      ],
      [
        "um",
        "b"
      ],
      [
        "p",
        "ly"
      ],
      [
        "Ġchem",
        "ical"
      ],
      [
        "Ġthrough",
        "out"
      ],
      [
        "c",
        "il"
      ],
      [
        "Ġe",
        "ver"
      ],
      [
        "ch",
        "an"
      ],
      [
        "us",
        "ion"
      ],
      [
        "Ġsp",
        "e"
      ],
      [
        "Ġopp",
        "ortun"
      ],
      [
        "im",
        "ent"
      ],
      [
        "Ġbu",
        "ilt"
      ],
      [
        "Ġs",
        "ense"
      ],
      [
        "ĠC",
        "ont"
      ],
      [
        "Ġsur",
        "v"
      ],
      [
        "Ġenvironment",
        "al"
      ],
      [
        "ĠP",
        "e"
      ],
      [
        "Ġtemper",
        "ature"
      ],
      [
        "Ġprovid",
        "ed"
      ],
      [
        "Ġnecess",
        "ary"
      ],
      [
        "ri",
        "pt"
      ],
      [
        "Ġtru",
        "e"
      ],
      [
        "Ġhe",
        "av"
      ],
      [
        "Ġinter",
        "act"
      ],
      [
        "Ġstruct",
        "ure"
      ],
      [
        "Ġf",
        "arm"
      ],
      [
        "Ġrec",
        "omm"
      ],
      [
        "at",
        "ives"
      ],
      [
        "Ġshow",
        "s"
      ],
      [
        "g",
        "ing"
      ],
      [
        "Ġl",
        "ink"
      ],
      [
        "Ġgre",
        "en"
      ],
      [
        "Ġe",
        "mer"
      ],
      [
        "ect",
        "ions"
      ],
      [
        "um",
        "e"
      ],
      [
        "T",
        "o"
      ],
      [
        "Ġf",
        "ri"
      ],
      [
        "Ġab",
        "ility"
      ],
      [
        "erv",
        "ation"
      ],
      [
        "Ġf",
        "at"
      ],
      [
        "Ġre",
        "v"
      ],
      [
        "i",
        "us"
      ],
      [
        "p",
        "id"
      ],
      [
        "re",
        "land"
      ],
      [
        "Ġde",
        "b"
      ],
      [
        "Ġw",
        "ild"
      ],
      [
        "cc",
        "ording"
      ],
      [
        "ut",
        "ions"
      ],
      [
        "ing",
        "ton"
      ],
      [
        "ab",
        "et"
      ],
      [
        "Ġwe",
        "ight"
      ],
      [
        "ĠN",
        "o"
      ],
      [
        "ĠM",
        "an"
      ],
      [
        "ĠN",
        "e"
      ],
      [
        "ĠA",
        "fter"
      ],
      [
        "ad",
        "em"
      ],
      [
        "ĠJ",
        "apan"
      ],
      [
        "Ġprodu",
        "ce"
      ],
      [
        "Ġsim",
        "ple"
      ],
      [
        "Ġar",
        "ch"
      ],
      [
        "E",
        "S"
      ],
      [
        "ĠT",
        "r"
      ],
      [
        "Ġqu",
        "ality"
      ],
      [
        "ful",
        "ly"
      ],
      [
        "Ġ",
        "|"
      ],
      [
        "Ġcon",
        "duct"
      ],
      [
        "Ġlong",
        "er"
      ],
      [
        "Ġset",
        "t"
      ],
      [
        "min",
        "ist"
      ],
      [
        "Ġen",
        "s"
      ],
      [
        "ie",
        "f"
      ],
      [
        "a",
        "ff"
      ],
      [
        "ĠDep",
        "artment"
      ],
      [
        "ĠM",
        "in"
      ],
      [
        "in",
        "ary"
      ],
      [
        "Ġh",
        "ours"
      ],
      [
        "ict",
        "ion"
      ],
      [
        "Ġc",
        "e"
      ],
      [
        "ĠE",
        "d"
      ],
      [
        "Ġac",
        "cept"
      ],
      [
        "Ġserv",
        "ice"
      ],
      [
        "Ġpur",
        "p"
      ],
      [
        "Ġmaterial",
        "s"
      ],
      [
        "ri",
        "e"
      ],
      [
        "Ġl",
        "ab"
      ],
      [
        "Ġpre",
        "vious"
      ],
      [
        "as",
        "c"
      ],
      [
        "Ġpat",
        "tern"
      ],
      [
        "Ġst",
        "ri"
      ],
      [
        "Ġhe",
        "at"
      ],
      [
        "Ġcol",
        "l"
      ],
      [
        "Ġt",
        "aking"
      ],
      [
        "Ġp",
        "age"
      ],
      [
        "ĠRes",
        "earch"
      ],
      [
        "a",
        "i"
      ],
      [
        "stit",
        "ution"
      ],
      [
        "Ġs",
        "am"
      ],
      [
        "Ġsub",
        "st"
      ],
      [
        "Ġprog",
        "rams"
      ],
      [
        "Ġreport",
        "ed"
      ],
      [
        "ur",
        "s"
      ],
      [
        "Ġtot",
        "al"
      ],
      [
        "Ġpop",
        "ular"
      ],
      [
        "ron",
        "ic"
      ],
      [
        "Ġpract",
        "ice"
      ],
      [
        "ĠS",
        "ec"
      ],
      [
        "imate",
        "ly"
      ],
      [
        "Ġserv",
        "ices"
      ],
      [
        "Ġth",
        "reat"
      ],
      [
        "Ġcaus",
        "ed"
      ],
      [
        "ric",
        "ult"
      ],
      [
        "Ġqu",
        "ick"
      ],
      [
        "ri",
        "al"
      ],
      [
        "Ġp",
        "ath"
      ],
      [
        "d",
        "om"
      ],
      [
        "m",
        "on"
      ],
      [
        "Ġ",
        "="
      ],
      [
        "Ġn",
        "ormal"
      ],
      [
        "Ġstand",
        "ard"
      ],
      [
        "Ġunderstand",
        "ing"
      ],
      [
        "Ġter",
        "ms"
      ],
      [
        "Ġh",
        "ttp"
      ],
      [
        "h",
        "ood"
      ],
      [
        "at",
        "ter"
      ],
      [
        "er",
        "ous"
      ],
      [
        "Ġfor",
        "ce"
      ],
      [
        "ens",
        "ive"
      ],
      [
        "en",
        "ing"
      ],
      [
        "Ġcom",
        "es"
      ],
      [
        "Ġmus",
        "ic"
      ],
      [
        "B",
        "ut"
      ],
      [
        "Ġtra",
        "vel"
      ],
      [
        "Ġorig",
        "in"
      ],
      [
        "n",
        "ew"
      ],
      [
        "ord",
        "er"
      ],
      [
        "Ġl",
        "ed"
      ],
      [
        "ac",
        "c"
      ],
      [
        "iz",
        "ing"
      ],
      [
        "ĠS",
        "chool"
      ],
      [
        "is",
        "ing"
      ],
      [
        "Ġincre",
        "asing"
      ],
      [
        "Ġav",
        "oid"
      ],
      [
        "Ġmeas",
        "ure"
      ],
      [
        "Ġresp",
        "ect"
      ],
      [
        "Ġb",
        "ring"
      ],
      [
        "Ġd",
        "iv"
      ],
      [
        "tern",
        "al"
      ],
      [
        "Ġb",
        "ur"
      ],
      [
        "her",
        "n"
      ],
      [
        "Ġso",
        "ft"
      ],
      [
        "Ġem",
        "b"
      ],
      [
        "ar",
        "ily"
      ],
      [
        "Ġa",
        "verage"
      ],
      [
        "ac",
        "hed"
      ],
      [
        "ren",
        "ch"
      ],
      [
        "Ġl",
        "ate"
      ],
      [
        "z",
        "e"
      ],
      [
        "Ġfor",
        "ms"
      ],
      [
        "l",
        "in"
      ],
      [
        "Ġto",
        "wn"
      ],
      [
        "op",
        "s"
      ],
      [
        "Ġc",
        "oun"
      ],
      [
        "Ġgre",
        "ater"
      ],
      [
        "Ġorig",
        "inal"
      ],
      [
        "Ġf",
        "ire"
      ],
      [
        "ĠCent",
        "er"
      ],
      [
        "ress",
        "ed"
      ],
      [
        "Ġ",
        "ut"
      ],
      [
        "Ġm",
        "ess"
      ],
      [
        "Ġp",
        "ict"
      ],
      [
        "ra",
        "ft"
      ],
      [
        "ĠAust",
        "ral"
      ],
      [
        "Ġde",
        "ep"
      ],
      [
        "Ġcol",
        "or"
      ],
      [
        "Ġsom",
        "etimes"
      ],
      [
        "le",
        "x"
      ],
      [
        "Ġmat",
        "ter"
      ],
      [
        "ar",
        "ies"
      ],
      [
        "Ġanal",
        "ysis"
      ],
      [
        "Ġc",
        "it"
      ],
      [
        "Ġsh",
        "own"
      ],
      [
        "ĠIn",
        "stitute"
      ],
      [
        "ĠI",
        "reland"
      ],
      [
        "Ġdesign",
        "ed"
      ],
      [
        "Ġt",
        "ax"
      ],
      [
        "ow",
        "s"
      ],
      [
        "Ġappro",
        "ach"
      ],
      [
        "Y",
        "ou"
      ],
      [
        "rop",
        "ri"
      ],
      [
        "Ġwrit",
        "ten"
      ],
      [
        "âĢ",
        "¦"
      ],
      [
        "Ġm",
        "other"
      ],
      [
        "Ġtra",
        "ining"
      ],
      [
        "Ġsp",
        "ir"
      ],
      [
        "Ġv",
        "iol"
      ],
      [
        "p",
        "s"
      ],
      [
        "ad",
        "es"
      ],
      [
        "if",
        "t"
      ],
      [
        "Ġeffect",
        "ive"
      ],
      [
        "Ġse",
        "a"
      ],
      [
        "Ġpos",
        "ition"
      ],
      [
        "ĠSci",
        "ence"
      ],
      [
        "ic",
        "i"
      ],
      [
        "c",
        "he"
      ],
      [
        "Ġs",
        "ources"
      ],
      [
        "Ġth",
        "ing"
      ],
      [
        "ĠJ",
        "u"
      ],
      [
        "Ġt",
        "ar"
      ],
      [
        "Ġj",
        "ob"
      ],
      [
        "l",
        "ight"
      ],
      [
        "ra",
        "nd"
      ],
      [
        "Ġfact",
        "ors"
      ],
      [
        "Ġ201",
        "1"
      ],
      [
        "du",
        "c"
      ],
      [
        "O",
        "N"
      ],
      [
        "h",
        "old"
      ],
      [
        "Ġs",
        "qu"
      ],
      [
        "ĠD",
        "av"
      ],
      [
        "n",
        "ces"
      ],
      [
        "Ġ",
        "/"
      ],
      [
        "Ġprob",
        "ably"
      ],
      [
        "l",
        "im"
      ],
      [
        "am",
        "b"
      ],
      [
        "Ġex",
        "erc"
      ],
      [
        "y",
        "l"
      ],
      [
        "ĠC",
        "ount"
      ],
      [
        "Ġcom",
        "pl"
      ],
      [
        "Ġsim",
        "ply"
      ],
      [
        "Ġvis",
        "it"
      ],
      [
        "ce",
        "an"
      ],
      [
        "Ġmil",
        "es"
      ],
      [
        "Ġbir",
        "th"
      ],
      [
        "c",
        "ies"
      ],
      [
        "ĠP",
        "art"
      ],
      [
        "ort",
        "hern"
      ],
      [
        "b",
        "ased"
      ],
      [
        "er",
        "ation"
      ],
      [
        "Ġc",
        "ivil"
      ],
      [
        "Ġme",
        "chan"
      ],
      [
        "h",
        "aps"
      ],
      [
        "o",
        "res"
      ],
      [
        "Ġatt",
        "empt"
      ],
      [
        "Ġhealth",
        "y"
      ],
      [
        "Ġs",
        "low"
      ],
      [
        "Ġin",
        "ternational"
      ],
      [
        "ag",
        "ing"
      ],
      [
        "Ġs",
        "at"
      ],
      [
        "Ġbelie",
        "ve"
      ],
      [
        "ĠH",
        "ar"
      ],
      [
        "Ġcont",
        "ain"
      ],
      [
        "av",
        "ing"
      ],
      [
        "Ġmed",
        "ia"
      ],
      [
        "Ġsk",
        "ills"
      ],
      [
        "eng",
        "th"
      ],
      [
        "es",
        "e"
      ],
      [
        "Ġparticular",
        "ly"
      ],
      [
        "o",
        "ly"
      ],
      [
        "ĠP",
        "er"
      ],
      [
        "os",
        "ition"
      ],
      [
        "ĠR",
        "uss"
      ],
      [
        "Ġperson",
        "al"
      ],
      [
        "Ġp",
        "le"
      ],
      [
        "ĠJ",
        "an"
      ],
      [
        "ĠAfric",
        "an"
      ],
      [
        "Ġf",
        "a"
      ],
      [
        "Ġinvol",
        "ved"
      ],
      [
        "ĠCal",
        "if"
      ],
      [
        "l",
        "t"
      ],
      [
        "l",
        "ies"
      ],
      [
        "Ġl",
        "ives"
      ],
      [
        "land",
        "s"
      ],
      [
        "Ġev",
        "ents"
      ],
      [
        "ĠP",
        "ar"
      ],
      [
        "Ġman",
        "agement"
      ],
      [
        "I",
        "D"
      ],
      [
        "u",
        "k"
      ],
      [
        "Ġn",
        "ation"
      ],
      [
        "p",
        "ro"
      ],
      [
        "Ġbehav",
        "ior"
      ],
      [
        "4",
        "0"
      ],
      [
        "u",
        "ary"
      ],
      [
        "Ġcomp",
        "any"
      ],
      [
        "ic",
        "les"
      ],
      [
        "Ġmean",
        "ing"
      ],
      [
        "A",
        "T"
      ],
      [
        "Ġl",
        "ack"
      ],
      [
        "Ġint",
        "eg"
      ],
      [
        "Ġread",
        "ing"
      ],
      [
        "k",
        "now"
      ],
      [
        "vent",
        "ion"
      ],
      [
        "Ġt",
        "alk"
      ],
      [
        "Ġcon",
        "c"
      ],
      [
        "Ġk",
        "ing"
      ],
      [
        "Ġref",
        "er"
      ],
      [
        "Ġindividual",
        "s"
      ],
      [
        "Ġw",
        "ent"
      ],
      [
        "Ġn",
        "uc"
      ],
      [
        "Ġdevelop",
        "ing"
      ],
      [
        "Ġnet",
        "work"
      ],
      [
        "Ġdi",
        "agn"
      ],
      [
        "el",
        "t"
      ],
      [
        "Ġser",
        "ies"
      ],
      [
        "ĠIn",
        "ternational"
      ],
      [
        "Ġdem",
        "onst"
      ],
      [
        "Ġ",
        "ir"
      ],
      [
        "Ġthe",
        "ory"
      ],
      [
        "Ġind",
        "epend"
      ],
      [
        "Ġin",
        "j"
      ],
      [
        "Ġso",
        "il"
      ],
      [
        "2",
        "5"
      ],
      [
        "r",
        "or"
      ],
      [
        "Ġf",
        "ace"
      ],
      [
        "Ġhe",
        "ld"
      ],
      [
        "Ġst",
        "e"
      ],
      [
        "u",
        "ge"
      ],
      [
        "Ġcontin",
        "ue"
      ],
      [
        "Ġiss",
        "ue"
      ],
      [
        "Ġcont",
        "act"
      ],
      [
        "Ġpo",
        "or"
      ],
      [
        "orn",
        "ia"
      ],
      [
        "Ġgener",
        "ally"
      ],
      [
        "Ġn",
        "ight"
      ],
      [
        "Ġet",
        "c"
      ],
      [
        "on",
        "se"
      ],
      [
        "O",
        "n"
      ],
      [
        "Ġindust",
        "ry"
      ],
      [
        "Ġwh",
        "ose"
      ],
      [
        "Ġth",
        "ous"
      ],
      [
        "ĠC",
        "ons"
      ],
      [
        "Ġout",
        "side"
      ],
      [
        "Ġass",
        "ess"
      ],
      [
        "Ġag",
        "o"
      ],
      [
        "tern",
        "et"
      ],
      [
        "'",
        "re"
      ],
      [
        "Ġ",
        "Â"
      ],
      [
        "ĠWh",
        "ile"
      ],
      [
        "und",
        "red"
      ],
      [
        "ail",
        "y"
      ],
      [
        "Ġoffic",
        "ial"
      ],
      [
        "Ġsp",
        "read"
      ],
      [
        "I",
        "N"
      ],
      [
        "Ġf",
        "em"
      ],
      [
        "ther",
        "n"
      ],
      [
        "Ġcont",
        "ent"
      ],
      [
        "Ġus",
        "es"
      ],
      [
        "Ġbas",
        "ic"
      ],
      [
        "an",
        "ced"
      ],
      [
        "Ġmove",
        "ment"
      ],
      [
        "at",
        "ers"
      ],
      [
        "Ġprodu",
        "ced"
      ],
      [
        "ist",
        "ance"
      ],
      [
        "Ġanim",
        "al"
      ],
      [
        "in",
        "o"
      ],
      [
        "Ġj",
        "o"
      ],
      [
        "Ġmil",
        "itary"
      ],
      [
        "Ġfore",
        "st"
      ],
      [
        "ĠW",
        "ill"
      ],
      [
        "Ġd",
        "ou"
      ],
      [
        "ĠM",
        "ore"
      ],
      [
        "Ġfe",
        "et"
      ],
      [
        "Ġth",
        "us"
      ],
      [
        "ĠC",
        "or"
      ],
      [
        "Ġcult",
        "ure"
      ],
      [
        "ver",
        "se"
      ],
      [
        "I",
        "S"
      ],
      [
        "ers",
        "hip"
      ],
      [
        "Ġfamil",
        "ies"
      ],
      [
        "Ġestab",
        "lished"
      ],
      [
        "ĠM",
        "arch"
      ],
      [
        "rib",
        "ution"
      ],
      [
        "Ġm",
        "ount"
      ],
      [
        "im",
        "um"
      ],
      [
        "Ġvar",
        "iety"
      ],
      [
        "Ġal",
        "though"
      ],
      [
        "Ġbre",
        "ak"
      ],
      [
        "n",
        "s"
      ],
      [
        "Ġp",
        "sych"
      ],
      [
        "Ġv",
        "ide"
      ],
      [
        "ĠJ",
        "une"
      ],
      [
        "ole",
        "c"
      ],
      [
        "Ġa",
        "p"
      ],
      [
        "ed",
        "ia"
      ],
      [
        "Ġj",
        "ud"
      ],
      [
        "Ġnum",
        "bers"
      ],
      [
        "Ġsoc",
        "iety"
      ],
      [
        "o",
        "very"
      ],
      [
        "ĠR",
        "iver"
      ],
      [
        "Ġinvest",
        "ig"
      ],
      [
        "Ġa",
        "st"
      ],
      [
        "ĠR",
        "et"
      ],
      [
[...]
