{
  "version": "1.0",
  "truncation": null,
  "padding": null,
  "added_tokens": [
    {
      "id": 0,
      "content": "<unk>",
      "single_word": false,
      "lstrip": false,
      "rstrip": false,
      "normalized": false,
      "special": true
    },
    {
      "id": 1,
      "content": "<bos>",
      "single_word": false,
      "lstrip": false,
      "rstrip": false,
      "normalized": false,
      "special": true
    },
    {
      "id": 2,
      "content": "<eos>",
      "single_word": false,
      "lstrip": false,
      "rstrip": false,
      "normalized": false,
      "special": true
    },
    {
      "id": 3,
      "content": "<pad>",
      "single_word": false,
      "lstrip": false,
      "rstrip": false,
      "normalized": false,
      "special": true
    }
  ],
  "normalizer": null,
  "pre_tokenizer": {
    "type": "ByteLevel",
    "add_prefix_space": false,
    "trim_offsets": true,
    "use_regex": true
  },
  "post_processor": null,
  "decoder": {
    "type": "ByteLevel",
    "add_prefix_space": true,
    "trim_offsets": true,
    "use_regex": true
  },
  "model": {
    "type": "BPE",
    "dropout": null,
    "unk_token": "<unk>",
    "continuing_subword_prefix": null,
    "end_of_word_suffix": null,
    "fuse_unk": false,
    "byte_fallback": false,
    "ignore_merges": false,
    "vocab": {
      "<unk>": 0,
      "<bos>": 1,
      "<eos>": 2,
      "<pad>": 3,
      "!": 4,
      "$": 5,
      "&": 6,
      "'": 7,
      ",": 8,
      "-": 9,
      ".": 10,
      "3": 11,
      ":": 12,
      ";": 13,
      "?": 14,
      "A": 15,
      "B": 16,
      "C": 17,
      "D": 18,
      "E": 19,
      "F": 20,
      "G": 21,
      "H": 22,
      "I": 23,
      "J": 24,
      "K": 25,
      "L": 26,
      "M": 27,
      "N": 28,
      "O": 29,
      "P": 30,
      "Q": 31,
      "R": 32,
      "S": 33,
      "T": 34,
      "U": 35,
      "V": 36,
      "W": 37,
      "X": 38,
      "Y": 39,
      "Z": 40,
      "a": 41,
      "b": 42,
      "c": 43,
      "d": 44,
      "e": 45,
      "f": 46,
      "g": 47,
      "h": 48,
      "i": 49,
      "j": 50,
      "k": 51,
      "l": 52,
      "m": 53,
      "n": 54,
      "o": 55,
      "p": 56,
      "q": 57,
      "r": 58,
      "s": 59,
      "t": 60,
      "u": 61,
      "v": 62,
      "w": 63,
      "x": 64,
      "y": 65,
      "z": 66,
      "Ċ": 67,
      "č": 68,
      "Ġ": 69,
      "čĊ": 70,
      "Ġt": 71,
      "he": 72,
      "Ġa": 73,
      "ou": 74,
      "Ġs": 75,
      "Ġm": 76,
      "in": 77,
      "Ġw": 78,
      "re": 79,
      "ha": 80,
      "Ġthe": 81,
      "nd": 82,
      "Ġb": 83,
      "is": 84,
      "or": 85,
      "Ġf": 86,
      "er": 87,
      "ll": 88,
      "it": 89,
      "on": 90,
      "Ġd": 91,
      "Ġc": 92,
      "es": 93,
      "Ġl": 94,
      "en": 95,
      "Ġn": 96,
      "Ġy": 97,
      "ar": 98,
      "Ġth": 99,
      "Ġh": 100,
      "Ġo": 101,
      "Ġto": 102,
      "Ġp": 103,
      "Ġyou": 104,
      "hat": 105,
      "ĠI": 106,
      "Ġhe": 107,
      "ot": 108,
      "ve": 109,
      "ing": 110,
      "Ġof": 111,
      "st": 112,
      "Ġand": 113,
      "ow": 114,
      "an": 115,
      "om": 116,
      "Ġg": 117,
      "at": 118,
      "Ġbe": 119,
      "se": 120,
      "ce": 121,
      "Ġmy": 122,
      "Ġin": 123,
      "Ġha": 124,
      "le": 125,
      "ay": 126,
      "ld": 127,
      "et": 128,
      "ir": 129,
      "ed": 130,
      "ut": 131,
      "im": 132,
      "ith": 133,
      "'s": 134,
      "Ġme": 135,
      "Ġnot": 136,
      "Ġthat": 137,
      "ch": 138,
      "gh": 139,
      "our": 140,
      "Ġis": 141,
      "And": 142,
      "Ġu": 143,
      "Ġfor": 144,
      "ke": 145,
      "Ġwe": 146,
      "oo": 147,
      "ill": 148,
      "Ġe": 149,
      "her": 150,
      "Ġwith": 151,
      "Ġyour": 152,
      "Ġit": 153,
      "ad": 154,
      "ent": 155,
      "ri": 156,
      "Ġst": 157,
      "Ġthou": 158,
      "Ġhis": 159,
      "'d": 160,
      "Ġk": 161,
      "ord": 162,
      "ome": 163,
      "EN": 164,
      "ght": 165,
      "ra": 166,
      "The": 167,
      "Ġre": 168,
      "IN": 169,
      "Ġhim": 170,
      "ly": 171,
      "Ġli": 172,
      "Ġhave": 173,
      "id": 174,
      "as": 175,
      "ur": 176,
      "al": 177,
      "Ġthis": 178,
      "Ġde": 179,
      "Ġso": 180,
      "Ġon": 181,
      "Ġas": 182,
      "AR": 183,
      "ro": 184,
      "ore": 185,
      "hi": 186,
      "ould": 187,
      "ood": 188,
      "ck": 189,
      "ver": 190,
      "ain": 191,
      "est": 192,
      "ess": 193,
      "Ġthy": 194,
      "Ġsha": 195,
      "US": 196,
      "Ġdo": 197,
      "ea": 198,
      "Ġwill": 199,
      "Ġno": 200,
      "am": 201,
      "us": 202,
      "Ġbut": 203,
      "ge": 204,
      "and": 205,
      "Ġse": 206,
      "if": 207,
      "IO": 208,
      "Th": 209,
      "ion": 210,
      "To": 211,
      "Ġall": 212,
      "Ġsu": 213,
      "ake": 214,
      "th": 215,
      "ear": 216,
      "ue": 217,
      "Ġan": 218,
      "ter": 219,
      "Ġlo": 220,
      "ard": 221,
      "ING": 222,
      "han": 223,
      "Ġour": 224,
      "Ġher": 225,
      "Ġby": 226,
      "Ġsp": 227,
      "Ġfa": 228,
      "ell": 229,
      "ĠR": 230,
      "Ġshall": 231,
      "ĠC": 232,
      "Ġthee": 233,
      "rom": 234,
      "ho": 235,
      "il": 236,
      "ES": 237,
      "ct": 238,
      "ous": 239,
      "OR": 240,
      "ust": 241,
      "Ġv": 242,
      "Ġne": 243,
      "Ġare": 244,
      "That": 245,
      "ul": 246,
      "Ġkn": 247,
      "ight": 248,
      "ER": 249,
      "Ġwhat": 250,
      "Ġlord": 251,
      "Ġsh": 252,
      "ast": 253,
      "ath": 254,
      "sel": 255,
      "Ġup": 256,
      "art": 257,
      "ĠE": 258,
      "LA": 259,
      "KING": 260,
      "ant": 261,
      "Ġ'": 262,
      "UC": 263,
      "But": 264,
      "ĠM": 265,
      "hich": 266,
      "row": 267,
      "Ġgood": 268,
      "nt": 269,
      "one": 270,
      "Ġman": 271,
      "'ll": 272,
      "end": 273,
      "Ġpr": 274,
      "ine": 275,
      "Ġwhe": 276,
      "IC": 277,
      "Ġat": 278,
      "Ġbl": 279,
      "Ġcom": 280,
      "Ġfrom": 281,
      "What": 282,
      "Ġcon": 283,
      "ven": 284,
      "ic": 285,
      "ET": 286,
      "ry": 287,
      "ong": 288,
      "other": 289,
      "ive": 290,
      "Ġam": 291,
      "od": 292,
      "ble": 293,
      "For": 294,
      "ie": 295,
      "Ġthem": 296,
      "are": 297,
      "ĠG": 298,
      "IUS": 299,
      "em": 300,
      "out": 301,
      "ARD": 302,
      "ol": 303,
      "ĠH": 304,
      "Ġmore": 305,
      "Ġhat": 306,
      "ost": 307,
      "Ġwas": 308,
      "oth": 309,
      "Ġwould": 310,
      "au": 311,
      "Ġnow": 312,
      "Ġcan": 313,
      "ers": 314,
      "ond": 315,
      "Ġtheir": 316,
      "self": 317,
      "Ġthere": 318,
      "Ġking": 319,
      "Ġknow": 320,
      "ep": 321,
      "Ġif": 322,
      "ind": 323,
      "Ġtr": 324,
      "ĠO": 325,
      "Ġbr": 326,
      "Ġshe": 327,
      "fe": 328,
      "Ġlove": 329,
      "Ġus": 330,
      "Ġsw": 331,
      "Ġhere": 332,
      "Ġsay": 333,
      "Ġthey": 334,
      "--": 335,
      "LO": 336,
      "Ġthan": 337,
      "res": 338,
      "pp": 339,
      "Ġsir": 340,
      "um": 341,
      "all": 342,
      "ĠL": 343,
      "Ġor": 344,
      "Ġar": 345,
      "My": 346,
      "Ġthen": 347,
      "Ġlet": 348,
      "Ġun": 349,
      "qu": 350,
      "ĠS": 351,
      "un": 352,
      "ĠB": 353,
      "Ġgo": 354,
      "KE": 355,
      "ather": 356,
      "LI": 357,
      "He": 358,
      "ĠV": 359,
      "ate": 360,
      "ure": 361,
      "Ġwor": 362,
      "As": 363,
      "ish": 364,
      "ig": 365,
      "Ġr": 366,
      "ink": 367,
      "Ġmay": 368,
      "ort": 369,
      "fore": 370,
      "ĠA": 371,
      "ves": 372,
      "ame": 373,
      "Whe": 374,
      "Ġj": 375,
      "Ġgra": 376,
      "irst": 377,
      "ook": 378,
      "Ġhath": 379,
      "hy": 380,
      "Ġwell": 381,
      "Ġone": 382,
      "Ġcome": 383,
      "ci": 384,
      "gain": 385,
      "OM": 386,
      "ak": 387,
      "el": 388,
      "ound": 389,
      "Ġmake": 390,
      "Ġmust": 391,
      "reat": 392,
      "You": 393,
      "Ġho": 394,
      "Ġwere": 395,
      "Ġpro": 396,
      "ity": 397,
      "eak": 398,
      "Ġsee": 399,
      "Ġlike": 400,
      "pe": 401,
      "Ġhad": 402,
      "Ġsa": 403,
      "Ġpl": 404,
      "ĠW": 405,
      "Ġdeath": 406,
      "Ġshould": 407,
      "ice": 408,
      "ime": 409,
      "ng": 410,
      "Ġupon": 411,
      "Ġmad": 412,
      "ward": 413,
      "Ġtoo": 414,
      "ICH": 415,
      "DU": 416,
      "OL": 417,
      "ence": 418,
      "DUKE": 419,
      "EO": 420,
      "man": 421,
      "Ġdis": 422,
      "Ġen": 423,
      "Ġdid": 424,
      "Ġfri": 425,
      "ose": 426,
      "ful": 427,
      "nce": 428,
      "ĠP": 429,
      "ICHARD": 430,
      "TIO": 431,
      "own": 432,
      "ick": 433,
      "Ġout": 434,
      "ere": 435,
      "Ġspeak": 436,
      "Ġwhich": 437,
      "Ġfather": 438,
      "Ġpo": 439,
      "Ġheart": 440,
      "ĠY": 441,
      "Ġagain": 442,
      "Ġyet": 443,
      "Ġhand": 444,
      "entle": 445,
      "Ġhon": 446,
      "pt": 447,
      "Ġwho": 448,
      "With": 449,
      "AB": 450,
      "Which": 451,
      "ies": 452,
      "CA": 453,
      "ec": 454,
      "First": 455,
      "Ġal": 456,
      "Ġsome": 457,
      "ince": 458,
      "orn": 459,
      "Ġwhen": 460,
      "If": 461,
      "uch": 462,
      "very": 463,
      "Ġblood": 464,
      "In": 465,
      "Ġhea": 466,
      "UE": 467,
      "INC": 468,
      "Ġbrother": 469,
      "oy": 470,
      "Ġhow": 471,
      "Thou": 472,
      "Ġoff": 473,
      "ance": 474,
      "ack": 475,
      "ire": 476,
      "ĠII": 477,
      "ĠRICHARD": 478,
      "ign": 479,
      "TER": 480,
      "Ġtime": 481,
      "har": 482,
      "'t": 483,
      "wn": 484,
      "Ġmine": 485,
      "Ġson": 486,
      "GLO": 487,
      "ESTER": 488,
      "UCESTER": 489,
      "GLOUCESTER": 490,
      "Ġab": 491,
      "Ġhear": 492,
      "Ġfo": 493,
      "ither": 494,
      "Of": 495,
      "Ġmar": 496,
      "Ġfriend": 497,
      "Ġear": 498,
      "Ġsuch": 499,
      "ness": 500,
      "Ġday": 501,
      "RY": 502,
      "So": 503,
      "Ġthese": 504,
      "Ġlife": 505,
      "urse": 506,
      "EL": 507,
      "ise": 508,
      "Ġex": 509,
      "Ġdes": 510,
      "QUE": 511,
      "LAN": 512,
      "QUEEN": 513,
      "IS": 514,
      "ther": 515,
      "oul": 516,
      "Ġgive": 517,
      "ving": 518,
      "Ġro": 519,
      "ĠOF": 520,
      "ENTIO": 521,
      "This": 522,
      "No": 523,
      "ag": 524,
      "Ġword": 525,
      "Ġthink": 526,
      "Ġey": 527,
      "ady": 528,
      "BR": 529,
      "Ġlook": 530,
      "age": 531,
      "ef": 532,
      "eet": 533,
      "not": 534,
      "Ġhonour": 535,
      "Ġwhere": 536,
      "Ġtake": 537,
      "ings": 538,
      "NT": 539,
      "rown": 540,
      "AU": 541,
      "Why": 542,
      "Ġri": 543,
      "ENRY": 544,
      "Ġqu": 545,
      "Ġtell": 546,
      "Ġwar": 547,
      "ist": 548,
      "Ġfl": 549,
      "ave": 550,
      "How": 551,
      "Ġfear": 552,
      "Ġart": 553,
      "way": 554,
      "Ġmuch": 555,
      "ĠVINC": 556,
      "ĠVINCENTIO": 557,
      "ase": 558,
      "Ġmost": 559,
      "urn": 560,
      "Ġlea": 561,
      "Ġgentle": 562,
      "Ġsl": 563,
      "ĠRome": 564,
      "Ġmade": 565,
      "ORK": 566,
      "ĠGod": 567,
      "iz": 568,
      "Ġbre": 569,
      "Where": 570,
      "We": 571,
      "INIUS": 572,
      "Ġmen": 573,
      "Ġcou": 574,
      "de": 575,
      "ĠT": 576,
      "cc": 577,
      "uke": 578,
      "ough": 579,
      "ower": 580,
      "Ġbet": 581,
      "tis": 582,
      "Ġhast": 583,
      "Be": 584,
      "ee": 585,
      "ation": 586,
      "DW": 587,
      "DWARD": 588,
      "igh": 589,
      "que": 590,
      "Ġpart": 591,
      "Ġgreat": 592,
      "Is": 593,
      "ber": 594,
      "tle": 595,
      "orrow": 596,
      "Ġfair": 597,
      "Ġheaven": 598,
      "ple": 599,
      "Ġtw": 600,
      "Ġaf": 601,
      "old": 602,
      "Now": 603,
      "ved": 604,
      "Ġnew": 605,
      "Who": 606,
      "Ġtrue": 607,
      "Your": 608,
      "ss": 609,
      "ears": 610,
      "Or": 611,
      "Ġstand": 612,
      "Ġnoble": 613,
      "ap": 614,
      "Ġnever": 615,
      "Ġcannot": 616,
      "aw": 617,
      "HA": 618,
      "UM": 619,
      "ment": 620,
      "Ġany": 621,
      "dward": 622,
      "Ġad": 623,
      "Ġpre": 624,
      "ide": 625,
      "MEN": 626,
      "ROM": 627,
      "ROMEO": 628,
      "ree": 629,
      "Ġbeen": 630,
      "ENIUS": 631,
      "MENENIUS": 632,
      "Ġcl": 633,
      "ĠCl": 634,
      "Ġra": 635,
      "Ġwr": 636,
      "Ġcomm": 637,
      "aught": 638,
      ",--": 639,
      "AN": 640,
      "ĠD": 641,
      "Ġque": 642,
      "There": 643,
      "hing": 644,
      "Ġsoul": 645,
      "Ġdoth": 646,
      "Ġqueen": 647,
      "li": 648,
      "Ġsc": 649,
      "Ġcall": 650,
      "Ġown": 651,
      "It": 652,
      "ger": 653,
      "io": 654,
      "Ġper": 655,
      "Ġhead": 656,
      "Ġdead": 657,
      "Ġname": 658,
      "ull": 659,
      "Ġother": 660,
      "Ġsweet": 661,
      "ouse": 662,
      "erv": 663,
      "Ġdone": 664,
      "Ġchi": 665,
      "Ġnight": 666,
      "ace": 667,
      "Ġple": 668,
      "Ġpres": 669,
      "Ġbear": 670,
      "IOLAN": 671,
      "ORIOLAN": 672,
      "ORIOLANUS": 673,
      "Come": 674,
      "CORIOLANUS": 675,
      "Sec": 676,
      "ĠLord": 677,
      "When": 678,
      "Second": 679,
      "Ġway": 680,
      "Ġnor": 681,
      "ĠEdward": 682,
      "ause": 683,
      "By": 684,
      "ĠF": 685,
      "ife": 686,
      "Ay": 687,
      "per": 688,
      "aint": 689,
      "Than": 690,
      "less": 691,
      "ite": 692,
      "ilt": 693,
      "Ġarm": 694,
      "Ġgrace": 695,
      "ock": 696,
      "Ġboth": 697,
      "Ġbefore": 698,
      "ĠEDWARD": 699,
      "Ġworld": 700,
      "ass": 701,
      "Ġpray": 702,
      "Ġvery": 703,
      "itiz": 704,
      "ans": 705,
      "itizen": 706,
      "ab": 707,
      "to": 708,
      "uck": 709,
      "Ġdown": 710,
      "Then": 711,
      "ction": 712,
      "ĠMar": 713,
      "Nor": 714,
      "Ġapp": 715,
      "aster": 716,
      "Ġmother": 717,
      "urd": 718,
      "ĠIII": 719,
      "able": 720,
      "wick": 721,
      "Ġke": 722,
      "Ġmyself": 723,
      "the": 724,
      "Ġma": 725,
      "Ġrem": 726,
      "land": 727,
      "Ġlive": 728,
      "Ġeyes": 729,
      "ford": 730,
      "arwick": 731,
      "Ġbeg": 732,
      "Ġfriends": 733,
      "Ġchild": 734,
      "les": 735,
      "Ġwh": 736,
      "Ġthus": 737,
      "Ġunt": 738,
      "Ġcont": 739,
      "Ġleave": 740,
      "LUC": 741,
      "me": 742,
      "Ġim": 743,
      "eace": 744,
      "ĠYORK": 745,
      "Ġdie": 746,
      "Ġbeing": 747,
      "ABEL": 748,
      "ISABEL": 749,
      "ISABELLA": 750,
      "ĠJ": 751,
      "Ġpoor": 752,
      "ps": 753,
      "Ġstr": 754,
      "JU": 755,
      "LEO": 756,
      "lo": 757,
      "Ġlong": 758,
      "ows": 759,
      "Ġever": 760,
      "Ġcons": 761,
      "LIET": 762,
      "ĠWarwick": 763,
      "NTES": 764,
      "aughter": 765,
      "JULIET": 766,
      "LEONTES": 767,
      "Let": 768,
      "Ġaway": 769,
      "Ġcrown": 770,
      "led": 771,
      "Ġthought": 772,
      "Ġmany": 773,
      "ks": 774,
      "oud": 775,
      "DY": 776,
      "for": 777,
      "Ġmight": 778,
      "hall": 779,
      "Ġpe": 780,
      "Ġrep": 781,
      "LADY": 782,
      "CE": 783,
      "VOL": 784,
      "Ġwom": 785,
      "ENCE": 786,
      "Ġlie": 787,
      "ff": 788,
      "ison": 789,
      "erc": 790,
      "Ġcour": 791,
      "Ġstay": 792,
      "She": 793,
      "sw": 794,
      "Ġset": 795,
      "red": 796,
      "atter": 797,
      "Ġprince": 798,
      "SIC": 799,
      "well": 800,
      "Ġwife": 801,
      "nder": 802,
      "ors": 803,
      "Ġrest": 804,
      "hard": 805,
      "SICINIUS": 806,
      "rant": 807,
      "Ġtong": 808,
      "Ġold": 809,
      "His": 810,
      "Ġle": 811,
      "Ġgone": 812,
      "Ġhar": 813,
      "come": 814,
      "ought": 815,
      "Ġlords": 816,
      "Ġcomes": 817,
      "EY": 818,
      "ious": 819,
      "ittle": 820,
      "ont": 821,
      "atch": 822,
      "che": 823,
      "Ġgri": 824,
      "Tis": 825,
      "int": 826,
      "Ġthose": 827,
      "Ġhouse": 828,
      "Ġres": 829,
      "ult": 830,
      "ress": 831,
      "akes": 832,
      "LUCIO": 833,
      "ier": 834,
      "os": 835,
      "ru": 836,
      "Ġacc": 837,
      "ork": 838,
      "ĠIV": 839,
      "Ġnothing": 840,
      "ichard": 841,
      "Ġagainst": 842,
      "Not": 843,
      "ces": 844,
      "ret": 845,
      "Ġfoll": 846,
      "Ġnews": 847,
      "cl": 848,
      "Ġbetter": 849,
      "ĠK": 850,
      "Ġtri": 851,
      "iss": 852,
      "ield": 853,
      "Ġkeep": 854,
      "On": 855,
      "ied": 856,
      "ud": 857,
      "Ġhour": 858,
      "ardon": 859,
      "cious": 860,
      "Pro": 861,
      "ZAB": 862,
      "Ġlittle": 863,
      "Ġpur": 864,
      "Ġpower": 865,
      "Ġhence": 866,
      "Ġhimself": 867,
      "ĠELI": 868,
      "ETH": 869,
      "une": 870,
      "ZABETH": 871,
      "ĠELIZABETH": 872,
      "ew": 873,
      "ius": 874,
      "Ġyoung": 875,
      "Nay": 876,
      "Well": 877,
      "ft": 878,
      "Ġent": 879,
      "Ġput": 880,
      "Ġpeace": 881,
      "Ġgu": 882,
      "Ġstill": 883,
      "Ġface": 884,
      "ĠYork": 885,
      "Go": 886,
      "HENRY": 887,
      "ect": 888,
      "yal": 889,
      "ins": 890,
      "Ġwit": 891,
      "Ġlady": 892,
      "enry": 893,
      "sed": 894,
      "NE": 895,
      "ove": 896,
      "ople": 897,
      "Ġsm": 898,
      "Ġhigh": 899,
      "ĠRomeo": 900,
      "Ġtongue": 901,
      "Ġsle": 902,
      "Ġcha": 903,
      "Ġcould": 904,
      "ark": 905,
      "Ġend": 906,
      "ason": 907,
      "Thy": 908,
      "GE": 909,
      "WAR": 910,
      "WIC": 911,
      "Ġtra": 912,
      "Ġdre": 913,
      "Ġthing": 914,
      "Ġdear": 915,
      "Ġsub": 916,
      "ĠVI": 917,
      "Ġcount": 918,
      "WARWIC": 919,
      "WARWICK": 920,
      "St": 921,
      "UT": 922,
      "Ġbest": 923,
      "ert": 924,
      "ĠHENRY": 925,
      "Ġearth": 926,
      "Have": 927,
      "Nurse": 928,
      "RI": 929,
      "ile": 930,
      "ty": 931,
      "ren": 932,
      "ĠCitizen": 933,
      "Ġcomp": 934,
      "Here": 935,
      "Ġhope": 936,
      "Ġwords": 937,
      "ray": 938,
      "Ġtill": 939,
      "Ġback": 940,
      "Ġthr": 941,
      "Ġhel": 942,
      "Ġkind": 943,
      "UCH": 944,
      "ĠHenry": 945,
      "HAM": 946,
      "LET": 947,
      "PU": 948,
      "ale": 949,
      "Ġduke": 950,
      "Ġpri": 951,
      "vere": 952,
      "hile": 953,
      "ĠRichard": 954,
      "Ġneed": 955,
      "Ġpeople": 956,
      "PULET": 957,
      "lse": 958,
      "Ġfell": 959,
      "Ġlaw": 960,
      "Ġhus": 961,
      "uth": 962,
      "IL": 963,
      "band": 964,
      "Ġban": 965,
      "ird": 966,
      "ool": 967,
      "alk": 968,
      "Ġright": 969,
      "eech": 970,
      "Ġtwo": 971,
      "Ġunto": 972,
      "fort": 973,
      "get": 974,
      "tw": 975,
      "iness": 976,
      "ousin": 977,
      "Ġhusband": 978,
      "Ġfind": 979,
      "Ġdaughter": 980,
      "ried": 981,
      "Ġseem": 982,
      "KINGHAM": 983,
      "UCKINGHAM": 984,
      "BRUT": 985,
      "BRUTUS": 986,
      "BUCKINGHAM": 987,
      "OKE": 988,
      "ix": 989,
      "Ġtre": 990,
      "Ġfirst": 991,
      "Ġthine": 992,
      "INGBR": 993,
      "ESS": 994,
      "LAU": 995,
      "ĠBOL": 996,
      "INGBROKE": 997,
      "ĠBOLINGBROKE": 998,
      "men": 999,
      "vost": 1000,
      "Ġmind": 1001,
      "Ġbra": 1002,
      "Ġhome": 1003,
      "Ġthough": 1004,
      "Ġhands": 1005,
      "ach": 1006,
      "ged": 1007,
      "ĠWhat": 1008,
      "Ġtears": 1009,
      "Ġelse": 1010,
      "ĠMAR": 1011,
      "Ġjoy": 1012,
      "LAR": 1013,
      "Shall": 1014,
      "Ġbod": 1015,
      "Ġchar": 1016,
      "Ġgl": 1017,
      "Ġforth": 1018,
      "hip": 1019,
      "Ġshow": 1020,
      "Ġtherefore": 1021,
      "ĠAn": 1022,
      "Ġroyal": 1023,
      "GAR": 1024,
      "Ġwhy": 1025,
      "Ġbid": 1026,
      "ister": 1027,
      "Ġchan": 1028,
      "eth": 1029,
      "uty": 1030,
      "Ġfort": 1031,
      "Ġsaid": 1032,
      "ĠMARGAR": 1033,
      "ĠMARGARET": 1034,
      "Cl": 1035,
      "From": 1036,
      "MIL": 1037,
      "TH": 1038,
      "eed": 1039,
      "Ġwo": 1040,
      "orse": 1041,
      "Ġche": 1042,
      "Ġcause": 1043,
      "ates": 1044,
      "They": 1045,
      "Ġonce": 1046,
      "Ġjust": 1047,
      "Ġwhose": 1048,
      "ervant": 1049,
      "Ġimp": 1050,
      "Sir": 1051,
      "ail": 1052,
      "Ġmean": 1053,
      "roke": 1054,
      "erer": 1055,
      "Will": 1056,
      "cle": 1057,
      "iet": 1058,
      "Ġnat": 1059,
      "Ġnone": 1060,
      "ary": 1061,
      "Ġpardon": 1062,
      "ORD": 1063,
      "Ġconf": 1064,
      "ANGE": 1065,
      "ANGELO": 1066,
      "bt": 1067,
      "Ġkill": 1068,
      "arence": 1069,
      "All": 1070,
      "eel": 1071,
      "vy": 1072,
      "Ġboy": 1073,
      "Ġdou": 1074,
      "Ġstate": 1075,
      "esty": 1076,
      "cius": 1077,
      "Ġwrong": 1078,
      "Good": 1079,
      "be": 1080,
      "lf": 1081,
      "lt": 1082,
      "pose": 1083,
      "Ġsorrow": 1084,
      "Ġmis": 1085,
      "Ġdr": 1086,
      "Ġlight": 1087,
      "swer": 1088,
      "bl": 1089,
      "iol": 1090,
      "Ġco": 1091,
      "Ġlast": 1092,
      "anc": 1093,
      "Ġhapp": 1094,
      "Ġweep": 1095,
      "Ġplace": 1096,
      "LUS": 1097,
      "Our": 1098,
      "Yet": 1099,
      "Ġbes": 1100,
      "ESCA": 1101,
      "Ġgracious": 1102,
      "Ġenem": 1103,
      "Ġpresent": 1104,
      "ESCALUS": 1105,
      "Do": 1106,
      "sand": 1107,
      "ory": 1108,
      "its": 1109,
      "Ġcousin": 1110,
      "arry": 1111,
      "Ġgod": 1112,
      "Ġmeet": 1113,
      "Ġdev": 1114,
      "Ġshame": 1115,
      "Ġhate": 1116,
      "Ġafter": 1117,
      "Ġfollow": 1118,
      "Ġhelp": 1119,
      "ON": 1120,
      "Un": 1121,
      "Ġless": 1122,
      "Ġpass": 1123,
      "Ġere": 1124,
      "Ġthousand": 1125,
      "ĠEng": 1126,
      "Ġbring": 1127,
      "DUCH": 1128,
      "Ġsince": 1129,
      "Ġmakes": 1130,
      "Ġfull": 1131,
      "ons": 1132,
      "Ġheard": 1133,
      "ceive": 1134,
      "Ġevery": 1135,
      "asure": 1136,
      "selves": 1137,
      "Ġhold": 1138,
      "urderer": 1139,
      "Ġwhom": 1140,
      "DUCHESS": 1141,
      "pher": 1142,
      "Ġfar": 1143,
      "Ġfal": 1144,
      "ition": 1145,
      "Ġcame": 1146,
      "Ġland": 1147,
      "Ġanswer": 1148,
      "Ġfall": 1149,
      "ERC": 1150,
      "Ġeye": 1151,
      "Ġplease": 1152,
      "Ġgrief": 1153,
      "ĠKing": 1154,
      "Up": 1155,
      "air": 1156,
      "Ġbri": 1157,
      "Ġunder": 1158,
      "Ġstre": 1159,
      "gelo": 1160,
      "ices": 1161,
      "Ġabout": 1162,
      "Ġcoun": 1163,
      "ĠMarcius": 1164,
      "IA": 1165,
      "Lord": 1166,
      "day": 1167,
      "ject": 1168,
      "imes": 1169,
      "Ġworth": 1170,
      "CAMIL": 1171,
      "ĠClarence": 1172,
      "ĠDuke": 1173,
      "Ġmaid": 1174,
      "CAMILLO": 1175,
      "GR": 1176,
      "Hath": 1177,
      "Ġcare": 1178,
      "Ġhither": 1179,
      "Ġpat": 1180,
      "irt": 1181,
      "INA": 1182,
      "Ġsun": 1183,
      "Ġbody": 1184,
      "iv": 1185,
      "ild": 1186,
      "Ġmo": 1187,
      "Ġwilt": 1188,
      "Ġfight": 1189,
      "Ġdeed": 1190,
      "Ġvo": 1191,
      "ĠAngelo": 1192,
      "FRI": 1193,
      "ST": 1194,
      "we": 1195,
      "Ġbu": 1196,
      "alt": 1197,
      "Ġfault": 1198,
      "ump": 1199,
      "Ġgentleman": 1200,
      "Provost": 1201,
      "Ġtrait": 1202,
      "FRIAR": 1203,
      "An": 1204,
      "morrow": 1205,
      "Ġover": 1206,
      "Ġbed": 1207,
      "Ġinto": 1208,
      "Ġret": 1209,
      "Ġdost": 1210,
      "Ġcomfort": 1211,
      "Ġsword": 1212,
      "Ġwoman": 1213,
      "Ġcourt": 1214,
      "pherd": 1215,
      "CUS": 1216,
      "COM": 1217,
      "TOL": 1218,
      "YCUS": 1219,
      "ount": 1220,
      "Ġsen": 1221,
      "Ġdra": 1222,
      "Ġstri": 1223,
      "Ġsovere": 1224,
      "Ġanother": 1225,
      "AUTOL": 1226,
      "COMINIUS": 1227,
      "AUTOLYCUS": 1228,
      "pl": 1229,
      "pen": 1230,
      "Ġturn": 1231,
      "ised": 1232,
      "Ġeven": 1233,
      "Third": 1234,
      "Ġgrave": 1235,
      "pect": 1236,
      "LAND": 1237,
      "Ġcountry": 1238,
      "Ġbanish": 1239,
      "LARENCE": 1240,
      "CLARENCE": 1241,
      "God": 1242,
      "Sh": 1243,
      "ily": 1244,
      "Ġser": 1245,
      "Ġfool": 1246,
      "Ġch": 1247,
      "Ġhum": 1248,
      "omet": 1249,
      "Ġgr": 1250,
      "ENES": 1251,
      "Ġreven": 1252,
      "ury": 1253,
      "Ġprove": 1254,
      "Ġsleep": 1255,
      "Ġfellow": 1256,
      "Ġfortune": 1257,
      "Ġfalse": 1258,
      "BEN": 1259,
      "MAR": 1260,
      "NOR": 1261,
      "ener": 1262,
      "Ġgi": 1263,
      "Ġem": 1264,
      "hold": 1265,
      "Ġbreath": 1266,
      "deed": 1267,
      "VOLIO": 1268,
      "Clown": 1269,
      "Upon": 1270,
      "BENVOLIO": 1271,
      "Are": 1272,
      "Even": 1273,
      "dd": 1274,
      "ience": 1275,
      "Ġtalk": 1276,
      "Ġsound": 1277,
      "Ġwant": 1278,
      "Ġwish": 1279,
      "Ġbel": 1280,
      "Ġhas": 1281,
      "ade": 1282,
      "Ġatt": 1283,
      "Ġholy": 1284,
      "Ġplay": 1285,
      ".'": 1286,
      "More": 1287,
      "MERC": 1288,
      "UTIO": 1289,
      "ran": 1290,
      "Ġmatter": 1291,
      "ator": 1292,
      "Ġinst": 1293,
      "ĠMurderer": 1294,
      "Ġtruth": 1295,
      "Ġdream": 1296,
      "MERCUTIO": 1297,
      "At": 1298,
      "rance": 1299,
      "Ġmist": 1300,
      "Ġyears": 1301,
      "Ġindeed": 1302,
      "Ġreason": 1303,
      "Ġsold": 1304,
      "Ġonly": 1305,
      "Ġprison": 1306,
      "ieve": 1307,
      "fect": 1308,
      "Ġthank": 1309,
      "Ġdisc": 1310,
      "Ġadv": 1311,
      "Ġarms": 1312,
      "POM": 1313,
      "Ġsent": 1314,
      "Ġmerc": 1315,
      "erving": 1316,
      "Ġdan": 1317,
      "ute": 1318,
      "Ġuse": 1319,
      "Ġlies": 1320,
      "Ġenough": 1321,
      "Ġdoubt": 1322,
      "POMP": 1323,
      "LINA": 1324,
      "MIO": 1325,
      "PAU": 1326,
      "by": 1327,
      "ian": 1328,
      "Ġbo": 1329,
      "Ġbus": 1330,
      "Ġpers": 1331,
      "Ġint": 1332,
      "Ġlives": 1333,
      "Ġdep": 1334,
      "ester": 1335,
      "Ġsend": 1336,
      "Ġvirt": 1337,
      "Ġru": 1338,
      "Ġrather": 1339,
      "Ġmadam": 1340,
      "Ġsovereign": 1341,
      "PAULINA": 1342,
      "Al": 1343,
      "YORK": 1344,
      "eal": 1345,
      "of": 1346,
      "Ġi": 1347,
      "hed": 1348,
      "ouch": 1349,
      "Ġpity": 1350,
      "Ġsec": 1351,
      "Ġfare": 1352,
      "gainst": 1353,
      "Ġhappy": 1354,
      "Ġgods": 1355,
      "POMPEY": 1356,
      "NIA": 1357,
      "OLI": 1358,
      "POLI": 1359,
      "Would": 1360,
      "XENES": 1361,
      "balt": 1362,
      "sh": 1363,
      "unt": 1364,
      "ybalt": 1365,
      "ĠBut": 1366,
      "ĠNor": 1367,
      "Ġtend": 1368,
      "ham": 1369,
      "itt": 1370,
      "Ġlay": 1371,
      "illain": 1372,
      "Ġstra": 1373,
      "vers": 1374,
      "Ġshalt": 1375,
      "Ġproud": 1376,
      "UMNIA": 1377,
      "VOLUMNIA": 1378,
      "Ġnature": 1379,
      "Ġbeseech": 1380,
      "POLIXENES": 1381,
      "ia": 1382,
      "ike": 1383,
      "use": 1384,
      "enger": 1385,
      "Ġyield": 1386,
      "Ġprom": 1387,
      "eter": 1388,
      "ents": 1389,
      "INGS": 1390,
      "Ġswear": 1391,
      "ĠServing": 1392,
      "Ġbloody": 1393,
      "ague": 1394,
      "STINGS": 1395,
      "ĠServingman": 1396,
      "RENCE": 1397,
      "Were": 1398,
      "broke": 1399,
      "ken": 1400,
      "ĠLAU": 1401,
      "Ġwound": 1402,
      "Ġcity": 1403,
      "Ġhang": 1404,
      "Ġwel": 1405,
      "Ġyours": 1406,
      "essenger": 1407,
      "HASTINGS": 1408,
      "like": 1409,
      "Ġmaj": 1410,
      "ĠLAURENCE": 1411,
      "BY": 1412,
      "BER": 1413,
      "Ġserv": 1414,
      "ery": 1415,
      "Ġden": 1416,
      "Ġdare": 1417,
      "Ġcur": 1418,
      "ars": 1419,
      "Ġdef": 1420,
      "ĠCome": 1421,
      "Ġval": 1422,
      "Ġbreak": 1423,
      "Ġsubject": 1424,
      ",'": 1425,
      "CLI": 1426,
      "FF": 1427,
      "LE": 1428,
      "up": 1429,
      "ues": 1430,
      "Ġsomet": 1431,
      "Ġmaster": 1432,
      "Ġwind": 1433,
      "Ġborn": 1434,
      "Ġfree": 1435,
      "Ġlam": 1436,
      "unes": 1437,
      "UMBER": 1438,
      "Ġcommand": 1439,
      "Ġchildren": 1440,
      "THUMBER": 1441,
      "ĠEngland": 1442,
      "Ġtraitor": 1443,
      "NORTHUMBER": 1444,
      "Ġmajesty": 1445,
      "CLIFF": 1446,
      "NORTHUMBERLAND": 1447,
      "ID": 1448,
      "bs": 1449,
      "Ġtem": 1450,
      "Ġcra": 1451,
      "Ġoath": 1452,
      "any": 1453,
      "Ġgener": 1454,
      "Ġuncle": 1455,
      "Therefore": 1456,
      "gether": 1457,
      "NNE": 1458,
      "com": 1459,
      "Ġsin": 1460,
      "Ġsister": 1461,
      "hal": 1462,
      "Ġcr": 1463,
      "Ġcond": 1464,
      "Ġlate": 1465,
      "ens": 1466,
      "Ġbea": 1467,
      "Ġmeans": 1468,
      "Ġyourself": 1469,
      "Ġrequ": 1470,
      "Ġfaith": 1471,
      "ĠANNE": 1472,
      "Ġdays": 1473,
      "ĠJul": 1474,
      "Ġstran": 1475,
      "Ġdanger": 1476,
      "Ġtender": 1477,
      "Ah": 1478,
      "PR": 1479,
      "dom": 1480,
      "ict": 1481,
      "Ġsight": 1482,
      "Ġwhile": 1483,
      "Ġfoul": 1484,
      "Ġnurse": 1485,
      "Ġgre": 1486,
      "ifford": 1487,
      "Ġspo": 1488,
      "Ġsaw": 1489,
      "CAPULET": 1490,
      "INCE": 1491,
      "Ġcommon": 1492,
      "Ġremem": 1493,
      "Ġreturn": 1494,
      "Ġmercy": 1495,
      "Ġbusiness": 1496,
      "PRINCE": 1497,
      "Her": 1498,
      "Look": 1499,
      "Say": 1500,
      "mer": 1501,
      "Ġaw": 1502,
      "oriol": 1503,
      "ingbroke": 1504,
      "Ġwithin": 1505,
      "Ġseen": 1506,
      "Ġvillain": 1507,
      "olingbroke": 1508,
      "Ġdeser": 1509,
      "Ġlooks": 1510,
      "Ġliege": 1511,
      "ches": 1512,
      "Ġwoe": 1513,
      "GRE": 1514,
      "Give": 1515,
      "Ġsea": 1516,
      "rel": 1517,
      "Ġthree": 1518,
      "Ġget": 1519,
      "Ġspir": 1520,
      "ĠMont": 1521,
      "arewell": 1522,
      "ĠBolingbroke": 1523,
      "Ġsave": 1524,
      "Ġmark": 1525,
      "form": 1526,
      "Ġpurpose": 1527,
      "Ġfarewell": 1528,
      "aim": 1529,
      "cher": 1530,
      "ient": 1531,
      "ms": 1532,
      "Ġmon": 1533,
      "Ġmurd": 1534,
      "Ġthings": 1535,
      "Ġtold": 1536,
      "ours": 1537,
      "Ġkiss": 1538,
      "Ġsoon": 1539,
      "Ġsupp": 1540,
      "onder": 1541,
      "Ġgold": 1542,
      "Ġheavy": 1543,
      "eft": 1544,
      "ĠClifford": 1545,
      "ertain": 1546,
      "Ġwelcome": 1547,
      "ĠJuliet": 1548,
      "aid": 1549,
      "ial": 1550,
      "ten": 1551,
      "Ġill": 1552,
      "Ġtimes": 1553,
      "Ġmer": 1554,
      "Ġmet": 1555,
      "Ġwin": 1556,
      "Ġgrow": 1557,
      "Ġbeat": 1558,
      "ceed": 1559,
      "Ġdeep": 1560,
      "usic": 1561,
      "ters": 1562,
      "aud": 1563,
      "Ġwarrant": 1564,
      "Ġslain": 1565,
      "Whose": 1566,
      "ĠFrance": 1567,
      "Ġcontent": 1568,
      "Ġjustice": 1569,
      "APULET": 1570,
      "FL": 1571,
      "FID": 1572,
      "IZ": 1573,
      "Tw": 1574,
      "so": 1575,
      "outh": 1576,
      "Ġbat": 1577,
      "ides": 1578,
      "ush": 1579,
      "ĠCAPULET": 1580,
      "ORIZ": 1581,
      "Ġdisp": 1582,
      "Ġfriar": 1583,
      "entleman": 1584,
      "Though": 1585,
      "AUFID": 1586,
      "Ġground": 1587,
      "FLORIZ": 1588,
      "AUFIDIUS": 1589,
      "FLORIZEL": 1590,
      "AL": 1591,
      "Did": 1592,
      "Had": 1593,
      "May": 1594,
      "Take": 1595,
      "VER": 1596,
      "Was": 1597,
      "bed": 1598,
      "ever": 1599,
      "ges": 1600,
      "no": 1601,
      "hes": 1602,
      "Ġsad": 1603,
      "Ġfly": 1604,
      "Ġfound": 1605,
      "Ġcho": 1606,
      "Ġleft": 1607,
      "Ġnear": 1608,
      "Ġtogether": 1609,
      "let": 1610,
      "ets": 1611,
      "race": 1612,
      "These": 1613,
      "Ġass": 1614,
      "ross": 1615,
      "Ġthyself": 1616,
      "ift": 1617,
      "earn": 1618,
      "Ġlost": 1619,
      "Ġpluck": 1620,
      "Ġfoot": 1621,
      "Ġears": 1622,
      "Ġdesire": 1623,
      "ĠTybalt": 1624,
      "Ġhaste": 1625,
      "One": 1626,
      "Ġthrough": 1627,
      "Ġrevenge": 1628,
      "Ġgeneral": 1629,
      "audio": 1630,
      "Can": 1631,
      "Like": 1632,
      "ring": 1633,
      "xt": 1634,
      "Ġair": 1635,
      "Ġage": 1636,
      "Ġsit": 1637,
      "Ġca": 1638,
      "Ġcurse": 1639,
      "enator": 1640,
      "Ġpast": 1641,
      "ĠIs": 1642,
      "Ġheir": 1643,
      "oman": 1644,
      "ution": 1645,
      "Ġwithout": 1646,
      "Ġitself": 1647,
      "Ġask": 1648,
      "amill": 1649,
      "Ġsuit": 1650,
      "Ġloss": 1651,
      "aunt": 1652,
      "umber": 1653,
      "ĠSenator": 1654,
      "Ġhard": 1655,
      "Should": 1656,
      "Ġperson": 1657,
      "CIUS": 1658,
      "RICHARD": 1659,
      "Tell": 1660,
      "Wh": 1661,
      "az": 1662,
      "cester": 1663,
      "gs": 1664,
      "lou": 1665,
      "oint": 1666,
      "vo": 1667,
      "vent": 1668,
      "Ġcry": 1669,
      "Ġgrant": 1670,
      "ains": 1671,
      "Ġdoes": 1672,
      "Ġsure": 1673,
      "Ġsuff": 1674,
      "ured": 1675,
      "Ġpoint": 1676,
      "Ġquick": 1677,
      "Ġstrong": 1678,
      "Shepherd": 1679,
      "ixt": 1680,
      "Ġenemy": 1681,
      "Ġworthy": 1682,
      "Ġstrange": 1683,
      "OW": 1684,
      "Some": 1685,
      "TR": 1686,
      "ling": 1687,
      "night": 1688,
      "sue": 1689,
      "Ġsil": 1690,
      "ined": 1691,
      "Ġfore": 1692,
      "Ġcold": 1693,
      "Ġlearn": 1694,
      "Ġhorse": 1695,
      "Ġtoward": 1696,
      "Ġpost": 1697,
      "Ġhell": 1698,
      "ingham": 1699,
      "Ġinf": 1700,
      "adam": 1701,
      "enty": 1702,
      "Ġdeli": 1703,
      "Ġlose": 1704,
      "ĠRi": 1705,
      "Ġvis": 1706,
      "olk": 1707,
      "ĠHere": 1708,
      "Ġsays": 1709,
      "Ġrun": 1710,
      "Ġjud": 1711,
      "Ġalone": 1712,
      "Ġreport": 1713,
      "Ġstreng": 1714,
      "Ġcounsel": 1715,
      "Ġbelieve": 1716,
      "amillo": 1717,
      "!'": 1718,
      "Against": 1719,
      "Bec": 1720,
      "eep": 1721,
      "Ġtit": 1722,
      "Ġmock": 1723,
      "Ġbold": 1724,
      "Ġbos": 1725,
      "Ġfire": 1726,
      "Ġyouth": 1727,
      "alm": 1728,
      "Ġfast": 1729,
      "ĠCoriol": 1730,
      "astings": 1731,
      "ols": 1732,
      "Ġknows": 1733,
      "Ġmarry": 1734,
      "Ġexec": 1735,
      "Ġquar": 1736,
      "Ġfearful": 1737,
      "Ġstands": 1738,
      "ĠClaudio": 1739,
      "uckingham": 1740,
      "MARCIUS": 1741,
      "Ġstraight": 1742,
      "Ġservice": 1743,
      "ĠMontague": 1744,
      "loucester": 1745,
      "Ġbosom": 1746,
      "Com": 1747,
      "DIO": 1748,
      "HOR": 1749,
      "Sp": 1750,
      "folk": 1751,
      "gu": 1752,
      "iers": 1753,
      "ship": 1754,
      "ĠYou": 1755,
      "Ġmorn": 1756,
      "Ġwat": 1757,
      "Ġwret": 1758,
      "Ġfield": 1759,
      "ones": 1760,
      "Ġbehold": 1761,
      "cept": 1762,
      "Ġinc": 1763,
      "Ġwear": 1764,
      "Ġrec": 1765,
      "ĠCap": 1766,
      "ĠHastings": 1767,
      "Ġtrust": 1768,
      "ĠBuckingham": 1769,
      "aking": 1770,
      "itizens": 1771,
      "Ġthoughts": 1772,
      "Ġhours": 1773,
      "HER": 1774,
      "MO": 1775,
      "Till": 1776,
      "bly": 1777,
      "ner": 1778,
      "pare": 1779,
      "ĠTh": 1780,
      "Ġside": 1781,
      "Ġfur": 1782,
      "Ġdiv": 1783,
      "Ġye": 1784,
      "Ġspeed": 1785,
      "ERLE": 1786,
      "Ġbrought": 1787,
      "ortal": 1788,
      "ĠAUM": 1789,
      "Ġdesp": 1790,
      "ched": 1791,
      "Ġguilt": 1792,
      "Ġhighness": 1793,
      "Ġcharge": 1794,
      "Ġdevil": 1795,
      "Ġvoices": 1796,
      "Ġremember": 1797,
      "Ġspirit": 1798,
      "Ġmurder": 1799,
      "ĠAUMERLE": 1800,
      "Farewell": 1801,
      "ning": 1802,
      "ses": 1803,
      "Ġter": 1804,
      "Ġpar": 1805,
      "Ġeach": 1806,
      "ads": 1807,
      "Ġshort": 1808,
      "ĠGentleman": 1809,
      "ĠGloucester": 1810,
      "ĠLanc": 1811,
      "inks": 1812,
      "Ġprof": 1813,
      "Ġdist": 1814,
      "Ġposs": 1815,
      "Ġdraw": 1816,
      "Ġstrength": 1817,
      "ĠLancaster": 1818,
      "Ha": 1819,
      "Madam": 1820,
      "Pray": 1821,
      "fid": 1822,
      "ior": 1823,
      "Ġord": 1824,
      "Ġtouch": 1825,
      "Ġact": 1826,
      "Ġsat": 1827,
      "Ġfeel": 1828,
      "Ġcar": 1829,
      "Ġopen": 1830,
      "Ġhalf": 1831,
      "Ġread": 1832,
      "ĠCamillo": 1833,
      "fection": 1834,
      "Ġwork": 1835,
      "Ġseek": 1836,
      "Ġtwenty": 1837,
      "Ġcourse": 1838,
      "Ġresol": 1839,
      "Ġconfess": 1840,
      "Ġenemies": 1841,
      "Ġbeauty": 1842,
      "CLAU": 1843,
      "cess": 1844,
      "hood": 1845,
      "with": 1846,
      "ĠThe": 1847,
      "Ġty": 1848,
      "Ġten": 1849,
      "Ġsing": 1850,
      "Ġmin": 1851,
      "Ġbreat": 1852,
      "ished": 1853,
      "Ġdish": 1854,
      "Ġgates": 1855,
      "oop": 1856,
      "Ġstir": 1857,
      "Ġdel": 1858,
      "ander": 1859,
      "Ġcanst": 1860,
      "Ġhearts": 1861,
      "Ġabs": 1862,
      "Ġheavens": 1863,
      "Ġclose": 1864,
      "Ġharm": 1865,
      "Ġtrib": 1866,
      "Ġenter": 1867,
      "Ġserve": 1868,
      "MIONE": 1869,
      "ĠNorfolk": 1870,
      "CLIFFORD": 1871,
      "Ġtitle": 1872,
      "HERMIONE": 1873,
      "CLAUDIO": 1874,
      "EDWARD": 1875,
      "LORD": 1876,
      "PET": 1877,
      "See": 1878,
      "chan": 1879,
      "most": 1880,
      "sc": 1881,
      "su": 1882,
      "ufid": 1883,
      "Ġsame": 1884,
      "ready": 1885,
      "Ġbit": 1886,
      "Ġbound": 1887,
      "Ġcor": 1888,
      "oward": 1889,
      "Ġissue": 1890,
      "Ġsto": 1891,
      "Ġloving": 1892,
      "Ġknown": 1893,
      "ĠPom": 1894,
      "Ġpret": 1895,
      "Ġcloud": 1896,
      "Ġsouls": 1897,
      "Ġbegg": 1898,
      "Ġconsul": 1899,
      "Ġgrie": 1900,
      "Ġentreat": 1901,
      "Ġchange": 1902,
      "ween": 1903,
      "Ġstrike": 1904,
      "Ġmistress": 1905,
      "Ġsomething": 1906,
      "Ġdeliver": 1907,
      "ufidius": 1908,
      "AG": 1909,
      "HN": 1910,
      "IT": 1911,
      "Most": 1912,
      "Marry": 1913,
      "Messenger": 1914,
      "OHN": 1915,
      "PS": 1916,
      "now": 1917,
      "Ġve": 1918,
      "hee": 1919,
      "Ġsick": 1920,
      "Ġwhi": 1921,
      "rest": 1922,
      "Ġfit": 1923,
      "Ġdam": 1924,
      "Ġcut": 1925,
      "Ġpra": 1926,
      "Ġpale": 1927,
      "Ġbecome": 1928,
      "chm": 1929,
      "Ġev": 1930,
      "riage": 1931,
      "Ġlips": 1932,
      "urp": 1933,
      "Thus": 1934,
      "Ġven": 1935,
      "Ġthemselves": 1936,
      "Ġpoison": 1937,
      "Ġhonest": 1938,
      "Ġalready": 1939,
      "Ġmarried": 1940,
      "Ġaff": 1941,
      "awd": 1942,
      "Ġpleasure": 1943,
      "Ġchee": 1944,
      "ceived": 1945,
      "Ġbattle": 1946,
      "ĠHereford": 1947,
      "Servant": 1948,
      "Unt": 1949,
      "ne": 1950,
      "Ġsign": 1951,
      "Ġwis": 1952,
      "Ġwall": 1953,
      "rem": 1954,
      "isf": 1955,
      "Ġfour": 1956,
      "ithee": 1957,
      "Ġduty": 1958,
      "anus": 1959,
      "ced": 1960,
      "irth": 1961,
      "Ġeither": 1962,
      "ries": 1963,
      "ils": 1964,
      "Ġnext": 1965,
      "rows": 1966,
      "ends": 1967,
      "Ġblack": 1968,
      "Ġsworn": 1969,
      "Ġprop": 1970,
      "Ġtook": 1971,
      "Ġfoe": 1972,
      "Ġbreast": 1973,
      "ĠTower": 1974,
      "ments": 1975,
      "claim": 1976,
      "twas": 1977,
      "Ġpatience": 1978,
      "Ġgiven": 1979,
      "Ġsoldiers": 1980,
      "Ġsuffer": 1981,
      "Ġfurther": 1982,
      "chmond": 1983,
      "Away": 1984,
      "IR": 1985,
      "Since": 1986,
      "TES": 1987,
      "cent": 1988,
      "gare": 1989,
      "ible": 1990,
      "ting": 1991,
      "und": 1992,
      "vour": 1993,
      "you": 1994,
      "Ġag": 1995,
      "Ġsake": 1996,
      "Ġmouth": 1997,
      "Ġwoo": 1998,
      "Ġwast": 1999,
      "Ġbad": 2000,
      "orge": 2001,
      "Ġcast": 2002,
      "esh": 2003,
      "aris": 2004,
      "ĠIf": 2005,
      "otion": 2006,
      "Ġforg": 2007,
      "oof": 2008,
      "oose": 2009,
      "rah": 2010,
      "Ġreg": 2011,
      "Ġself": 2012,
      "empt": 2013,
      "ĠAufidius": 2014,
      "Ġplain": 2015,
      "CATES": 2016,
      "Ġalong": 2017,
      "Ġsons": 2018,
      "Ġmarriage": 2019,
      "Being": 2020,
      "Before": 2021,
      "Ġpresence": 2022,
      "twere": 2023,
      "ethinks": 2024,
      "Unless": 2025,
      "dden": 2026,
      "Ġattend": 2027,
      "Ġwounds": 2028,
      "Ġdangerous": 2029,
      "Ġquarrel": 2030,
      "Ġmorning": 2031,
      "garet": 2032,
      "CATESBY": 2033,
      "LY": 2034,
      "Re": 2035,
      "cy": 2036,
      "fter": 2037,
      "ires": 2038,
      "ives": 2039,
      "kes": 2040,
      "lst": 2041,
      "oin": 2042,
      "over": 2043,
      "pes": 2044,
      "rist": 2045,
      "used": 2046,
      "ĠFor": 2047,
      "Ġsk": 2048,
      "Ġburn": 2049,
      "onour": 2050,
      "Ġdire": 2051,
      "Ġthri": 2052,
      "Ġpay": 2053,
      "Ġgave": 2054,
      "Ġforb": 2055,
      "Ġforget": 2056,
      "Ġweak": 2057,
      "Ġready": 2058,
      "Ġseat": 2059,
      "Ġsum": 2060,
      "Ġsucc": 2061,
      "Ġloves": 2062,
      "Ġvict": 2063,
      "Ġknew": 2064,
      "emn": 2065,
      "ondon": 2066,
      "Ġthanks": 2067,
      "ally": 2068,
      "ĠLondon": 2069,
      "unk": 2070,
      "ĠVols": 2071,
      "els": 2072,
      "Ġrich": 2073,
      "Ġwars": 2074,
      "Ġwomen": 2075,
      "Ġthrone": 2076,
      "Ġbrave": 2077,
      "Ġvoice": 2078,
      "Ġvirtue": 2079,
      "Ġsatisf": 2080,
      "BAL": 2081,
      "ILI": 2082,
      "IAN": 2083,
      "JOHN": 2084,
      "Lest": 2085,
      "Must": 2086,
      "Rome": 2087,
      "REY": 2088,
      "iant": 2089,
      "po": 2090,
      "she": 2091,
      "uous": 2092,
      "Ġtale": 2093,
      "Ġmove": 2094,
      "Ġwa": 2095,
      "Ġwid": 2096,
      "Ġwise": 2097,
      "ona": 2098,
      "ench": 2099,
      "owers": 2100,
      "Ġinter": 2101,
      "Ġred": 2102,
      "alth": 2103,
      "ĠCh": 2104,
      "Ġkings": 2105,
      "Ġgoes": 2106,
      "Ġjest": 2107,
      "ĠParis": 2108,
      "Ġexp": 2109,
      "BRA": 2110,
      "Ġflatter": 2111,
      "ĠMargaret": 2112,
      "Ġrespect": 2113,
      "Ġcham": 2114,
      "Ġcompany": 2115,
      "Alas": 2116,
      "Ġrequest": 2117,
      "Ġspoke": 2118,
      "VERS": 2119,
      "ĠRichmond": 2120,
      "Because": 2121,
      "BALT": 2122,
      "ILIA": 2123,
      "BOW": 2124,
      "Make": 2125,
      "Such": 2126,
      "Tr": 2127,
      "eorge": 2128,
      "lish": 2129,
      "mb": 2130,
      "ures": 2131,
      "hem": 2132,
      "oun": 2133,
      "Ġmortal": 2134,
      "Ġwonder": 2135,
      "Ġbawd": 2136,
      "Ġfra": 2137,
      "Ġdark": 2138,
      "Ġcoward": 2139,
      "Ġlad": 2140,
      "arl": 2141,
      "Ġpie": 2142,
      "stand": 2143,
      "Ġgot": 2144,
      "right": 2145,
      "Ġliber": 2146,
      "ided": 2147,
      "Ġsoft": 2148,
      "each": 2149,
      "Ġsudden": 2150,
      "Ġneither": 2151,
      "Ġbless": 2152,
      "ĠGAU": 2153,
      "ĠGeorge": 2154,
      "Ġkingdom": 2155,
      "ĠLady": 2156,
      "Ġworse": 2157,
      "cient": 2158,
      "elcome": 2159,
      "Ġsac": 2160,
      "ĠPl": 2161,
      "Ġoffice": 2162,
      "ELBOW": 2163,
      "Ġbetween": 2164,
      "Ġappear": 2165,
      "Ġmighty": 2166,
      "Ġwithal": 2167,
      "Ġdread": 2168,
      "RIVERS": 2169,
      "Ġpriv": 2170,
      "Ġbrief": 2171,
      "Ġdeeds": 2172,
      "Ġbuy": 2173,
      "Ġemb": 2174,
      "Ġvaliant": 2175,
      "Ġlament": 2176,
      "ĠIsab": 2177,
      "Ġorder": 2178,
      "ĠGAUNT": 2179,
      "AM": 2180,
      "Both": 2181,
      "Hold": 2182,
      "Sw": 2183,
      "TY": 2184,
      "king": 2185,
      "rum": 2186,
      "ught": 2187,
      "ura": 2188,
      "xford": 2189,
      "ĠKING": 2190,
      "Ġta": 2191,
      "Ġac": 2192,
      "Ġmal": 2193,
      "ina": 2194,
      "Ġwatch": 2195,
      "Ġble": 2196,
      "Ġtown": 2197,
      "etch": 2198,
      "irm": 2199,
      "Ġkins": 2200,
      "Their": 2201,
      "east": 2202,
      "iff": 2203,
      "ions": 2204,
      "Ġancient": 2205,
      "Ġvow": 2206,
      "antag": 2207,
      "Ġprot": 2208,
      "icer": 2209,
      "ĠHe": 2210,
      "ĠServant": 2211,
      "ered": 2212,
      "Ġext": 2213,
      "NTAG": 2214,
      "Ġrage": 2215,
      "Ġheads": 2216,
      "Ġappro": 2217,
      "Ġbegin": 2218,
      "Ġconsent": 2219,
      "Ġprincely": 2220,
      "Ġseems": 2221,
      "Ġvisit": 2222,
      "Speak": 2223,
      "Ġtribunes": 2224,
      "Ġbitter": 2225,
      "Romeo": 2226,
      "NTAGUE": 2227,
      "Call": 2228,
      "Ere": 2229,
      "TEN": 2230,
      "ees": 2231,
      "ging": 2232,
      "gry": 2233,
      "ip": 2234,
      "mand": 2235,
      "ohem": 2236,
      "that": 2237,
      "ĠN": 2238,
      "Ġaction": 2239,
      "rew": 2240,
      "Ġbar": 2241,
      "Ġbab": 2242,
      "Ġfrown": 2243,
      "Ġfeast": 2244,
      "llow": 2245,
      "Ġdro": 2246,
      "Ġcle": 2247,
      "Ġcol": 2248,
      "Ġcase": 2249,
      "Ġlim": 2250,
      "Ġthrow": 2251,
      "Ġhot": 2252,
      "Ġopp": 2253,
      "Ġoften": 2254,
      "Ġhaving": 2255,
      "thumber": 2256,
      "host": 2257,
      "Ġviol": 2258,
      "oney": 2259,
      "Ġtrou": 2260,
      "pey": 2261,
      "Ġenc": 2262,
      "Ġdidst": 2263,
      "Ġflesh": 2264,
      "Ġgentlemen": 2265,
      "ANIO": 2266,
      "Ġscorn": 2267,
      "Ġlead": 2268,
      "Ġtriump": 2269,
      "Ġcompl": 2270,
      "Ġfaults": 2271,
      "Ġdepart": 2272,
      "Ġdeny": 2273,
      "Ġdefend": 2274,
      "Whom": 2275,
      "TRANIO": 2276,
      "HORTEN": 2277,
      "Ġsuccess": 2278,
      "thumberland": 2279,
      "HORTENS": 2280,
      "DIT": 2281,
      "GILIA": 2282,
      "OP": 2283,
      "PER": 2284,
      "VIR": 2285,
      "Yes": 2286,
      "Yea": 2287,
      "aul": 2288,
      "but": 2289,
      "een": 2290,
      "joy": 2291,
      "ns": 2292,
      "nown": 2293,
      "sp": 2294,
      "ua": 2295,
      "ĠThis": 2296,
      "Ġtear": 2297,
      "Ġsigh": 2298,
      "Ġservant": 2299,
      "Ġmusic": 2300,
      "rey": 2301,
      "Ġben": 2302,
      "Ġbook": 2303,
      "Ġfill": 2304,
      "Ġlack": 2305,
      "arn": 2306,
      "Ġthither": 2307,
      "Ġhur": 2308,
      "Ġhide": 2309,
      "Ġpen": 2310,
      "ley": 2311,
      "Ġund": 2312,
      "raw": 2313,
      "Ġreb": 2314,
      "Ġliving": 2315,
      "als": 2316,
      "thy": 2317,
      "Ġspeech": 2318,
      "antage": 2319,
      "ĠMy": 2320,
      "Ġprin": 2321,
      "ĠGREY": 2322,
      "Ġwash": 2323,
      "Ġtrump": 2324,
      "Ġthence": 2325,
      "aken": 2326,
      "Ġsafe": 2327,
      "ired": 2328,
      "Ġslaughter": 2329,
      "Ġprepare": 2330,
      "Ġscar": 2331,
      "ainted": 2332,
      "Ġsmall": 2333,
      "Ġcheer": 2334,
      "Ġsecret": 2335,
      "itted": 2336,
      "Ġmerry": 2337,
      "MONTAGUE": 2338,
      "ĠChrist": 2339,
      "ohemia": 2340,
      "HORTENSIO": 2341,
      "DITA": 2342,
      "PERDITA": 2343,
      "VIRGILIA": 2344,
      "Peace": 2345,
      "SET": 2346,
      "SLY": 2347,
      "Welcome": 2348,
      "ls": 2349,
      "sper": 2350,
      "vest": 2351,
      "will": 2352,
      "Ġid": 2353,
      "Ġest": 2354,
      "Ġign": 2355,
      "Ġbow": 2356,
      "Ġbro": 2357,
      "Ġbirth": 2358,
      "Ġfond": 2359,
      "ities": 2360,
      "Ġdu": 2361,
      "Ġdest": 2362,
      "Ġpu": 2363,
      "ots": 2364,
      "Ġgro": 2365,
      "ats": 2366,
      "Ġbec": 2367,
      "Ġeas": 2368,
      "Ġshad": 2369,
      "Think": 2370,
      "though": 2371,
      "ĠCa": 2372,
      "Ġknee": 2373,
      "Ġknock": 2374,
      "astard": 2375,
      "Ġblows": 2376,
      "Ġcoming": 2377,
      "ĠOxford": 2378,
      "feit": 2379,
      "Ġloved": 2380,
      "Ġusurp": 2381,
      "ĠSir": 2382,
      "ĠSaint": 2383,
      "Ġworship": 2384,
      "aked": 2385,
      "ĠPaul": 2386,
      "Ġoffence": 2387,
      "Ġwrit": 2388,
      "Ġprayers": 2389,
      "ledge": 2390,
      "force": 2391,
      "Ġslew": 2392,
      "Stand": 2393,
      "Ġlawful": 2394,
      "Ġweeping": 2395,
      "Ġpatient": 2396,
      "MARIAN": 2397,
      "Ġsubjects": 2398,
      "Ġawhile": 2399,
      "GREMIO": 2400,
      "Ġquickly": 2401,
      "ĠCoriolanus": 2402,
      "Ġexecution": 2403,
      "Ġguilty": 2404,
      "ĠPompey": 2405,
      "Ġpretty": 2406,
      "Ġchamber": 2407,
      "ural": 2408,
      "MARIANA": 2409,
      "Ab": 2410,
      "Ar": 2411,
      "PAR": 2412,
      "RA": 2413,
      "Whi": 2414,
      "hind": 2415,
      "ying": 2416,
      "your": 2417,
      "ĠThou": 2418,
      "ines": 2419,
      "Ġwert": 2420,
      "Ġfled": 2421,
      "Ġfier": 2422,
      "Ġcreat": 2423,
      "Ġcertain": 2424,
      "Ġcross": 2425,
      "Ġnay": 2426,
      "Ġgar": 2427,
      "Ġinj": 2428,
      "Ġins": 2429,
      "Ġur": 2430,
      "Ġdoom": 2431,
      "Ġnob": 2432,
      "ustom": 2433,
      "Ġshows": 2434,
      "Ġwhence": 2435,
      "ĠSt": 2436,
      "cience": 2437,
      "Ġproceed": 2438,
      "Ġmarch": 2439,
      "Ġleast": 2440,
      "Ġadm": 2441,
      "perate": 2442,
      "osition": 2443,
      "Stay": 2444,
      "Ġchance": 2445,
      "Ġdrum": 2446,
      "Ġpresently": 2447,
      "ĠEnglish": 2448,
      "Ġbanishment": 2449,
      "ranio": 2450,
      "Ġsoldier": 2451,
      "Ġpromise": 2452,
      "Ġcondemn": 2453,
      "Ġdeserved": 2454,
      "Ġwater": 2455,
      "Ġpossess": 2456,
      "Ġbreathe": 2457,
      "Ġdishonour": 2458,
      "Ġwidow": 2459,
      "ĠIsabel": 2460,
      "antagen": 2461,
      "PARIS": 2462,
      "Bes": 2463,
      "Pl": 2464,
      "awn": 2465,
      "house": 2466,
      "iest": 2467,
      "med": 2468,
      "oor": 2469,
      "ror": 2470,
      "vol": 2471,
      "ĠX": 2472,
      "Ġut": 2473,
      "Ġap": 2474,
      "Ġsur": 2475,
      "Ġsho": 2476,
      "Ġmed": 2477,
      "Ġmid": 2478,
      "Ġwed": 2479,
      "Ġbur": 2480,
      "Ġbase": 2481,
      "Ġfam": 2482,
      "Ġfetch": 2483,
      "essed": 2484,
      "Ġlab": 2485,
      "Ġob": 2486,
      "Ġpit": 2487,
      "Ġpain": 2488,
      "Ġheld": 2489,
      "inger": 2490,
      "ingly": 2491,
      "ators": 2492,
      "Ġbeast": 2493,
      "sem": 2494,
      "set": 2495,
      "Ġinno": 2496,
      "eds": 2497,
      "Ġmeasure": 2498,
      "Ġreign": 2499,
      "Ġnoise": 2500,
      "iles": 2501,
      "Ġkneel": 2502,
      "asters": 2503,
      "ĠMerc": 2504,
      "ended": 2505,
      "Ġshepherd": 2506,
      "Ġletter": 2507,
      "Ġletters": 2508,
      "Ġunc": 2509,
      "ĠBohemia": 2510,
      "Ġalmost": 2511,
      "ignior": 2512,
      "Ġperform": 2513,
      "ully": 2514,
      "Ġlonger": 2515,
      "Ġwomb": 2516,
      "rupt": 2517,
      "Ġwitness": 2518,
      "Ġtreason": 2519,
      "Ġglad": 2520,
      "bey": 2521,
      "Ġdrink": 2522,
      "bling": 2523,
      "Ġprisoner": 2524,
      "Ġvirtuous": 2525,
      "Ġdispatch": 2526,
      "Ġdamn": 2527,
      "Ġladies": 2528,
      "antagenet": 2529,
      "De": 2530,
      "DOR": 2531,
      "EW": 2532,
      "Mar": 2533,
      "RUCH": 2534,
      "TIUS": 2535,
      "bit": 2536,
      "eem": 2537,
      "gue": 2538,
      "ulet": 2539,
      "Ġtor": 2540,
      "Ġtent": 2541,
      "Ġsus": 2542,
      "Ġmod": 2543,
      "Ġmild": 2544,
      "inius": 2545,
      "Ġwild": 2546,
      "erle": 2547,
      "Ġlen": 2548,
      "Ġlow": 2549,
      "Ġlaid": 2550,
      "vey": 2551,
      "Ġgall": 2552,
      "Ġform": 2553,
      "Ġsteel": 2554,
      "Ġref": 2555,
      "Ġlived": 2556,
      "ider": 2557,
      "urs": 2558,
      "cks": 2559,
      "vern": 2560,
      "Ġdog": 2561,
      "ames": 2562,
      "Ġvain": 2563,
      "Ġknees": 2564,
      "Ġprithee": 2565,
      "ĠGaunt": 2566,
      "Ġwouldst": 2567,
      "Ġshed": 2568,
      "ĠLu": 2569,
      "ĠLet": 2570,
      "ĠLEW": 2571,
      "Ġworst": 2572,
      "Ġprosper": 2573,
      "Ġhadst": 2574,
      "ĠWatch": 2575,
      "ĠPr": 2576,
      "Ġspeaks": 2577,
      "Ġadd": 2578,
      "Ġpride": 2579,
      "LARTIUS": 2580,
      "Ġglory": 2581,
      "Ġwoes": 2582,
      "atesby": 2583,
      "Ġinstru": 2584,
      "Ġsentence": 2585,
      "Ġsecond": 2586,
      "ĠNorthumberland": 2587,
      "Ġgolden": 2588,
      "Ġtowards": 2589,
      "ĠCapulet": 2590,
      "PETRUCH": 2591,
      "Ġclouds": 2592,
      "Ġvictory": 2593,
      "ounter": 2594,
      "Ġkinsman": 2595,
      "Ġbecause": 2596,
      "ĠXI": 2597,
      "ĠLEWIS": 2598,
      "ĠWatchman": 2599,
      "PETRUCHIO": 2600,
      "Doth": 2601,
      "En": 2602,
      "Su": 2603,
      "SAM": 2604,
      "Too": 2605,
      "bb": 2606,
      "bray": 2607,
      "ffect": 2608,
      "gment": 2609,
      "hn": 2610,
      "him": 2611,
      "iance": 2612,
      "ohn": 2613,
      "pir": 2614,
      "vail": 2615,
      "Ġay": 2616,
      "Ġshi": 2617,
      "Ġsaint": 2618,
      "Ġmut": 2619,
      "Ġbroke": 2620,
      "isure": 2621,
      "Ġfought": 2622,
      "lly": 2623,
      "Ġdeter": 2624,
      "Ġcitizens": 2625,
      "aring": 2626,
      "Ġpet": 2627,
      "owbray": 2628,
      "Ġbend": 2629,
      "Ġbehind": 2630,
      "Ġind": 2631,
      "Ġhap": 2632,
      "ety": 2633,
      "Ġnote": 2634,
      "Ġeffect": 2635,
      "Ġstood": 2636,
      "Ġsteal": 2637,
      "urch": 2638,
      "Ġdepose": 2639,
      "ease": 2640,
      "uel": 2641,
      "Ġourselves": 2642,
      "Ġfavour": 2643,
      "cted": 2644,
      "ular": 2645,
      "ĠEarl": 2646,
      "Ġgoodly": 2647,
      "icious": 2648,
      "ETER": 2649,
      "Ġtru": 2650,
      "umerle": 2651,
      "Ġgovern": 2652,
      "Ġrough": 2653,
      "ounds": 2654,
      "Ġsaf": 2655,
      "Ġoffer": 2656,
      "Ġabro": 2657,
      "Ġhearing": 2658,
      "Ġexc": 2659,
      "Ġdesperate": 2660,
      "Ġslander": 2661,
      "ize": 2662,
      "ations": 2663,
      "Ġgreater": 2664,
      "Ġaffection": 2665,
      "Ġremain": 2666,
      "LUCENTIO": 2667,
      "Ġconscience": 2668,
      "Ġlordship": 2669,
      "uthor": 2670,
      "Ġsense": 2671,
      "Ġtemp": 2672,
      "Ġcapt": 2673,
      "eeper": 2674,
      "Ġwretched": 2675,
      "Ġdespair": 2676,
      "PSON": 2677,
      "Ġvenge": 2678,
      "Ġwisdom": 2679,
      "Ġforbid": 2680,
      "Sweet": 2681,
      "Ġignor": 2682,
      "SAMPSON": 2683,
      "Ġdeterm": 2684,
      "!--": 2685,
      ":'": 2686,
      ";'": 2687,
      "ANT": 2688,
      "BU": 2689,
      "Con": 2690,
      "Citizens": 2691,
      "Dis": 2692,
      "EX": 2693,
      "Either": 2694,
      "GON": 2695,
      "Hear": 2696,
      "Int": 2697,
      "IGON": 2698,
      "LEY": 2699,
      "ac": 2700,
      "acle": 2701,
      "bury": 2702,
      "fully": 2703,
      "gg": 2704,
      "gr": 2705,
      "ler": 2706,
      "oss": 2707,
      "ts": 2708,
      "Ġaid": 2709,
      "Ġauthor": 2710,
      "Ġmoney": 2711,
      "read": 2712,
      "rent": 2713,
      "rence": 2714,
      "Ġbones": 2715,
      "Ġbastard": 2716,
      "Ġfat": 2717,
      "Ġfru": 2718,
      "ited": 2719,
      "ony": 2720,
      "Ġdry": 2721,
      "Ġdance": 2722,
      "Ġdied": 2723,
      "Ġcap": 2724,
      "eness": 2725,
      "Ġthreat": 2726,
      "Ġocc": 2727,
      "Ġodd": 2728,
      "Ġobey": 2729,
      "Ġpal": 2730,
      "Ġoft": 2731,
      "ating": 2732,
      "lease": 2733,
      "utio": 2734,
      "Ġforward": 2735,
      "Ġforsw": 2736,
      "Ġeld": 2737,
      "Ġyourselves": 2738,
      "Ġstor": 2739,
      "Ġstain": 2740,
      "Ġsole": 2741,
      "Ġaside": 2742,
      "estion": 2743,
      "Ġdoing": 2744,
      "ament": 2745,
      "Ġseal": 2746,
      "Ġsever": 2747,
      "Ġneck": 2748,
      "ĠMaster": 2749,
      "ĠMowbray": 2750,
      "Ġmanner": 2751,
      "Ġwhether": 2752,
      "Ġconqu": 2753,
      "ĠGo": 2754,
      "Ġknowledge": 2755,
      "resh": 2756,
      "umb": 2757,
      "Ġjoin": 2758,
      "Ġenjoy": 2759,
      "Ġalive": 2760,
      "Ġbrothers": 2761,
      "Ġabove": 2762,
      "Ġearly": 2763,
      "Ġhonours": 2764,
      "Ġhonourable": 2765,
      "Ġrid": 2766,
      "ways": 2767,
      "Ġslave": 2768,
      "Ġprecious": 2769,
      "Ġdeadly": 2770,
      "Ġpleas": 2771,
      "Ġarmy": 2772,
      "then": 2773,
      "Ġleisure": 2774,
      "ewis": 2775,
      "Ġguess": 2776,
      "Ġneeds": 2777,
      "Ġdrunk": 2778,
      "Ġdreams": 2779,
      "Ġvalour": 2780,
      "Ġcruel": 2781,
      "ointed": 2782,
      "Ġjudge": 2783,
      "Ġcheeks": 2784,
      "Ġsummer": 2785,
      "Ġpiece": 2786,
      "Ġliberty": 2787,
      "ANTIGON": 2788,
      "BURY": 2789,
      "ANTIGONUS": 2790,
      "AS": 2791,
      "Bel": 2792,
      "Fa": 2793,
      "TCLIFF": 2794,
      "aves": 2795,
      "fall": 2796,
      "good": 2797,
      "grace": 2798,
      "ians": 2799,
      "ual": 2800,
      "ude": 2801,
      "under": 2802,
      "zen": 2803,
      "heart": 2804,
      "ounce": 2805,
      "Ġsort": 2806,
      "Ġmour": 2807,
      "ining": 2808,
      "Ġwon": 2809,
      "Ġwail": 2810,
      "Ġba": 2811,
      "orious": 2812,
      "Ġfive": 2813,
      "Ġfaint": 2814,
      "Ġfew": 2815,
      "Ġyea": 2816,
      "Ġyear": 2817,
      "Ġpun": 2818,
      "vel": 2819,
      "ster": 2820,
      "Ġforce": 2821,
      "Ġstone": 2822,
      "Ġrevere": 2823,
      "eaven": 2824,
      "Ġbutcher": 2825,
      "iful": 2826,
      "Ġanon": 2827,
      "Ġangry": 2828,
      "Ġours": 2829,
      "ĠCom": 2830,
      "ility": 2831,
      "Ġvie": 2832,
      "Ġblow": 2833,
      "Ġamong": 2834,
      "ieu": 2835,
      "Ġthereof": 2836,
      "Ġswift": 2837,
      "ĠLewis": 2838,
      "Ġunf": 2839,
      "Ġunk": 2840,
      "Ġgoing": 2841,
      "Ġran": 2842,
      "Ġrise": 2843,
      "Ġprov": 2844,
      "Ġproclaim": 2845,
      "ĠWhy": 2846,
      "Within": 2847,
      "Ġquiet": 2848,
      "Ġflowers": 2849,
      "Ġparty": 2850,
      "Ġothers": 2851,
      "Ġbears": 2852,
      "Ġremed": 2853,
      "Ġcontr": 2854,
      "ĠJohn": 2855,
      "Ġstruck": 2856,
      "ontent": 2857,
      "Ġaccount": 2858,
      "Ġguest": 2859,
      "Ġguard": 2860,
      "Ġkindred": 2861,
      "Ġdouble": 2862,
      "Ġchoose": 2863,
      "Ġpromised": 2864,
      "comes": 2865,
      "Ġgreet": 2866,
      "Ġwretch": 2867,
      "Ġbeggar": 2868,
      "ĠVolsces": 2869,
      "Ġencounter": 2870,
      "Ġtriumph": 2871,
      "Ġbenef": 2872,
      "Ġscarce": 2873,
      "RATCLIFF": 2874,
      "Ġabroad": 2875,
      "Ġview": 2876,
      ":--": 2877,
      "Br": 2878,
      "Bid": 2879,
      "BIS": 2880,
      "Could": 2881,
      "HOP": 2882,
      "Me": 2883,
      "Mine": 2884,
      "Master": 2885,
      "Pr": 2886,
      "While": 2887,
      "dle": 2888,
      "dge": 2889,
      "ey": 2890,
      "iled": 2891,
      "ked": 2892,
      "ny": 2893,
      "ners": 2894,
      "rous": 2895,
      "rison": 2896,
      "shall": 2897,
      "vious": 2898,
      "which": 2899,
      "wixt": 2900,
      "ze": 2901,
      "ĠAnd": 2902,
      "Ġtry": 2903,
      "head": 2904,
      "Ġsour": 2905,
      "Ġmorrow": 2906,
      "Ġmatch": 2907,
      "Ġwalk": 2908,
      "reed": 2909,
      "Ġfe": 2910,
      "Ġfie": 2911,
      "llo": 2912,
      "Ġcorn": 2913,
      "Ġcorse": 2914,
      "Ġlust": 2915,
      "Ġlist": 2916,
      "enes": 2917,
      "Ġhealth": 2918,
      "stant": 2919,
      "ang": 2920,
      "omas": 2921,
      "att": 2922,
      "ated": 2923,
      "cell": 2924,
      "ceit": 2925,
      "utland": 2926,
      "iment": 2927,
      "Ġweary": 2928,
      "riar": 2929,
      "Ġreceived": 2930,
      "ask": 2931,
      "asion": 2932,
      "Ġdeg": 2933,
      "Ġdemand": 2934,
      "roy": 2935,
      "ify": 2936,
      "Ġherself": 2937,
      "Ġspent": 2938,
      "ĠRoman": 2939,
      "ĠRutland": 2940,
      "aste": 2941,
      "Ġconvey": 2942,
      "ief": 2943,
      "arent": 2944,
      "ĠHer": 2945,
      "ppy": 2946,
      "ume": 2947,
      "ĠBi": 2948,
      "ĠBarn": 2949,
      "Ġrot": 2950,
      "ĠAnt": 2951,
      "Ġgrand": 2952,
      "Ġprovost": 2953,
      "Ġplant": 2954,
      "ĠWill": 2955,
      "Ġdism": 2956,
      "Ġenvy": 2957,
      "Ġfoes": 2958,
      "Ġroot": 2959,
      "Ġwarm": 2960,
      "Ġflower": 2961,
      "ĠTranio": 2962,
      "ighb": 2963,
      "UMIO": 2964,
      "ANLEY": 2965,
      "Ġcontin": 2966,
      "rench": 2967,
      "Ġmiser": 2968,
      "Ġlands": 2969,
      "Ġunderstand": 2970,
      "Ġcounter": 2971,
      "GRUMIO": 2972,
      "Ġmoon": 2973,
      "Ġswords": 2974,
      "Ġhumble": 2975,
      "Ġdeputy": 2976,
      "Ġcrave": 2977,
      "Ġmonth": 2978,
      "Ġjudgment": 2979,
      "Ġtyrant": 2980,
      "Unto": 2981,
      "Ġwalls": 2982,
      "Ġforgot": 2983,
      "Ġsatisfied": 2984,
      "True": 2985,
      "Ġembrace": 2986,
      "TYBALT": 2987,
      "Ġextrem": 2988,
      "Ġtrouble": 2989,
      "Ġlabour": 2990,
      "ĠMercutio": 2991,
      "Ġvengeance": 2992,
      "BISHOP": 2993,
      "'?": 2994,
      "Bl": 2995,
      "Bet": 2996,
      "Hark": 2997,
      "KEN": 2998,
      "Lo": 2999,
      "Ne": 3000,
      "Under": 3001,
      "ape": 3002,
      "apt": 3003,
      "ault": 3004,
      "his": 3005,
      "lb": 3006,
      "mit": 3007,
      "shi": 3008,
      "ted": 3009,
      "ued": 3010,
      "uff": 3011,
      "ĠNow": 3012,
      "Ġsim": 3013,
      "Ġmount": 3014,
      "Ġmethinks": 3015,
      "Ġmasters": 3016,
      "rees": 3017,
      "have": 3018,
      "Ġbig": 3019,
      "Ġbrows": 3020,
      "orthy": 3021,
      "ern": 3022,
      "Ġdust": 3023,
      "Ġdull": 3024,
      "Ġcried": 3025,
      "Ġlan": 3026,
      "Ġthro": 3027,
      "Ġhun": 3028,
      "anley": 3029,
      "Ġgir": 3030,
      "Ġghost": 3031,
      "Ġformer": 3032,
      "Ġeat": 3033,
      "Ġease": 3034,
      "Ġstab": 3035,
      "Ġstars": 3036,
      "Ġrel": 3037,
      "ident": 3038,
      "idings": 3039,
      "ash": 3040,
      "Ġdeal": 3041,
      "Ġshake": 3042,
      "Ġseven": 3043,
      "Ġspake": 3044,
      "Ġfaire": 3045,
      "ĠCatesby": 3046,
      "ilia": 3047,
      "Ġvice": 3048,
      "Ġshr": 3049,
      "Ġblest": 3050,
      "Ġblind": 3051,
      "Ġblame": 3052,
      "Ġblessed": 3053,
      "ĠHow": 3054,
      "othing": 3055,
      "allow": 3056,
      "Ġunb": 3057,
      "ortens": 3058,
      "ĠAumerle": 3059,
      "cians": 3060,
      "OMAS": 3061,
      "osed": 3062,
      "Ġhonesty": 3063,
      "Ġquite": 3064,
      "aper": 3065,
      "Ġcalls": 3066,
      "ĠMars": 3067,
      "Ġkept": 3068,
      "Ġwhite": 3069,
      "Ġimag": 3070,
      "Ġrepent": 3071,
      "ĠKeeper": 3072,
      "Ġtrial": 3073,
      "Ġsmo": 3074,
      "Ġchast": 3075,
      "Ġfellows": 3076,
      "Ġcharity": 3077,
      "Ġglass": 3078,
      "Ġbids": 3079,
      "Sirrah": 3080,
      "Ġwrongs": 3081,
      "Ġcover": 3082,
      "Ġbride": 3083,
      "Ġmoved": 3084,
      "Ġburied": 3085,
      "Ġtraitors": 3086,
      "Ġsenate": 3087,
      "Ġreasons": 3088,
      "Ġwinter": 3089,
      "ĠCorioli": 3090,
      "Ġtyran": 3091,
      "Ġevil": 3092,
      "Ġaffair": 3093,
      "Ġprophe": 3094,
      "undred": 3095,
      "BRAKEN": 3096,
      "Ġsacred": 3097,
      "ĠPlantagenet": 3098,
      "Ġprivate": 3099,
      "Ġidle": 3100,
      "Ġeasy": 3101,
      "ĠPaulina": 3102,
      "Whilst": 3103,
      "Ġleng": 3104,
      "ĠPrince": 3105,
      "Ġtruly": 3106,
      "Ġexcuse": 3107,
      "Ġfruit": 3108,
      "ĠCominius": 3109,
      "ortensio": 3110,
      "BRAKENBURY": 3111,
      "'re": 3112,
      "Am": 3113,
      "DO": 3114,
      "Des": 3115,
      "DER": 3116,
      "Edward": 3117,
      "Fear": 3118,
      "GOR": 3119,
      "Gentle": 3120,
      "Ind": 3121,
      "MIS": 3122,
      "Made": 3123,
      "Never": 3124,
      "Out": 3125,
      "Put": 3126,
      "Pardon": 3127,
      "Richard": 3128,
      "acher": 3129,
      "after": 3130,
      "con": 3131,
      "ding": 3132,
      "draw": 3133,
      "eld": 3134,
      "ead": 3135,
      "law": 3136,
      "mon": 3137,
      "nat": 3138,
      "oly": 3139,
      "ope": 3140,
      "pin": 3141,
      "pro": 3142,
      "sic": 3143,
      "take": 3144,
      "vish": 3145,
      "whe": 3146,
      "woman": 3147,
      "Ġver": 3148,
      "Ġteach": 3149,
      "Ġtaken": 3150,
      "Ġavo": 3151,
      "Ġsch": 3152,
      "inous": 3153,
      "Ġwings": 3154,
      "rehe": 3155,
      "Ġbrow": 3156,
      "Ġbird": 3157,
      "orry": 3158,
      "Ġfine": 3159,
      "erona": 3160,
      "erset": 3161,
      "ites": 3162,
      "itol": 3163,
      "Ġdri": 3164,
      "Ġdue": 3165,
      "Ġdrown": 3166,
      "Ġdwell": 3167,
      "Ġcir": 3168,
      "Ġlest": 3169,
      "Ġlau": 3170,
      "enen": 3171,
      "Ġhol": 3172,
      "Ġhundred": 3173,
      "anch": 3174,
      "omerset": 3175,
      "Ġgent": 3176,
      "Ġgrown": 3177,
      "Ġgross": 3178,
      "Ġgift": 3179,
      "Ġhair": 3180,
      "Ġweeds": 3181,
      "Ġeag": 3182,
      "Ġstones": 3183,
      "ract": 3184,
      "amp": 3185,
      "Ġallow": 3186,
      "think": 3187,
      "Ġloyal": 3188,
      "arden": 3189,
      "ardine": 3190,
      "Ġsport": 3191,
      "Ġspring": 3192,
      "Ġknight": 3193,
      "Ġconcl": 3194,
      "Ġtroth": 3195,
      "ĠOVER": 3196,
      "Ġsirrah": 3197,
      "Ġoracle": 3198,
      "Ġuns": 3199,
      "Ġunw": 3200,
      "Ġmayor": 3201,
      "Ġjoint": 3202,
      "hysic": 3203,
      "Ġhollow": 3204,
      "Ġplot": 3205,
      "ĠWe": 3206,
      "Off": 3207,
      "ursed": 3208,
      "Ġwherein": 3209,
      "Ġwherefore": 3210,
      "Ġquoth": 3211,
      "Ġquestion": 3212,
      "Ġleaves": 3213,
      "Ġtwice": 3214,
      "Ġafford": 3215,
      "Ġprevail": 3216,
      "Ġclaim": 3217,
      "Ġplead": 3218,
      "there": 3219,
      "Ġtongues": 3220,
      "Ġentertain": 3221,
      "Ġtrem": 3222,
      "Ġimprison": 3223,
      "Ġbright": 3224,
      "place": 3225,
      "Ġchurch": 3226,
      "Ġwanton": 3227,
      "Ġinstrum": 3228,
      "Ġrude": 3229,
      "ealous": 3230,
      "unts": 3231,
      "Ġtempt": 3232,
      "Ġdeserve": 3233,
      "GREGOR": 3234,
      "Ġchoice": 3235,
      "TRESS": 3236,
      "ĠCapitol": 3237,
      "ĠThomas": 3238,
      "Ġminister": 3239,
      "Ġdelight": 3240,
      "Ġabsence": 3241,
      "Ġstop": 3242,
      "Ġacqu": 3243,
      "Ġmalice": 3244,
      "Ġtrumpets": 3245,
      "Ġfiery": 3246,
      "Ġsafety": 3247,
      "Faith": 3248,
      "ĠBarnardine": 3249,
      "DONE": 3250,
      "DERBY": 3251,
      "Indeed": 3252,
      "MISTRESS": 3253,
      "enenius": 3254,
      "ĠOVERDONE": 3255,
      "GREGORY": 3256,
      "?'": 3257,
      "Ad": 3258,
      "CH": 3259,
      "Ex": 3260,
      "FORD": 3261,
      "MON": 3262,
      "Methinks": 3263,
      "OX": 3264,
      "Once": 3265,
      "Poor": 3266,
      "RO": 3267,
      "RICH": 3268,
      "SOM": 3269,
      "Tut": 3270,
      "Turn": 3271,
      "VAL": 3272,
      "cha": 3273,
      "den": 3274,
      "more": 3275,
      "mion": 3276,
      "ping": 3277,
      "pet": 3278,
      "port": 3279,
      "roth": 3280,
      "sing": 3281,
      "ta": 3282,
      "thi": 3283,
      "would": 3284,
      "Ġed": 3285,
      "Ġted": 3286,
      "Ġtidings": 3287,
      "Ġsits": 3288,
      "Ġwont": 3289,
      "rer": 3290,
      "haps": 3291,
      "Ġbite": 3292,
      "Ġbark": 3293,
      "orous": 3294,
      "Ġfain": 3295,
      "Ġfresh": 3296,
      "Ġcred": 3297,
      "Ġcries": 3298,
      "Ġcustom": 3299,
      "Ġnumber": 3300,
      "Ġthunder": 3301,
      "Ġobed": 3302,
      "Ġpil": 3303,
      "vell": 3304,
      "Ġgarden": 3305,
      "Ġbeha": 3306,
      "Ġbelly": 3307,
      "cend": 3308,
      "Ġincl": 3309,
      "Ġinform": 3310,
      "Ġused": 3311,
      "Ġstat": 3312,
      "Ġsteed": 3313,
      "ords": 3314,
      "rand": 3315,
      "Ġreceive": 3316,
      "Ġliest": 3317,
      "Ġdec": 3318,
      "Ġnose": 3319,
      "Ġloath": 3320,
      "Ġspe": 3321,
      "Ġfares": 3322,
      "Ġvile": 3323,
      "Ġnecess": 3324,
      "Ġneighb": 3325,
      "ERIA": 3326,
      "ERSET": 3327,
      "Ġshri": 3328,
      "ĠMusic": 3329,
      "Ġproof": 3330,
      "Ġconj": 3331,
      "ĠGrey": 3332,
      "Ġtherein": 3333,
      "ĠSic": 3334,
      "ĠSignior": 3335,
      "ĠSomerset": 3336,
      "Ġmayst": 3337,
      "Ġproper": 3338,
      "Ġdisgrace": 3339,
      "Ġfright": 3340,
      "ĠYour": 3341,
      "Ġwhole": 3342,
      "Ġalas": 3343,
      "Ġalways": 3344,
      "Ġoffend": 3345,
      "Ġofficer": 3346,
      "Ġearn": 3347,
      "Ġdesign": 3348,
      "Ġrob": 3349,
      "Wherein": 3350,
      "Ġprevent": 3351,
      "Ġperceive": 3352,
      "Ġchief": 3353,
      "Ġprayer": 3354,
      "Ġresign": 3355,
      "Ġfollows": 3356,
      "ission": 3357,
      "ector": 3358,
      "Ġsubst": 3359,
      "Ġthrust": 3360,
      "Ġbanished": 3361,
      "Ġchanged": 3362,
      "ethought": 3363,
      "Ġwoful": 3364,
      "Ġimport": 3365,
      "anca": 3366,
      "Ġdevise": 3367,
      "Ġfollowers": 3368,
      "Ġmaids": 3369,
      "Show": 3370,
      "Ġfools": 3371,
      "Ġfoolish": 3372,
      "Ġgives": 3373,
      "Ġboot": 3374,
      "Ġruin": 3375,
      "Ġcondu": 3376,
      "Ġcondition": 3377,
      "Ġdivine": 3378,
      "change": 3379,
      "Ġwhilst": 3380,
      "Ġcheek": 3381,
      "Ġcastle": 3382,
      "Ġthrive": 3383,
      "pollo": 3384,
      "Ġviolent": 3385,
      "Ġnobles": 3386,
      "Ġutter": 3387,
      "ursday": 3388,
      "Ġdeposed": 3389,
      "Ġfatal": 3390,
      "Ġremedy": 3391,
      "Ġbenefit": 3392,
      "Brother": 3393,
      "Ġaffairs": 3394,
      "MOND": 3395,
      "OXFORD": 3396,
      "RICHMOND": 3397,
      "SOMERSET": 3398,
      "VALERIA": 3399,
      "mione": 3400,
      "Ġtedious": 3401,
      "AMIL": 3402,
      "After": 3403,
      "BUS": 3404,
      "Great": 3405,
      "HY": 3406,
      "Hence": 3407,
      "LIUS": 3408,
      "MAMIL": 3409,
      "Res": 3410,
      "Sc": 3411,
      "SON": 3412,
      "Tybalt": 3413,
      "ek": 3414,
      "eous": 3415,
      "mn": 3416,
      "pr": 3417,
      "par": 3418,
      "ped": 3419,
      "rust": 3420,
      "Ġes": 3421,
      "Ġir": 3422,
      "ĠThere": 3423,
      "Ġtaste": 3424,
      "Ġaught": 3425,
      "Ġsan": 3426,
      "Ġsorry": 3427,
      "Ġmotion": 3428,
      "Ġwent": 3429,
      "Ġwives": 3430,
      "Ġbond": 3431,
      "ises": 3432,
      "Ġfury": 3433,
      "Ġfirm": 3434,
      "onounce": 3435,
      "Ġcre": 3436,
      "Ġcal": 3437,
      "Ġcarry": 3438,
      "Ġlar": 3439,
      "ene": 3440,
      "Ġnine": 3441,
      "Ġnames": 3442,
      "arch": 3443,
      "Ġpack": 3444,
      "Ġpawn": 3445,
      "Ġpaper": 3446,
      "Ġphysic": 3447,
      "othe": 3448,
      "Ġgage": 3449,
      "Ġgaz": 3450,
      "Ġbelike": 3451,
      "leep": 3452,
      "eding": 3453,
      "utes": 3454,
      "utation": 3455,
      "Ġele": 3456,
      "Ġequ": 3457,
      "rious": 3458,
      "eave": 3459,
      "this": 3460,
      "Ġanger": 3461,
      "ctise": 3462,
      "ustice": 3463,
      "Ġvan": 3464,
      "Ġvantage": 3465,
      "Ġshore": 3466,
      "antua": 3467,
      "ĠMOW": 3468,
      "ĠMenenius": 3469,
      "ĠMantua": 3470,
      "olix": 3471,
      "ĠHarry": 3472,
      "Ġkingly": 3473,
      "Ġbrook": 3474,
      "Ġsheep": 3475,
      "Ġunnat": 3476,
      "unning": 3477,
      "ĠBona": 3478,
      "ĠVerona": 3479,
      "Ġjealous": 3480,
      "Ġplague": 3481,
      "imely": 3482,
      "Ġenvious": 3483,
      "icked": 3484,
      "Ġoutward": 3485,
      "ABHOR": 3486,
      "Ġheav": 3487,
      "Ġexile": 3488,
      "Ġexcell": 3489,
      "Ġrock": 3490,
      "Ġthinks": 3491,
      "eeth": 3492,
      "ista": 3493,
      "istress": 3494,
      "Ġflight": 3495,
      "Ġbetwixt": 3496,
      "Ġaffect": 3497,
      "Ġadieu": 3498,
      "Ġprey": 3499,
      "aughters": 3500,
      "Ġperil": 3501,
      "aced": 3502,
      "ĠFriar": 3503,
      "ocks": 3504,
      "Ġwhither": 3505,
      "Ġuntil": 3506,
      "ĠJove": 3507,
      "loved": 3508,
      "Ġlean": 3509,
      "Ġaccus": 3510,
      "Ġkeeps": 3511,
      "Ġpursu": 3512,
      "Ġsmile": 3513,
      "Ġchair": 3514,
      "twixt": 3515,
      "Ġtread": 3516,
      "Ġtreacher": 3517,
      "THOMAS": 3518,
      "blic": 3519,
      "STANLEY": 3520,
      "ounty": 3521,
      "ploy": 3522,
      "Ġhumbly": 3523,
      "Ġempt": 3524,
      "Alack": 3525,
      "Ġdenied": 3526,
      "Ġborne": 3527,
      "Ġlamb": 3528,
      "Twas": 3529,
      "Ġdisposition": 3530,
      "Ġassist": 3531,
      "Ġsilver": 3532,
      "MOPS": 3533,
      "ĠThursday": 3534,
      "Ġprofess": 3535,
      "Ġdelay": 3536,
      "PETER": 3537,
      "scal": 3538,
      "Ġpractise": 3539,
      "BRAY": 3540,
      "Ġdreadful": 3541,
      "Ġhurt": 3542,
      "ĠChristian": 3543,
      "Ġshadow": 3544,
      "ĠCaius": 3545,
      "Ġcreature": 3546,
      "Death": 3547,
      "Ġignorant": 3548,
      "EXETER": 3549,
      "Ġauthority": 3550,
      "Ġpalace": 3551,
      "Ġconquer": 3552,
      "Ġpunish": 3553,
      "Ġrotten": 3554,
      "aptista": 3555,
      "Ġgirl": 3556,
      "pinion": 3557,
      "Ġschool": 3558,
      "Ġcirc": 3559,
      "Ġlaugh": 3560,
      "ĠMusician": 3561,
      "BUSHY": 3562,
      "MAMILLIUS": 3563,
      "Ġsanct": 3564,
      "ĠMOWBRAY": 3565,
      "olixenes": 3566,
      "ABHORSON": 3567,
      "MOPSA": 3568,
      "Cousin": 3569,
      "Ed": 3570,
      "Per": 3571,
      "Ret": 3572,
      "Rep": 3573,
      "SAR": 3574,
      "aff": 3575,
      "bear": 3576,
      "fl": 3577,
      "fell": 3578,
      "father": 3579,
      "gle": 3580,
      "lar": 3581,
      "look": 3582,
      "mp": 3583,
      "oot": 3584,
      "oard": 3585,
      "pic": 3586,
      "rate": 3587,
      "ĠTo": 3588,
      "Ġtort": 3589,
      "Ġsix": 3590,
      "Ġscept": 3591,
      "Ġmurderer": 3592,
      "Ġwot": 3593,
      "Ġwither": 3594,
      "Ġwicked": 3595,
      "Ġband": 3596,
      "Ġbare": 3597,
      "Ġball": 3598,
      "isho": 3599,
      "Ġfart": 3600,
      "Ġfee": 3601,
      "Ġfinger": 3602,
      "itude": 3603,
      "Ġdi": 3604,
      "Ġdin": 3605,
      "Ġdet": 3606,
      "Ġdies": 3607,
      "Ġcure": 3608,
      "Ġcup": 3609,
      "Ġcalm": 3610,
      "esy": 3611,
      "Ġlend": 3612,
      "enn": 3613,
      "Ġnaked": 3614,
      "Ġyonder": 3615,
      "Ġhid": 3616,
      "Ġowe": 3617,
      "Ġpair": 3618,
      "Ġpains": 3619,
      "Ġbecomes": 3620,
      "sequ": 3621,
      "ldom": 3622,
      "etr": 3623,
      "ourish": 3624,
      "Ġstore": 3625,
      "Ġstep": 3626,
      "Ġstud": 3627,
      "Ġstoop": 3628,
      "Ġreward": 3629,
      "Ġrenown": 3630,
      "Ġlip": 3631,
      "Ġdeare": 3632,
      "ARCH": 3633,
      "Ġshar": 3634,
      "usion": 3635,
      "Ġseas": 3636,
      "iffe": 3637,
      "Three": 3638,
      "Ġshut": 3639,
      "ĠMessenger": 3640,
      "ongs": 3641,
      "Ġamen": 3642,
      "ement": 3643,
      "outs": 3644,
      "Ġhatred": 3645,
      "Ġtrans": 3646,
      "Ġarri": 3647,
      "Myself": 3648,
      "ĠBaptista": 3649,
      "cio": 3650,
      "cian": 3651,
      "eless": 3652,
      "Ġhopes": 3653,
      "Ġdisd": 3654,
      "Ġdiss": 3655,
      "ĠPERC": 3656,
      "ĠPolixenes": 3657,
      "Without": 3658,
      "Ġdesert": 3659,
      "Ġquench": 3660,
      "HASAR": 3661,
      "Ġrash": 3662,
      "Ġwrath": 3663,
      "Ġcommend": 3664,
      "Thanks": 3665,
      "iteous": 3666,
      "Ġremains": 3667,
      "Ġcourage": 3668,
      "Ġlegs": 3669,
      "ruly": 3670,
      "Ġaccuse": 3671,
      "Ġfolly": 3672,
      "Only": 3673,
      "Ġwits": 3674,
      "Ġendure": 3675,
      "Still": 3676,
      "Ġkindness": 3677,
      "Ġneedful": 3678,
      "Ġjoys": 3679,
      "Ġhappiness": 3680,
      "Ġcares": 3681,
      "Ġsenators": 3682,
      "Ġdrawn": 3683,
      "Ġhumour": 3684,
      "Ġemploy": 3685,
      "Ġattempt": 3686,
      "Ġdiscontent": 3687,
      "Ġadvise": 3688,
      "Ġintent": 3689,
      "Ġintend": 3690,
      "itting": 3691,
      "Ġwounded": 3692,
      "Ġcurses": 3693,
      "Ġcrack": 3694,
      "Ġgreen": 3695,
      "Ġrememb": 3696,
      "Ġawake": 3697,
      "Two": 3698,
      "Ġcursed": 3699,
      "Ġsilence": 3700,
      "ĠRivers": 3701,
      "Ġdespite": 3702,
      "Ġterror": 3703,
      "Having": 3704,
      "Ġcorrupt": 3705,
      "Ġgriev": 3706,
      "Ġexpress": 3707,
      "BALTHASAR": 3708,
      "Ġbabe": 3709,
      "Ġdrop": 3710,
      "Ġclear": 3711,
      "Ġcolour": 3712,
      "Ġsighs": 3713,
      "Ġpenit": 3714,
      "Ġprinces": 3715,
      "Ġbroken": 3716,
      "Ġpublic": 3717,
      "Art": 3718,
      "ĠStanley": 3719,
      "Besides": 3720,
      "Ġdamned": 3721,
      "Into": 3722,
      "Ġthreaten": 3723,
      "Ġstorm": 3724,
      "Ġseveral": 3725,
      "hearted": 3726,
      "Ġcontrary": 3727,
      "ĠBianca": 3728,
      "Ġmiserable": 3729,
      "Ġsimple": 3730,
      "Ġthroat": 3731,
      "Ġunnatural": 3732,
      "picion": 3733,
      "ĠPERCY": 3734,
      "AEd": 3735,
      "Bear": 3736,
      "Dost": 3737,
      "Fie": 3738,
      "FOL": 3739,
      "OS": 3740,
      "Pre": 3741,
      "Post": 3742,
      "Page": 3743,
      "Sha": 3744,
      "af": 3745,
      "act": 3746,
      "aol": 3747,
      "ds": 3748,
      "der": 3749,
      "hore": 3750,
      "just": 3751,
      "lp": 3752,
      "mity": 3753,
      "oe": 3754,
      "op": 3755,
      "oke": 3756,
      "pre": 3757,
      "pass": 3758,
      "rt": 3759,
      "ub": 3760,
      "uary": 3761,
      "urious": 3762,
      "what": 3763,
      "wise": 3764,
      "yr": 3765,
      "yard": 3766,
      "yond": 3767,
      "ĠWhen": 3768,
      "ĠThey": 3769,
      "held": 3770,
      "Ġaim": 3771,
      "Ġsins": 3772,
      "Ġmile": 3773,
      "Ġwre": 3774,
      "Ġwol": 3775,
      "Ġwander": 3776,
      "rease": 3777,
      "Ġbot": 3778,
      "Ġbas": 3779,
      "ising": 3780,
      "ories": 3781,
      "Ġfeed": 3782,
      "erve": 3783,
      "erved": 3784,
      "ita": 3785,
      "Ġdur": 3786,
      "Ġdign": 3787,
      "Ġdag": 3788,
      "Ġcell": 3789,
      "Ġcens": 3790,
      "Ġcunning": 3791,
      "Ġloud": 3792,
      "ency": 3793,
      "Ġhost": 3794,
      "Ġobs": 3795,
      "Ġopinion": 3796,
      "Ġtop": 3797,
      "Ġtomb": 3798,
      "Ġpure": 3799,
      "Ġpiteous": 3800,
      "ote": 3801,
      "ane": 3802,
      "omp": 3803,
      "Ġgain": 3804,
      "Ġgate": 3805,
      "Ġbeard": 3806,
      "Ġbeloved": 3807,
      "Ġinfect": 3808,
      "ourage": 3809,
      "Ġweight": 3810,
      "Ġweigh": 3811,
      "Ġweap": 3812,
      "Ġeast": 3813,
      "rib": 3814,
      "Ġstar": 3815,
      "Ġkin": 3816,
      "Ġrepe": 3817,
      "Ġrealm": 3818,
      "Ġdew": 3819,
      "Ġdeceived": 3820,
      "uses": 3821,
      "Ġseize": 3822,
      "Ġange": 3823,
      "Ġspend": 3824,
      "Ġspare": 3825,
      "Ġfail": 3826,
      "Ġfaces": 3827,
      "ellig": 3828,
      "ĠROS": 3829,
      "ouses": 3830,
      "Ġvault": 3831,
      "Ġknave": 3832,
      "Ġshun": 3833,
      "Ġgoodness": 3834,
      "Ġmanners": 3835,
      "Ġpronounce": 3836,
      "Ġblush": 3837,
      "Ġcomest": 3838,
      "Ġcomple": 3839,
      "icular": 3840,
      "Ġamaz": 3841,
      "ieved": 3842,
      "ĠHortensio": 3843,
      "Ġtheirs": 3844,
      "Ġhereafter": 3845,
      "umble": 3846,
      "Ġround": 3847,
      "Ġjour": 3848,
      "elve": 3849,
      "Ġseeing": 3850,
      "Ġsail": 3851,
      "ĠWho": 3852,
      "ĠPeter": 3853,
      "ĠYet": 3854,
      "CAS": 3855,
      "Ġalter": 3856,
      "uchio": 3857,
      "Ġexpect": 3858,
      "Ġroom": 3859,
      "Ġflies": 3860,
      "Ġgentlewoman": 3861,
      "Ġslay": 3862,
      "Ġparts": 3863,
      "tled": 3864,
      "Ġado": 3865,
      "Ġadvers": 3866,
      "Ġwrite": 3867,
      "Ġscope": 3868,
      "Ġscene": 3869,
      "Ġperpet": 3870,
      "ĠFl": 3871,
      "ĠFrench": 3872,
      "Ġarmour": 3873,
      "ctions": 3874,
      "Ġapprehe": 3875,
      "Ġbegins": 3876,
      "Ġuntimely": 3877,
      "Ġleads": 3878,
      "ression": 3879,
      "Ġaccord": 3880,
      "Ġaccess": 3881,
      "Ġpurcha": 3882,
      "Ġpriest": 3883,
      "Ġbrain": 3884,
      "Ġjoyful": 3885,
      "Ġbodies": 3886,
      "Ġglorious": 3887,
      "orset": 3888,
      "Ġnatural": 3889,
      "Ġmisery": 3890,
      "ancy": 3891,
      "Ġhateful": 3892,
      "Ġpassage": 3893,
      "Ġundertake": 3894,
      "Ġcourtesy": 3895,
      "Ġchide": 3896,
      "NORFOL": 3897,
      "Ġgiving": 3898,
      "Ġinstant": 3899,
      "Ġdiscover": 3900,
      "Ġadvantage": 3901,
      "Ġboar": 3902,
      "Ġhanging": 3903,
      "Ġservices": 3904,
      "Ġdares": 3905,
      "Ġsometime": 3906,
      "Ġtemper": 3907,
      "Ġdeserves": 3908,
      "Ġmarket": 3909,
      "Ġgranted": 3910,
      "Comm": 3911,
      "Ġincrease": 3912,
      "Ġshortly": 3913,
      "Ġpossible": 3914,
      "Ġresolve": 3915,
      "Ġresolved": 3916,
      "Ġabsent": 3917,
      "chance": 3918,
      "Ġpraise": 3919,
      "Ġvenom": 3920,
      "ney": 3921,
      "Ġrespected": 3922,
      "Ġframe": 3923,
      "Ġprotest": 3924,
      "Ġapproach": 3925,
      "Ġcolours": 3926,
      "Ġprepared": 3927,
      "Ġgroan": 3928,
      "Ġdrums": 3929,
      "Ġinnocent": 3930,
      "DORCAS": 3931,
      "Ġsuspicion": 3932,
      "ĠLucio": 3933,
      "Ġprosperous": 3934,
      "Ġpetition": 3935,
      "Ġgovernment": 3936,
      "Ġcaptain": 3937,
      "Ġoccasion": 3938,
      "Ġsolemn": 3939,
      "Believe": 3940,
      "Ġmourn": 3941,
      "Ġdegree": 3942,
      "ĠHermione": 3943,
      "Ġspeci": 3944,
      "Ġearnest": 3945,
      "Ġexcellent": 3946,
      "Ġempty": 3947,
      "Ġsceptre": 3948,
      "ishop": 3949,
      "etruchio": 3950,
      "ĠROSS": 3951,
      "NORFOLK": 3952,
      "?--": 3953,
      "App": 3954,
      "ATH": 3955,
      "Boy": 3956,
      "Came": 3957,
      "Cons": 3958,
      "Dear": 3959,
      "Ghost": 3960,
      "Has": 3961,
      "Hast": 3962,
      "Heaven": 3963,
      "KATH": 3964,
      "Might": 3965,
      "Mark": 3966,
      "None": 3967,
      "Nothing": 3968,
      "RR": 3969,
      "Rem": 3970,
      "Roman": 3971,
      "Save": 3972,
      "Very": 3973,
      "Wilt": 3974,
      "app": 3975,
      "aily": 3976,
      "ban": 3977,
      "born": 3978,
      "do": 3979,
      "dis": 3980,
      "ex": 3981,
      "fer": 3982,
      "fret": 3983,
      "gl": 3984,
      "hor": 3985,
      "iven": 3986,
      "iate": 3987,
      "ipe": 3988,
      "my": 3989,
      "pul": 3990,
      "ron": 3991,
      "same": 3992,
      "tune": 3993,
      "val": 3994,
      "vours": 3995,
      "wife": 3996,
      "Ġer": 3997,
      "ĠWhere": 3998,
      "ĠTherefore": 3999,
      "Ġtest": 4000,
      "Ġtide": 4001,
      "Ġtable": 4002,
      "Ġteeth": 4003,
      "Ġsqu": 4004,
      "Ġmessenger": 4005,
      "ination": 4006,
      "Ġwood": 4007,
      "Ġwine": 4008,
      "reland": 4009,
      "happy": 4010,
      "Ġbud": 4011,
      "Ġbury": 4012,
      "isper": 4013,
      "Ġfig": 4014,
      "Ġfame": 4015,
      "ering": 4016,
      "itus": 4017,
      "Ġdaughters": 4018,
      "Ġdaily": 4019,
      "Ġcam": 4020,
      "Ġcease": 4021,
      "Ġled": 4022,
      "ences": 4023,
      "Ġnought": 4024,
      "Ġthorn": 4025,
      "Ġthief": 4026,
      "Ġhit": 4027,
      "Ġhunt": 4028,
      "Ġow": 4029,
      "Ġpin": 4030,
      "Ġport": 4031,
      "Ġpowers": 4032,
      "Ġpainted": 4033,
      "ĠIreland": 4034,
      "omans": 4035,
      "ature": 4036,
      "atcl": 4037,
      "Ġbew": 4038,
      "Ġbethink": 4039,
      "Ġbeyond": 4040,
      "Ġbeheld": 4041,
      "irg": 4042,
      "uted": 4043,
      "Ġmere": 4044,
      "Ġwept": 4045,
      "ills": 4046,
      "adua": 4047,
      "enture": 4048,
      "ricians": 4049,
      "Ġstol": 4050,
      "Ġstory": 4051,
      "rac": 4052,
      "Ġrej": 4053,
      "Ġrecom": 4054,
      "Ġrevol": 4055,
      "Ġlion": 4056,
      "ales": 4057,
      "aline": 4058,
      "Ġdebt": 4059,
      "Ġones": 4060,
      "ARINA": 4061,
      "Ġdoor": 4062,
      "Ġnobl": 4063,
      "andal": 4064,
      "ified": 4065,
      "Thr": 4066,
      "Those": 4067,
      "thou": 4068,
      "hant": 4069,
      "Ġspr": 4070,
      "Ġspur": 4071,
      "Ġspite": 4072,
      "ĠRos": 4073,
      "ĠRomans": 4074,
      "ĠCo": 4075,
      "ĠCan": 4076,
      "ĠCons": 4077,
      "Ġvows": 4078,
      "ĠMay": 4079,
      "Ġconc": 4080,
      "Ġamb": 4081,
      "ared": 4082,
      "ĠGood": 4083,
      "olute": 4084,
      "Ġtrade": 4085,
      "Ġbrings": 4086,
      "Ġsway": 4087,
      "Ġswell": 4088,
      "Ġswallow": 4089,
      "ument": 4090,
      "Ġunless": 4091,
      "ĠST": 4092,
      "ĠSo": 4093,
      "ĠBe": 4094,
      "ĠBl": 4095
    },
    "merges": [
      [
        "č",
        "Ċ"
      ],
      [
        "Ġ",
        "t"
      ],
      [
        "h",
        "e"
      ],
      [
        "Ġ",
        "a"
      ],
      [
        "o",
        "u"
      ],
      [
        "Ġ",
        "s"
      ],
      [
        "Ġ",
        "m"
      ],
      [
        "i",
        "n"
      ],
      [
        "Ġ",
        "w"
      ],
      [
        "r",
        "e"
      ],
      [
        "h",
        "a"
      ],
      [
        "Ġt",
        "he"
      ],
      [
        "n",
        "d"
      ],
      [
        "Ġ",
        "b"
      ],
      [
        "i",
        "s"
      ],
      [
        "o",
        "r"
      ],
      [
        "Ġ",
        "f"
      ],
      [
        "e",
        "r"
      ],
      [
        "l",
        "l"
      ],
      [
        "i",
        "t"
      ],
      [
        "o",
        "n"
      ],
      [
        "Ġ",
        "d"
      ],
      [
        "Ġ",
        "c"
      ],
      [
        "e",
        "s"
      ],
      [
        "Ġ",
        "l"
      ],
      [
        "e",
        "n"
      ],
      [
        "Ġ",
        "n"
      ],
      [
        "Ġ",
        "y"
      ],
      [
        "a",
        "r"
      ],
      [
        "Ġt",
        "h"
      ],
      [
        "Ġ",
        "h"
      ],
      [
        "Ġ",
        "o"
      ],
      [
        "Ġt",
        "o"
      ],
      [
        "Ġ",
        "p"
      ],
      [
        "Ġy",
        "ou"
      ],
      [
        "ha",
        "t"
      ],
      [
        "Ġ",
        "I"
      ],
      [
        "Ġ",
        "he"
      ],
      [
        "o",
        "t"
      ],
      [
        "v",
        "e"
      ],
      [
        "in",
        "g"
      ],
      [
        "Ġo",
        "f"
      ],
      [
        "s",
        "t"
      ],
      [
        "Ġa",
        "nd"
      ],
      [
        "o",
        "w"
      ],
      [
        "a",
        "n"
      ],
      [
        "o",
        "m"
      ],
      [
        "Ġ",
        "g"
      ],
      [
        "a",
        "t"
      ],
      [
        "Ġb",
        "e"
      ],
      [
        "s",
        "e"
      ],
      [
        "c",
        "e"
      ],
      [
        "Ġm",
        "y"
      ],
      [
        "Ġ",
        "in"
      ],
      [
        "Ġ",
        "ha"
      ],
      [
        "l",
        "e"
      ],
      [
        "a",
        "y"
      ],
      [
        "l",
        "d"
      ],
      [
        "e",
        "t"
      ],
      [
        "i",
        "r"
      ],
      [
        "e",
        "d"
      ],
      [
        "u",
        "t"
      ],
      [
        "i",
        "m"
      ],
      [
        "it",
        "h"
      ],
      [
        "'",
        "s"
      ],
      [
        "Ġm",
        "e"
      ],
      [
        "Ġn",
        "ot"
      ],
      [
        "Ġt",
        "hat"
      ],
      [
        "c",
        "h"
      ],
      [
        "g",
        "h"
      ],
      [
        "ou",
        "r"
      ],
      [
        "Ġ",
        "is"
      ],
      [
        "A",
        "nd"
      ],
      [
        "Ġ",
        "u"
      ],
      [
        "Ġf",
        "or"
      ],
      [
        "k",
        "e"
      ],
      [
        "Ġw",
        "e"
      ],
      [
        "o",
        "o"
      ],
      [
        "i",
        "ll"
      ],
      [
        "Ġ",
        "e"
      ],
      [
        "he",
        "r"
      ],
      [
        "Ġw",
        "ith"
      ],
      [
        "Ġyou",
        "r"
      ],
      [
        "Ġ",
        "it"
      ],
      [
        "a",
        "d"
      ],
      [
        "en",
        "t"
      ],
      [
        "r",
        "i"
      ],
      [
        "Ġs",
        "t"
      ],
      [
        "Ġth",
        "ou"
      ],
      [
        "Ġh",
        "is"
      ],
      [
        "'",
        "d"
      ],
      [
        "Ġ",
        "k"
      ],
      [
        "or",
        "d"
      ],
      [
        "om",
        "e"
      ],
      [
        "E",
        "N"
      ],
      [
        "gh",
        "t"
      ],
      [
        "r",
        "a"
      ],
      [
        "T",
        "he"
      ],
      [
        "Ġ",
        "re"
      ],
      [
        "I",
        "N"
      ],
      [
        "Ġh",
        "im"
      ],
      [
        "l",
        "y"
      ],
      [
        "Ġl",
        "i"
      ],
      [
        "Ġha",
        "ve"
      ],
      [
        "i",
        "d"
      ],
      [
        "a",
        "s"
      ],
      [
        "u",
        "r"
      ],
      [
        "a",
        "l"
      ],
      [
        "Ġth",
        "is"
      ],
      [
        "Ġd",
        "e"
      ],
      [
        "Ġs",
        "o"
      ],
      [
        "Ġ",
        "on"
      ],
      [
        "Ġa",
        "s"
      ],
      [
        "A",
        "R"
      ],
      [
        "r",
        "o"
      ],
      [
        "o",
        "re"
      ],
      [
        "h",
        "i"
      ],
      [
        "ou",
        "ld"
      ],
      [
        "oo",
        "d"
      ],
      [
        "c",
        "k"
      ],
      [
        "v",
        "er"
      ],
      [
        "a",
        "in"
      ],
      [
        "es",
        "t"
      ],
      [
        "es",
        "s"
      ],
      [
        "Ġth",
        "y"
      ],
      [
        "Ġs",
        "ha"
      ],
      [
        "U",
        "S"
      ],
      [
        "Ġd",
        "o"
      ],
      [
        "e",
        "a"
      ],
      [
        "Ġw",
        "ill"
      ],
      [
        "Ġn",
        "o"
      ],
      [
        "a",
        "m"
      ],
      [
        "u",
        "s"
      ],
      [
        "Ġb",
        "ut"
      ],
      [
        "g",
        "e"
      ],
      [
        "a",
        "nd"
      ],
      [
        "Ġs",
        "e"
      ],
      [
        "i",
        "f"
      ],
      [
        "I",
        "O"
      ],
      [
        "T",
        "h"
      ],
      [
        "i",
        "on"
      ],
      [
        "T",
        "o"
      ],
      [
        "Ġa",
        "ll"
      ],
      [
        "Ġs",
        "u"
      ],
      [
        "a",
        "ke"
      ],
      [
        "t",
        "h"
      ],
      [
        "e",
        "ar"
      ],
      [
        "u",
        "e"
      ],
      [
        "Ġa",
        "n"
      ],
      [
        "t",
        "er"
      ],
      [
        "Ġl",
        "o"
      ],
      [
        "ar",
        "d"
      ],
      [
        "IN",
        "G"
      ],
      [
        "ha",
        "n"
      ],
      [
        "Ġ",
        "our"
      ],
      [
        "Ġhe",
        "r"
      ],
      [
        "Ġb",
        "y"
      ],
      [
        "Ġs",
        "p"
      ],
      [
        "Ġf",
        "a"
      ],
      [
        "e",
        "ll"
      ],
      [
        "Ġ",
        "R"
      ],
      [
        "Ġsha",
        "ll"
      ],
      [
        "Ġ",
        "C"
      ],
      [
        "Ġthe",
        "e"
      ],
      [
        "r",
        "om"
      ],
      [
        "h",
        "o"
      ],
      [
        "i",
        "l"
      ],
      [
        "E",
        "S"
      ],
      [
        "c",
        "t"
      ],
      [
        "ou",
        "s"
      ],
      [
        "O",
        "R"
      ],
      [
        "u",
        "st"
      ],
      [
        "Ġ",
        "v"
      ],
      [
        "Ġn",
        "e"
      ],
      [
        "Ġa",
        "re"
      ],
      [
        "T",
        "hat"
      ],
      [
        "u",
        "l"
      ],
      [
        "Ġk",
        "n"
      ],
      [
        "i",
        "ght"
      ],
      [
        "E",
        "R"
      ],
      [
        "Ġw",
        "hat"
      ],
      [
        "Ġl",
        "ord"
      ],
      [
        "Ġs",
        "h"
      ],
      [
        "a",
        "st"
      ],
      [
        "at",
        "h"
      ],
      [
        "se",
        "l"
      ],
      [
        "Ġu",
        "p"
      ],
      [
        "ar",
        "t"
      ],
      [
        "Ġ",
        "E"
      ],
      [
        "L",
        "A"
      ],
      [
        "K",
        "ING"
      ],
      [
        "an",
        "t"
      ],
      [
        "Ġ",
        "'"
      ],
      [
        "U",
        "C"
      ],
      [
        "B",
        "ut"
      ],
      [
        "Ġ",
        "M"
      ],
      [
        "hi",
        "ch"
      ],
      [
        "r",
        "ow"
      ],
      [
        "Ġg",
        "ood"
      ],
      [
        "n",
        "t"
      ],
      [
        "on",
        "e"
      ],
      [
        "Ġm",
        "an"
      ],
      [
        "'",
        "ll"
      ],
      [
        "e",
        "nd"
      ],
      [
        "Ġp",
        "r"
      ],
      [
        "in",
        "e"
      ],
      [
        "Ġw",
        "he"
      ],
      [
        "I",
        "C"
      ],
      [
        "Ġa",
        "t"
      ],
      [
        "Ġb",
        "l"
      ],
      [
        "Ġc",
        "om"
      ],
      [
        "Ġf",
        "rom"
      ],
      [
        "W",
        "hat"
      ],
      [
        "Ġc",
        "on"
      ],
      [
        "v",
        "en"
      ],
      [
        "i",
        "c"
      ],
      [
        "E",
        "T"
      ],
      [
        "r",
        "y"
      ],
      [
        "on",
        "g"
      ],
      [
        "ot",
        "her"
      ],
      [
        "i",
        "ve"
      ],
      [
        "Ġa",
        "m"
      ],
      [
        "o",
        "d"
      ],
      [
        "b",
        "le"
      ],
      [
        "F",
        "or"
      ],
      [
        "i",
        "e"
      ],
      [
        "Ġthe",
        "m"
      ],
      [
        "a",
        "re"
      ],
      [
        "Ġ",
        "G"
      ],
      [
        "I",
        "US"
      ],
      [
        "e",
        "m"
      ],
      [
        "ou",
        "t"
      ],
      [
        "AR",
        "D"
      ],
      [
        "o",
        "l"
      ],
      [
        "Ġ",
        "H"
      ],
      [
        "Ġm",
        "ore"
      ],
      [
        "Ġ",
        "hat"
      ],
      [
        "o",
        "st"
      ],
      [
        "Ġw",
        "as"
      ],
      [
        "ot",
        "h"
      ],
      [
        "Ġw",
        "ould"
      ],
      [
        "a",
        "u"
      ],
      [
        "Ġn",
        "ow"
      ],
      [
        "Ġc",
        "an"
      ],
      [
        "er",
        "s"
      ],
      [
        "o",
        "nd"
      ],
      [
        "Ġthe",
        "ir"
      ],
      [
        "sel",
        "f"
      ],
      [
        "Ġthe",
        "re"
      ],
      [
        "Ġk",
        "ing"
      ],
      [
        "Ġkn",
        "ow"
      ],
      [
        "e",
        "p"
      ],
      [
        "Ġ",
        "if"
      ],
      [
        "in",
        "d"
      ],
      [
        "Ġt",
        "r"
      ],
      [
        "Ġ",
        "O"
      ],
      [
        "Ġb",
        "r"
      ],
      [
        "Ġs",
        "he"
      ],
      [
        "f",
        "e"
      ],
      [
        "Ġlo",
        "ve"
      ],
      [
        "Ġu",
        "s"
      ],
      [
        "Ġs",
        "w"
      ],
      [
        "Ġhe",
        "re"
      ],
      [
        "Ġs",
        "ay"
      ],
      [
        "Ġthe",
        "y"
      ],
      [
        "-",
        "-"
      ],
      [
        "L",
        "O"
      ],
      [
        "Ġt",
        "han"
      ],
      [
        "re",
        "s"
      ],
      [
        "p",
        "p"
      ],
      [
        "Ġs",
        "ir"
      ],
      [
        "u",
        "m"
      ],
      [
        "a",
        "ll"
      ],
      [
        "Ġ",
        "L"
      ],
      [
        "Ġ",
        "or"
      ],
      [
        "Ġa",
        "r"
      ],
      [
        "M",
        "y"
      ],
      [
        "Ġthe",
        "n"
      ],
      [
        "Ġl",
        "et"
      ],
      [
        "Ġu",
        "n"
      ],
      [
        "q",
        "u"
      ],
      [
        "Ġ",
        "S"
      ],
      [
        "u",
        "n"
      ],
      [
        "Ġ",
        "B"
      ],
      [
        "Ġg",
        "o"
      ],
      [
        "K",
        "E"
      ],
      [
        "at",
        "her"
      ],
      [
        "L",
        "I"
      ],
      [
        "H",
        "e"
      ],
      [
        "Ġ",
        "V"
      ],
      [
        "at",
        "e"
      ],
      [
        "u",
        "re"
      ],
      [
        "Ġw",
        "or"
      ],
      [
        "A",
        "s"
      ],
      [
        "is",
        "h"
      ],
      [
        "i",
        "g"
      ],
      [
        "Ġ",
        "r"
      ],
      [
        "in",
        "k"
      ],
      [
        "Ġm",
        "ay"
      ],
      [
        "or",
        "t"
      ],
      [
        "f",
        "ore"
      ],
      [
        "Ġ",
        "A"
      ],
      [
        "v",
        "es"
      ],
      [
        "am",
        "e"
      ],
      [
        "W",
        "he"
      ],
      [
        "Ġ",
        "j"
      ],
      [
        "Ġg",
        "ra"
      ],
      [
        "ir",
        "st"
      ],
      [
        "oo",
        "k"
      ],
      [
        "Ġhat",
        "h"
      ],
      [
        "h",
        "y"
      ],
      [
        "Ġwe",
        "ll"
      ],
      [
        "Ġon",
        "e"
      ],
      [
        "Ġc",
        "ome"
      ],
      [
        "c",
        "i"
      ],
      [
        "g",
        "ain"
      ],
      [
        "O",
        "M"
      ],
      [
        "a",
        "k"
      ],
      [
        "e",
        "l"
      ],
      [
        "ou",
        "nd"
      ],
      [
        "Ġm",
        "ake"
      ],
      [
        "Ġm",
        "ust"
      ],
      [
        "re",
        "at"
      ],
      [
        "Y",
        "ou"
      ],
      [
        "Ġh",
        "o"
      ],
      [
        "Ġwe",
        "re"
      ],
      [
        "Ġp",
        "ro"
      ],
      [
        "it",
        "y"
      ],
      [
        "ea",
        "k"
      ],
      [
        "Ġse",
        "e"
      ],
      [
        "Ġli",
        "ke"
      ],
      [
        "p",
        "e"
      ],
      [
        "Ġha",
        "d"
      ],
      [
        "Ġs",
        "a"
      ],
      [
        "Ġp",
        "l"
      ],
      [
        "Ġ",
        "W"
      ],
      [
        "Ġde",
        "ath"
      ],
      [
        "Ġsh",
        "ould"
      ],
      [
        "i",
        "ce"
      ],
      [
        "im",
        "e"
      ],
      [
        "n",
        "g"
      ],
      [
        "Ġup",
        "on"
      ],
      [
        "Ġm",
        "ad"
      ],
      [
        "w",
        "ard"
      ],
      [
        "Ġto",
        "o"
      ],
      [
        "IC",
        "H"
      ],
      [
        "D",
        "U"
      ],
      [
        "O",
        "L"
      ],
      [
        "en",
        "ce"
      ],
      [
        "DU",
        "KE"
      ],
      [
        "E",
        "O"
      ],
      [
        "m",
        "an"
      ],
      [
        "Ġd",
        "is"
      ],
      [
        "Ġ",
        "en"
      ],
      [
        "Ġd",
        "id"
      ],
      [
        "Ġf",
        "ri"
      ],
      [
        "o",
        "se"
      ],
      [
        "f",
        "ul"
      ],
      [
        "n",
        "ce"
      ],
      [
        "Ġ",
        "P"
      ],
      [
        "ICH",
        "ARD"
      ],
      [
        "T",
        "IO"
      ],
      [
        "ow",
        "n"
      ],
      [
        "i",
        "ck"
      ],
      [
        "Ġ",
        "out"
      ],
      [
        "e",
        "re"
      ],
      [
        "Ġsp",
        "eak"
      ],
      [
        "Ġw",
        "hich"
      ],
      [
        "Ġf",
        "ather"
      ],
      [
        "Ġp",
        "o"
      ],
      [
        "Ġhe",
        "art"
      ],
      [
        "Ġ",
        "Y"
      ],
      [
        "Ġa",
        "gain"
      ],
      [
        "Ġy",
        "et"
      ],
      [
        "Ġha",
        "nd"
      ],
      [
        "ent",
        "le"
      ],
      [
        "Ġh",
        "on"
      ],
      [
        "p",
        "t"
      ],
      [
        "Ġw",
        "ho"
      ],
      [
        "W",
        "ith"
      ],
      [
        "A",
        "B"
      ],
      [
        "W",
        "hich"
      ],
      [
        "i",
        "es"
      ],
      [
        "C",
        "A"
      ],
      [
        "e",
        "c"
      ],
      [
        "F",
        "irst"
      ],
      [
        "Ġa",
        "l"
      ],
      [
        "Ġs",
        "ome"
      ],
      [
        "in",
        "ce"
      ],
      [
        "or",
        "n"
      ],
      [
        "Ġwhe",
        "n"
      ],
      [
        "I",
        "f"
      ],
      [
        "u",
        "ch"
      ],
      [
        "ver",
        "y"
      ],
      [
        "Ġbl",
        "ood"
      ],
      [
        "I",
        "n"
      ],
      [
        "Ġhe",
        "a"
      ],
      [
        "U",
        "E"
      ],
      [
        "IN",
        "C"
      ],
      [
        "Ġbr",
        "other"
      ],
      [
        "o",
        "y"
      ],
      [
        "Ġh",
        "ow"
      ],
      [
        "Th",
        "ou"
      ],
      [
        "Ġof",
        "f"
      ],
      [
        "an",
        "ce"
      ],
      [
        "a",
        "ck"
      ],
      [
        "i",
        "re"
      ],
      [
        "ĠI",
        "I"
      ],
      [
        "ĠR",
        "ICHARD"
      ],
      [
        "ig",
        "n"
      ],
      [
        "T",
        "ER"
      ],
      [
        "Ġt",
        "ime"
      ],
      [
        "ha",
        "r"
      ],
      [
        "'",
        "t"
      ],
      [
        "w",
        "n"
      ],
      [
        "Ġm",
        "ine"
      ],
      [
        "Ġs",
        "on"
      ],
      [
        "G",
        "LO"
      ],
      [
        "ES",
        "TER"
      ],
      [
        "UC",
        "ESTER"
      ],
      [
        "GLO",
        "UCESTER"
      ],
      [
        "Ġa",
        "b"
      ],
      [
        "Ġhe",
        "ar"
      ],
      [
        "Ġf",
        "o"
      ],
      [
        "it",
        "her"
      ],
      [
        "O",
        "f"
      ],
      [
        "Ġm",
        "ar"
      ],
      [
        "Ġfri",
        "end"
      ],
      [
        "Ġe",
        "ar"
      ],
      [
        "Ġsu",
        "ch"
      ],
      [
        "n",
        "ess"
      ],
      [
        "Ġd",
        "ay"
      ],
      [
        "R",
        "Y"
      ],
      [
        "S",
        "o"
      ],
      [
        "Ġthe",
        "se"
      ],
      [
        "Ġli",
        "fe"
      ],
      [
        "ur",
        "se"
      ],
      [
        "E",
        "L"
      ],
      [
        "is",
        "e"
      ],
      [
        "Ġe",
        "x"
      ],
      [
        "Ġd",
        "es"
      ],
      [
        "Q",
        "UE"
      ],
      [
        "LA",
        "N"
      ],
      [
        "QUE",
        "EN"
      ],
      [
        "I",
        "S"
      ],
      [
        "t",
        "her"
      ],
      [
        "ou",
        "l"
      ],
      [
        "Ġg",
        "ive"
      ],
      [
        "v",
        "ing"
      ],
      [
        "Ġ",
        "ro"
      ],
      [
        "ĠO",
        "F"
      ],
      [
        "EN",
        "TIO"
      ],
      [
        "Th",
        "is"
      ],
      [
        "N",
        "o"
      ],
      [
        "a",
        "g"
      ],
      [
        "Ġw",
        "ord"
      ],
      [
        "Ġth",
        "ink"
      ],
      [
        "Ġe",
        "y"
      ],
      [
        "ad",
        "y"
      ],
      [
        "B",
        "R"
      ],
      [
        "Ġl",
        "ook"
      ],
      [
        "a",
        "ge"
      ],
      [
        "e",
        "f"
      ],
      [
        "e",
        "et"
      ],
      [
        "n",
        "ot"
      ],
      [
        "Ġhon",
        "our"
      ],
      [
        "Ġwhe",
        "re"
      ],
      [
        "Ġt",
        "ake"
      ],
      [
        "ing",
        "s"
      ],
      [
        "N",
        "T"
      ],
      [
        "row",
        "n"
      ],
      [
        "A",
        "U"
      ],
      [
        "W",
        "hy"
      ],
      [
        "Ġ",
        "ri"
      ],
      [
        "EN",
        "RY"
      ],
      [
        "Ġ",
        "qu"
      ],
      [
        "Ġt",
        "ell"
      ],
      [
        "Ġw",
        "ar"
      ],
      [
        "is",
        "t"
      ],
      [
        "Ġf",
        "l"
      ],
      [
        "a",
        "ve"
      ],
      [
        "H",
        "ow"
      ],
      [
        "Ġf",
        "ear"
      ],
      [
        "Ġar",
        "t"
      ],
      [
        "w",
        "ay"
      ],
      [
        "Ġm",
        "uch"
      ],
      [
        "ĠV",
        "INC"
      ],
      [
        "ĠVINC",
        "ENTIO"
      ],
      [
        "a",
        "se"
      ],
      [
        "Ġm",
        "ost"
      ],
      [
        "ur",
        "n"
      ],
      [
        "Ġl",
        "ea"
      ],
      [
        "Ġg",
        "entle"
      ],
      [
        "Ġs",
        "l"
      ],
      [
        "ĠR",
        "ome"
      ],
      [
        "Ġmad",
        "e"
      ],
      [
        "OR",
        "K"
      ],
      [
        "ĠG",
        "od"
      ],
      [
        "i",
        "z"
      ],
      [
        "Ġb",
        "re"
      ],
      [
        "Whe",
        "re"
      ],
      [
        "W",
        "e"
      ],
      [
        "IN",
        "IUS"
      ],
      [
        "Ġm",
        "en"
      ],
      [
        "Ġc",
        "ou"
      ],
      [
        "d",
        "e"
      ],
      [
        "Ġ",
        "T"
      ],
      [
        "c",
        "c"
      ],
      [
        "u",
        "ke"
      ],
      [
        "ou",
        "gh"
      ],
      [
        "ow",
        "er"
      ],
      [
        "Ġbe",
        "t"
      ],
      [
        "t",
        "is"
      ],
      [
        "Ġha",
        "st"
      ],
      [
        "B",
        "e"
      ],
      [
        "e",
        "e"
      ],
      [
        "at",
        "ion"
      ],
      [
        "D",
        "W"
      ],
      [
        "DW",
        "ARD"
      ],
      [
        "i",
        "gh"
      ],
      [
        "q",
        "ue"
      ],
      [
        "Ġp",
        "art"
      ],
      [
        "Ġg",
        "reat"
      ],
      [
        "I",
        "s"
      ],
      [
        "b",
        "er"
      ],
      [
        "t",
        "le"
      ],
      [
        "or",
        "row"
      ],
      [
        "Ġfa",
        "ir"
      ],
      [
        "Ġhea",
        "ven"
      ],
      [
        "p",
        "le"
      ],
      [
        "Ġt",
        "w"
      ],
      [
        "Ġa",
        "f"
      ],
      [
        "o",
        "ld"
      ],
      [
        "N",
        "ow"
      ],
      [
        "ve",
        "d"
      ],
      [
        "Ġne",
        "w"
      ],
      [
        "W",
        "ho"
      ],
      [
        "Ġtr",
        "ue"
      ],
      [
        "Y",
        "our"
      ],
      [
        "s",
        "s"
      ],
      [
        "ear",
        "s"
      ],
      [
        "O",
        "r"
      ],
      [
        "Ġst",
        "and"
      ],
      [
        "Ġno",
        "ble"
      ],
      [
        "a",
        "p"
      ],
      [
        "Ġne",
        "ver"
      ],
      [
        "Ġcan",
        "not"
      ],
      [
        "a",
        "w"
      ],
      [
        "H",
        "A"
      ],
      [
        "U",
        "M"
      ],
      [
        "m",
        "ent"
      ],
      [
        "Ġan",
        "y"
      ],
      [
        "d",
        "ward"
      ],
      [
        "Ġa",
        "d"
      ],
      [
        "Ġp",
        "re"
      ],
      [
        "id",
        "e"
      ],
      [
        "M",
        "EN"
      ],
      [
        "R",
        "OM"
      ],
      [
        "ROM",
        "EO"
      ],
      [
        "re",
        "e"
      ],
      [
        "Ġbe",
        "en"
      ],
      [
        "EN",
        "IUS"
      ],
      [
        "MEN",
        "ENIUS"
      ],
      [
        "Ġc",
        "l"
      ],
      [
        "ĠC",
        "l"
      ],
      [
        "Ġ",
        "ra"
      ],
      [
        "Ġw",
        "r"
      ],
      [
        "Ġcom",
        "m"
      ],
      [
        "au",
        "ght"
      ],
      [
        ",",
        "--"
      ],
      [
        "A",
        "N"
      ],
      [
        "Ġ",
        "D"
      ],
      [
        "Ġ",
        "que"
      ],
      [
        "The",
        "re"
      ],
      [
        "h",
        "ing"
      ],
      [
        "Ġs",
        "oul"
      ],
      [
        "Ġd",
        "oth"
      ],
      [
        "Ġque",
        "en"
      ],
      [
        "l",
        "i"
      ],
      [
        "Ġs",
        "c"
      ],
      [
        "Ġc",
        "all"
      ],
      [
        "Ġo",
        "wn"
      ],
      [
        "I",
        "t"
      ],
      [
        "g",
        "er"
      ],
      [
        "i",
        "o"
      ],
      [
        "Ġp",
        "er"
      ],
      [
        "Ġhe",
        "ad"
      ],
      [
        "Ġde",
        "ad"
      ],
      [
        "Ġn",
        "ame"
      ],
      [
        "u",
        "ll"
      ],
      [
        "Ġo",
        "ther"
      ],
      [
        "Ġsw",
        "eet"
      ],
      [
        "ou",
        "se"
      ],
      [
        "er",
        "v"
      ],
      [
        "Ġd",
        "one"
      ],
      [
        "Ġc",
        "hi"
      ],
      [
        "Ġn",
        "ight"
      ],
      [
        "a",
        "ce"
      ],
      [
        "Ġp",
        "le"
      ],
      [
        "Ġp",
        "res"
      ],
      [
        "Ġbe",
        "ar"
      ],
      [
        "IO",
        "LAN"
      ],
      [
        "OR",
        "IOLAN"
      ],
      [
        "ORIOLAN",
        "US"
      ],
      [
        "C",
        "ome"
      ],
      [
        "C",
        "ORIOLANUS"
      ],
      [
        "S",
        "ec"
      ],
      [
        "ĠL",
        "ord"
      ],
      [
        "Whe",
        "n"
      ],
      [
        "Sec",
        "ond"
      ],
      [
        "Ġw",
        "ay"
      ],
      [
        "Ġn",
        "or"
      ],
      [
        "ĠE",
        "dward"
      ],
      [
        "au",
        "se"
      ],
      [
        "B",
        "y"
      ],
      [
        "Ġ",
        "F"
      ],
      [
        "if",
        "e"
      ],
      [
        "A",
        "y"
      ],
      [
        "p",
        "er"
      ],
      [
        "ain",
        "t"
      ],
      [
        "T",
        "han"
      ],
      [
        "l",
        "ess"
      ],
      [
        "it",
        "e"
      ],
      [
        "il",
        "t"
      ],
      [
        "Ġar",
        "m"
      ],
      [
        "Ġgra",
        "ce"
      ],
      [
        "o",
        "ck"
      ],
      [
        "Ġb",
        "oth"
      ],
      [
        "Ġbe",
        "fore"
      ],
      [
        "ĠE",
        "DWARD"
      ],
      [
        "Ġwor",
        "ld"
      ],
      [
        "as",
        "s"
      ],
      [
        "Ġpr",
        "ay"
      ],
      [
        "Ġ",
        "very"
      ],
      [
        "it",
        "iz"
      ],
      [
        "an",
        "s"
      ],
      [
        "itiz",
        "en"
      ],
      [
        "a",
        "b"
      ],
      [
        "t",
        "o"
      ],
      [
        "u",
        "ck"
      ],
      [
        "Ġd",
        "own"
      ],
      [
        "The",
        "n"
      ],
      [
        "ct",
        "ion"
      ],
      [
        "ĠM",
        "ar"
      ],
      [
        "N",
        "or"
      ],
      [
        "Ġa",
        "pp"
      ],
      [
        "ast",
        "er"
      ],
      [
        "Ġm",
        "other"
      ],
      [
        "ur",
        "d"
      ],
      [
        "ĠII",
        "I"
      ],
      [
        "a",
        "ble"
      ],
      [
        "w",
        "ick"
      ],
      [
        "Ġ",
        "ke"
      ],
      [
        "Ġmy",
        "self"
      ],
      [
        "t",
        "he"
      ],
      [
        "Ġm",
        "a"
      ],
      [
        "Ġre",
        "m"
      ],
      [
        "l",
        "and"
      ],
      [
        "Ġli",
        "ve"
      ],
      [
        "Ġey",
        "es"
      ],
      [
        "f",
        "ord"
      ],
      [
        "ar",
        "wick"
      ],
      [
        "Ġbe",
        "g"
      ],
      [
        "Ġfriend",
        "s"
      ],
      [
        "Ġchi",
        "ld"
      ],
      [
        "l",
        "es"
      ],
      [
        "Ġw",
        "h"
      ],
      [
        "Ġth",
        "us"
      ],
      [
        "Ġu",
        "nt"
      ],
      [
        "Ġcon",
        "t"
      ],
      [
        "Ġlea",
        "ve"
      ],
      [
        "L",
        "UC"
      ],
      [
        "m",
        "e"
      ],
      [
        "Ġ",
        "im"
      ],
      [
        "ea",
        "ce"
      ],
      [
        "ĠY",
        "ORK"
      ],
      [
        "Ġd",
        "ie"
      ],
      [
        "Ġbe",
        "ing"
      ],
      [
        "AB",
        "EL"
      ],
      [
        "IS",
        "ABEL"
      ],
      [
        "ISABEL",
        "LA"
      ],
      [
        "Ġ",
        "J"
      ],
      [
        "Ġpo",
        "or"
      ],
      [
        "p",
        "s"
      ],
      [
        "Ġst",
        "r"
      ],
      [
        "J",
        "U"
      ],
      [
        "L",
        "EO"
      ],
      [
        "l",
        "o"
      ],
      [
        "Ġl",
        "ong"
      ],
      [
        "ow",
        "s"
      ],
      [
        "Ġe",
        "ver"
      ],
      [
        "Ġcon",
        "s"
      ],
      [
        "LI",
        "ET"
      ],
      [
        "ĠW",
        "arwick"
      ],
      [
        "NT",
        "ES"
      ],
      [
        "aught",
        "er"
      ],
      [
        "JU",
        "LIET"
      ],
      [
        "LEO",
        "NTES"
      ],
      [
        "L",
        "et"
      ],
      [
        "Ġa",
        "way"
      ],
      [
        "Ġc",
        "rown"
      ],
      [
        "le",
        "d"
      ],
      [
        "Ġthou",
        "ght"
      ],
      [
        "Ġman",
        "y"
      ],
      [
        "k",
        "s"
      ],
      [
        "ou",
        "d"
      ],
      [
        "D",
        "Y"
      ],
      [
        "f",
        "or"
      ],
      [
        "Ġm",
        "ight"
      ],
      [
        "ha",
        "ll"
      ],
      [
        "Ġp",
        "e"
      ],
      [
        "Ġre",
        "p"
      ],
      [
        "LA",
        "DY"
      ],
      [
        "C",
        "E"
      ],
      [
        "V",
        "OL"
      ],
      [
        "Ġw",
        "om"
      ],
      [
        "EN",
        "CE"
      ],
      [
        "Ġli",
        "e"
      ],
      [
        "f",
        "f"
      ],
      [
        "is",
        "on"
      ],
      [
        "er",
        "c"
      ],
      [
        "Ġc",
        "our"
      ],
      [
        "Ġst",
        "ay"
      ],
      [
        "S",
        "he"
      ],
      [
        "s",
        "w"
      ],
      [
        "Ġs",
        "et"
      ],
      [
        "re",
        "d"
      ],
      [
        "at",
        "ter"
      ],
      [
        "Ġpr",
        "ince"
      ],
      [
        "S",
        "IC"
      ],
      [
        "w",
        "ell"
      ],
      [
        "Ġw",
        "ife"
      ],
      [
        "nd",
        "er"
      ],
      [
        "or",
        "s"
      ],
      [
        "Ġre",
        "st"
      ],
      [
        "har",
        "d"
      ],
      [
        "SIC",
        "INIUS"
      ],
      [
        "r",
        "ant"
      ],
      [
        "Ġt",
        "ong"
      ],
      [
        "Ġo",
        "ld"
      ],
      [
        "H",
        "is"
      ],
      [
        "Ġl",
        "e"
      ],
      [
        "Ġg",
        "one"
      ],
      [
        "Ġha",
        "r"
      ],
      [
        "c",
        "ome"
      ],
      [
        "ou",
        "ght"
      ],
      [
        "Ġlord",
        "s"
      ],
      [
        "Ġcom",
        "es"
      ],
      [
        "E",
        "Y"
      ],
      [
        "i",
        "ous"
      ],
      [
        "it",
        "tle"
      ],
      [
        "on",
        "t"
      ],
      [
        "at",
        "ch"
      ],
      [
        "c",
        "he"
      ],
      [
        "Ġg",
        "ri"
      ],
      [
        "T",
        "is"
      ],
      [
        "in",
        "t"
      ],
      [
        "Ġth",
        "ose"
      ],
      [
        "Ġh",
        "ouse"
      ],
      [
        "Ġre",
        "s"
      ],
      [
        "ul",
        "t"
      ],
      [
        "res",
        "s"
      ],
      [
        "ak",
        "es"
      ],
      [
        "LUC",
        "IO"
      ],
      [
        "i",
        "er"
      ],
      [
        "o",
        "s"
      ],
      [
        "r",
        "u"
      ],
      [
        "Ġa",
        "cc"
      ],
      [
        "or",
        "k"
      ],
      [
        "ĠI",
        "V"
      ],
      [
        "Ġnot",
        "hing"
      ],
      [
        "ic",
        "hard"
      ],
      [
        "Ġagain",
        "st"
      ],
      [
        "N",
        "ot"
      ],
      [
        "c",
        "es"
      ],
      [
        "re",
        "t"
      ],
      [
        "Ġfo",
        "ll"
      ],
      [
        "Ġnew",
        "s"
      ],
      [
        "c",
        "l"
      ],
      [
        "Ġbet",
        "ter"
      ],
      [
        "Ġ",
        "K"
      ],
      [
        "Ġt",
        "ri"
      ],
      [
        "is",
        "s"
      ],
      [
        "ie",
        "ld"
      ],
      [
        "Ġke",
        "ep"
      ],
      [
        "O",
        "n"
      ],
      [
        "i",
        "ed"
      ],
      [
        "u",
        "d"
      ],
      [
        "Ġh",
        "our"
      ],
      [
        "ard",
        "on"
      ],
      [
        "ci",
        "ous"
      ],
      [
        "P",
        "ro"
      ],
      [
        "Z",
        "AB"
      ],
      [
        "Ġl",
        "ittle"
      ],
      [
        "Ġp",
        "ur"
      ],
      [
        "Ġp",
        "ower"
      ],
      [
        "Ġhe",
        "nce"
      ],
      [
        "Ġhim",
        "self"
      ],
      [
        "ĠE",
        "LI"
      ],
      [
        "ET",
        "H"
      ],
      [
        "un",
        "e"
      ],
      [
        "ZAB",
        "ETH"
      ],
      [
        "ĠELI",
        "ZABETH"
      ],
      [
        "e",
        "w"
      ],
      [
        "i",
        "us"
      ],
      [
        "Ġyou",
        "ng"
      ],
      [
        "N",
        "ay"
      ],
      [
        "W",
        "ell"
      ],
      [
        "f",
        "t"
      ],
      [
        "Ġ",
        "ent"
      ],
      [
        "Ġp",
        "ut"
      ],
      [
        "Ġp",
        "eace"
      ],
      [
        "Ġg",
        "u"
      ],
      [
        "Ġst",
        "ill"
      ],
      [
        "Ġfa",
        "ce"
      ],
      [
        "ĠY",
        "ork"
      ],
      [
        "G",
        "o"
      ],
      [
        "H",
        "ENRY"
      ],
      [
        "e",
        "ct"
      ],
      [
        "y",
        "al"
      ],
      [
        "in",
        "s"
      ],
      [
        "Ġw",
        "it"
      ],
      [
        "Ġl",
        "ady"
      ],
      [
        "en",
        "ry"
      ],
      [
        "se",
        "d"
      ],
      [
        "N",
        "E"
      ],
      [
        "o",
        "ve"
      ],
      [
        "o",
        "ple"
      ],
      [
        "Ġs",
        "m"
      ],
      [
        "Ġh",
        "igh"
      ],
      [
        "ĠRome",
        "o"
      ],
      [
        "Ġtong",
        "ue"
      ],
      [
        "Ġs",
        "le"
      ],
      [
        "Ġc",
        "ha"
      ],
      [
        "Ġc",
        "ould"
      ],
      [
        "ar",
        "k"
      ],
      [
        "Ġe",
        "nd"
      ],
      [
        "as",
        "on"
      ],
      [
        "Th",
        "y"
      ],
      [
        "G",
        "E"
      ],
      [
        "W",
        "AR"
      ],
      [
        "W",
        "IC"
      ],
      [
        "Ġt",
        "ra"
      ],
      [
        "Ġd",
        "re"
      ],
      [
        "Ġth",
        "ing"
      ],
      [
        "Ġde",
        "ar"
      ],
      [
        "Ġsu",
        "b"
      ],
      [
        "ĠV",
        "I"
      ],
      [
        "Ġcou",
        "nt"
      ],
      [
        "WAR",
        "WIC"
      ],
      [
        "WARWIC",
        "K"
      ],
      [
        "S",
        "t"
      ],
      [
        "U",
        "T"
      ],
      [
        "Ġb",
        "est"
      ],
      [
        "er",
        "t"
      ],
      [
        "ĠH",
        "ENRY"
      ],
      [
        "Ġear",
        "th"
      ],
      [
        "H",
        "ave"
      ],
      [
        "N",
        "urse"
      ],
      [
        "R",
        "I"
      ],
      [
        "i",
        "le"
      ],
      [
        "t",
        "y"
      ],
      [
        "re",
        "n"
      ],
      [
        "ĠC",
        "itizen"
      ],
      [
        "Ġcom",
        "p"
      ],
      [
        "He",
        "re"
      ],
      [
        "Ġho",
        "pe"
      ],
      [
        "Ġword",
        "s"
      ],
      [
        "r",
        "ay"
      ],
      [
        "Ġt",
        "ill"
      ],
      [
        "Ġb",
        "ack"
      ],
      [
        "Ġth",
        "r"
      ],
      [
        "Ġhe",
        "l"
      ],
      [
        "Ġk",
        "ind"
      ],
      [
        "UC",
        "H"
      ],
      [
        "ĠH",
        "enry"
      ],
      [
        "HA",
        "M"
      ],
      [
        "L",
        "ET"
      ],
      [
        "P",
        "U"
      ],
      [
        "a",
        "le"
      ],
      [
        "Ġd",
        "uke"
      ],
      [
        "Ġp",
        "ri"
      ],
      [
        "ve",
        "re"
      ],
      [
        "hi",
        "le"
      ],
      [
        "ĠR",
        "ichard"
      ],
      [
        "Ġne",
        "ed"
      ],
      [
        "Ġpe",
        "ople"
      ],
      [
        "PU",
        "LET"
      ],
      [
        "l",
        "se"
      ],
      [
        "Ġf",
        "ell"
      ],
      [
        "Ġl",
        "aw"
      ],
      [
        "Ġh",
        "us"
      ],
      [
        "ut",
        "h"
      ],
      [
        "I",
        "L"
      ],
      [
        "b",
        "and"
      ],
      [
        "Ġb",
        "an"
      ],
      [
        "ir",
        "d"
      ],
      [
        "oo",
        "l"
      ],
      [
        "al",
        "k"
      ],
      [
        "Ġri",
        "ght"
      ],
      [
        "ee",
        "ch"
      ],
      [
        "Ġtw",
        "o"
      ],
      [
        "Ġunt",
        "o"
      ],
      [
        "f",
        "ort"
      ],
      [
        "g",
        "et"
      ],
      [
        "t",
        "w"
      ],
      [
        "in",
        "ess"
      ],
      [
        "ous",
        "in"
      ],
      [
        "Ġhus",
        "band"
      ],
      [
        "Ġf",
        "ind"
      ],
      [
        "Ġd",
        "aughter"
      ],
      [
        "ri",
        "ed"
      ],
      [
        "Ġse",
        "em"
      ],
      [
        "KING",
        "HAM"
      ],
      [
        "UC",
        "KINGHAM"
      ],
      [
        "BR",
        "UT"
      ],
      [
        "BRUT",
        "US"
      ],
      [
        "B",
        "UCKINGHAM"
      ],
      [
        "O",
        "KE"
      ],
      [
        "i",
        "x"
      ],
      [
        "Ġt",
        "re"
      ],
      [
        "Ġf",
        "irst"
      ],
      [
        "Ġth",
        "ine"
      ],
      [
        "ING",
        "BR"
      ],
      [
        "ES",
        "S"
      ],
      [
        "LA",
        "U"
      ],
      [
        "ĠB",
        "OL"
      ],
      [
        "INGBR",
        "OKE"
      ],
      [
        "ĠBOL",
        "INGBROKE"
      ],
      [
        "m",
        "en"
      ],
      [
        "v",
        "ost"
      ],
      [
        "Ġm",
        "ind"
      ],
      [
        "Ġb",
        "ra"
      ],
      [
        "Ġh",
        "ome"
      ],
      [
        "Ġthou",
        "gh"
      ],
      [
        "Ġhand",
        "s"
      ],
      [
        "a",
        "ch"
      ],
      [
        "g",
        "ed"
      ],
      [
        "Ġ",
        "What"
      ],
      [
        "Ġt",
        "ears"
      ],
      [
        "Ġe",
        "lse"
      ],
      [
        "ĠM",
        "AR"
      ],
      [
        "Ġj",
        "oy"
      ],
      [
        "L",
        "AR"
      ],
      [
        "S",
        "hall"
      ],
      [
        "Ġb",
        "od"
      ],
      [
        "Ġc",
        "har"
      ],
      [
        "Ġg",
        "l"
      ],
      [
        "Ġfor",
        "th"
      ],
      [
        "hi",
        "p"
      ],
      [
        "Ġsh",
        "ow"
      ],
      [
        "Ġthere",
        "fore"
      ],
      [
        "ĠA",
        "n"
      ],
      [
        "Ġro",
        "yal"
      ],
      [
        "G",
        "AR"
      ],
      [
        "Ġw",
        "hy"
      ],
      [
        "Ġb",
        "id"
      ],
      [
        "is",
        "ter"
      ],
      [
        "Ġc",
        "han"
      ],
      [
        "et",
        "h"
      ],
      [
        "ut",
        "y"
      ],
      [
        "Ġfor",
        "t"
      ],
      [
        "Ġsa",
        "id"
      ],
      [
        "ĠMAR",
        "GAR"
      ],
      [
        "ĠMARGAR",
        "ET"
      ],
      [
        "C",
        "l"
      ],
      [
        "F",
        "rom"
      ],
      [
        "M",
        "IL"
      ],
      [
        "T",
        "H"
      ],
      [
        "e",
        "ed"
      ],
      [
        "Ġw",
        "o"
      ],
      [
        "or",
        "se"
      ],
      [
        "Ġc",
        "he"
      ],
      [
        "Ġc",
        "ause"
      ],
      [
        "at",
        "es"
      ],
      [
        "The",
        "y"
      ],
      [
        "Ġon",
        "ce"
      ],
      [
        "Ġj",
        "ust"
      ],
      [
        "Ġwho",
        "se"
      ],
      [
        "erv",
        "ant"
      ],
      [
        "Ġim",
        "p"
      ],
      [
        "S",
        "ir"
      ],
      [
        "a",
        "il"
      ],
      [
        "Ġme",
        "an"
      ],
      [
        "ro",
        "ke"
      ],
      [
        "ere",
        "r"
      ],
      [
        "W",
        "ill"
      ],
      [
        "c",
        "le"
      ],
      [
        "i",
        "et"
      ],
      [
        "Ġn",
        "at"
      ],
      [
        "Ġn",
        "one"
      ],
      [
        "ar",
        "y"
      ],
      [
        "Ġp",
        "ardon"
      ],
      [
        "OR",
        "D"
      ],
      [
        "Ġcon",
        "f"
      ],
      [
        "AN",
        "GE"
      ],
      [
        "ANGE",
        "LO"
      ],
      [
        "b",
        "t"
      ],
      [
        "Ġk",
        "ill"
      ],
      [
        "are",
        "nce"
      ],
      [
        "A",
        "ll"
      ],
      [
        "e",
        "el"
      ],
      [
        "v",
        "y"
      ],
      [
        "Ġb",
        "oy"
      ],
      [
        "Ġd",
        "ou"
      ],
      [
        "Ġst",
        "ate"
      ],
      [
        "est",
        "y"
      ],
      [
        "ci",
        "us"
      ],
      [
        "Ġwr",
        "ong"
      ],
      [
        "G",
        "ood"
      ],
      [
        "b",
        "e"
      ],
      [
        "l",
        "f"
      ],
      [
        "l",
        "t"
      ],
      [
        "p",
        "ose"
      ],
      [
        "Ġs",
        "orrow"
      ],
      [
        "Ġm",
        "is"
      ],
      [
        "Ġd",
        "r"
      ],
      [
        "Ġli",
        "ght"
      ],
      [
        "sw",
        "er"
      ],
      [
        "b",
        "l"
      ],
      [
        "i",
        "ol"
      ],
      [
        "Ġc",
        "o"
      ],
      [
        "Ġl",
        "ast"
      ],
      [
        "an",
        "c"
      ],
      [
        "Ġha",
        "pp"
      ],
      [
        "Ġwe",
        "ep"
      ],
      [
        "Ġpl",
        "ace"
      ],
      [
        "L",
        "US"
      ],
      [
        "O",
        "ur"
      ],
      [
        "Y",
        "et"
      ],
      [
        "Ġb",
        "es"
      ],
      [
        "ES",
        "CA"
      ],
      [
        "Ġgra",
        "cious"
      ],
      [
        "Ġen",
        "em"
      ],
      [
        "Ġpres",
        "ent"
      ],
      [
        "ESCA",
        "LUS"
      ],
      [
        "D",
        "o"
      ],
      [
        "s",
        "and"
      ],
      [
        "or",
        "y"
      ],
      [
        "it",
        "s"
      ],
      [
        "Ġc",
        "ousin"
      ],
      [
        "ar",
        "ry"
      ],
      [
        "Ġg",
        "od"
      ],
      [
        "Ġme",
        "et"
      ],
      [
        "Ġde",
        "v"
      ],
      [
        "Ġsha",
        "me"
      ],
      [
        "Ġhat",
        "e"
      ],
      [
        "Ġaf",
        "ter"
      ],
      [
        "Ġfoll",
        "ow"
      ],
      [
        "Ġhel",
        "p"
      ],
      [
        "O",
        "N"
      ],
      [
        "U",
        "n"
      ],
      [
        "Ġl",
        "ess"
      ],
      [
        "Ġp",
        "ass"
      ],
      [
        "Ġe",
        "re"
      ],
      [
        "Ġthou",
        "sand"
      ],
      [
        "ĠE",
        "ng"
      ],
      [
        "Ġbr",
        "ing"
      ],
      [
        "D",
        "UCH"
      ],
      [
        "Ġs",
        "ince"
      ],
      [
        "Ġm",
        "akes"
      ],
      [
        "Ġf",
        "ull"
      ],
      [
        "on",
        "s"
      ],
      [
        "Ġhe",
        "ard"
      ],
      [
        "ce",
        "ive"
      ],
      [
        "Ġe",
        "very"
      ],
      [
        "as",
        "ure"
      ],
      [
        "sel",
        "ves"
      ],
      [
        "Ġho",
        "ld"
      ],
      [
        "urd",
        "erer"
      ],
      [
        "Ġwh",
        "om"
      ],
      [
        "DUCH",
        "ESS"
      ],
      [
        "p",
        "her"
      ],
      [
        "Ġf",
        "ar"
      ],
      [
        "Ġf",
        "al"
      ],
      [
        "it",
        "ion"
      ],
      [
        "Ġc",
        "ame"
      ],
      [
        "Ġl",
        "and"
      ],
      [
        "Ġan",
        "swer"
      ],
      [
        "Ġfa",
        "ll"
      ],
      [
        "ER",
        "C"
      ],
      [
        "Ġey",
        "e"
      ],
      [
        "Ġple",
        "ase"
      ],
      [
        "Ġgri",
        "ef"
      ],
      [
        "ĠK",
        "ing"
      ],
      [
        "U",
        "p"
      ],
      [
        "a",
        "ir"
      ],
      [
        "Ġb",
        "ri"
      ],
      [
        "Ġu",
        "nder"
      ],
      [
        "Ġst",
        "re"
      ],
      [
        "ge",
        "lo"
      ],
      [
        "ic",
        "es"
      ],
      [
        "Ġab",
        "out"
      ],
      [
        "Ġcou",
        "n"
      ],
      [
        "ĠMar",
        "cius"
      ],
      [
        "I",
        "A"
      ],
      [
        "L",
        "ord"
      ],
      [
        "d",
        "ay"
      ],
      [
        "j",
        "ect"
      ],
      [
        "im",
        "es"
      ],
      [
        "Ġwor",
        "th"
      ],
      [
        "CA",
        "MIL"
      ],
      [
        "ĠCl",
        "arence"
      ],
      [
        "ĠD",
        "uke"
      ],
      [
        "Ġma",
        "id"
      ],
      [
        "CAMIL",
        "LO"
      ],
      [
        "G",
        "R"
      ],
      [
        "H",
        "ath"
      ],
      [
        "Ġc",
        "are"
      ],
      [
        "Ġh",
        "ither"
      ],
      [
        "Ġp",
        "at"
      ],
      [
        "ir",
        "t"
      ],
      [
        "IN",
        "A"
      ],
      [
        "Ġsu",
        "n"
      ],
      [
        "Ġbod",
        "y"
      ],
      [
        "i",
        "v"
      ],
      [
        "i",
        "ld"
      ],
      [
        "Ġm",
        "o"
      ],
      [
        "Ġw",
        "ilt"
      ],
      [
        "Ġf",
        "ight"
      ],
      [
        "Ġde",
        "ed"
      ],
      [
        "Ġv",
        "o"
      ],
      [
        "ĠAn",
        "gelo"
      ],
      [
        "F",
        "RI"
      ],
      [
        "S",
        "T"
      ],
      [
        "w",
        "e"
      ],
      [
        "Ġb",
        "u"
      ],
      [
        "al",
        "t"
      ],
      [
        "Ġfa",
        "ult"
      ],
      [
        "um",
        "p"
      ],
      [
        "Ġgentle",
        "man"
      ],
      [
        "Pro",
        "vost"
      ],
      [
        "Ġtra",
        "it"
      ],
      [
        "FRI",
        "AR"
      ],
      [
        "A",
        "n"
      ],
      [
        "m",
        "orrow"
      ],
      [
        "Ġo",
        "ver"
      ],
      [
        "Ġbe",
        "d"
      ],
      [
        "Ġin",
        "to"
      ],
      [
        "Ġre",
        "t"
      ],
      [
        "Ġdo",
        "st"
      ],
      [
        "Ġcom",
        "fort"
      ],
      [
        "Ġsw",
        "ord"
      ],
      [
        "Ġwom",
        "an"
      ],
      [
        "Ġcour",
        "t"
      ],
      [
        "pher",
        "d"
      ],
      [
        "C",
        "US"
      ],
      [
        "C",
        "OM"
      ],
      [
        "T",
        "OL"
      ],
      [
        "Y",
        "CUS"
      ],
      [
        "ou",
        "nt"
      ],
      [
        "Ġs",
        "en"
      ],
      [
        "Ġd",
        "ra"
      ],
      [
        "Ġst",
        "ri"
      ],
      [
        "Ġso",
        "vere"
      ],
      [
        "Ġan",
        "other"
      ],
      [
        "AU",
        "TOL"
      ],
      [
        "COM",
        "INIUS"
      ],
      [
        "AUTOL",
        "YCUS"
      ],
      [
        "p",
        "l"
      ],
      [
        "p",
        "en"
      ],
      [
        "Ġt",
        "urn"
      ],
      [
        "is",
        "ed"
      ],
      [
        "Ġe",
        "ven"
      ],
      [
        "Th",
        "ird"
      ],
      [
        "Ġgra",
        "ve"
      ],
      [
        "pe",
        "ct"
      ],
      [
        "LAN",
        "D"
      ],
      [
        "Ġcount",
        "ry"
      ],
      [
        "Ġban",
        "ish"
      ],
      [
        "LAR",
        "ENCE"
      ],
      [
        "C",
        "LARENCE"
      ],
      [
        "G",
        "od"
      ],
      [
        "S",
        "h"
      ],
      [
        "i",
        "ly"
      ],
      [
        "Ġs",
        "er"
      ],
      [
        "Ġf",
        "ool"
      ],
      [
        "Ġc",
        "h"
      ],
      [
        "Ġh",
        "um"
      ],
      [
        "om",
        "et"
      ],
      [
        "Ġg",
        "r"
      ],
      [
        "EN",
        "ES"
      ],
      [
        "Ġre",
        "ven"
      ],
      [
        "ur",
        "y"
      ],
      [
        "Ġpro",
        "ve"
      ],
      [
        "Ġsle",
        "ep"
      ],
      [
        "Ġfell",
        "ow"
      ],
      [
        "Ġfort",
        "une"
      ],
      [
        "Ġfal",
        "se"
      ],
      [
        "B",
        "EN"
      ],
      [
        "M",
        "AR"
      ],
      [
        "N",
        "OR"
      ],
      [
        "en",
        "er"
      ],
      [
        "Ġg",
        "i"
      ],
      [
        "Ġe",
        "m"
      ],
      [
        "ho",
        "ld"
      ],
      [
        "Ġbre",
        "ath"
      ],
      [
        "de",
        "ed"
      ],
      [
        "VOL",
        "IO"
      ],
      [
        "Cl",
        "own"
      ],
      [
        "Up",
        "on"
      ],
      [
        "BEN",
        "VOLIO"
      ],
      [
        "A",
        "re"
      ],
      [
        "E",
        "ven"
      ],
      [
        "d",
        "d"
      ],
      [
        "i",
        "ence"
      ],
      [
        "Ġt",
        "alk"
      ],
      [
        "Ġs",
        "ound"
      ],
      [
        "Ġw",
        "ant"
      ],
      [
        "Ġw",
        "ish"
      ],
      [
        "Ġbe",
        "l"
      ],
      [
        "Ġha",
        "s"
      ],
      [
        "ad",
        "e"
      ],
      [
        "Ġat",
        "t"
      ],
      [
        "Ġho",
        "ly"
      ],
      [
        "Ġpl",
        "ay"
      ],
      [
        ".",
        "'"
      ],
      [
        "M",
        "ore"
      ],
      [
        "M",
        "ERC"
      ],
      [
        "U",
        "TIO"
      ],
      [
        "r",
        "an"
      ],
      [
        "Ġm",
        "atter"
      ],
      [
        "at",
        "or"
      ],
      [
        "Ġin",
        "st"
      ],
      [
        "ĠM",
        "urderer"
      ],
      [
        "Ġtr",
        "uth"
      ],
      [
        "Ġdre",
        "am"
      ],
      [
        "MERC",
        "UTIO"
      ],
      [
        "A",
        "t"
      ],
      [
        "r",
        "ance"
      ],
      [
        "Ġm",
        "ist"
      ],
      [
        "Ġy",
        "ears"
      ],
      [
        "Ġin",
        "deed"
      ],
      [
        "Ġre",
        "ason"
      ],
      [
        "Ġso",
        "ld"
      ],
      [
        "Ġon",
        "ly"
      ],
      [
        "Ġpr",
        "ison"
      ],
      [
        "ie",
        "ve"
      ],
      [
        "fe",
        "ct"
      ],
      [
        "Ġthan",
        "k"
      ],
      [
        "Ġdis",
        "c"
      ],
      [
        "Ġad",
        "v"
      ],
      [
        "Ġarm",
        "s"
      ],
      [
        "P",
        "OM"
      ],
      [
        "Ġs",
        "ent"
      ],
      [
        "Ġm",
        "erc"
      ],
      [
        "er",
        "ving"
      ],
      [
        "Ġd",
        "an"
      ],
      [
        "ut",
        "e"
      ],
      [
        "Ġu",
        "se"
      ],
      [
        "Ġli",
        "es"
      ],
      [
        "Ġen",
        "ough"
      ],
      [
        "Ġdou",
        "bt"
      ],
      [
        "POM",
        "P"
      ],
      [
        "L",
        "INA"
      ],
      [
        "M",
        "IO"
      ],
      [
        "P",
        "AU"
      ],
      [
        "b",
        "y"
      ],
      [
        "i",
        "an"
      ],
      [
        "Ġb",
        "o"
      ],
      [
        "Ġb",
        "us"
      ],
      [
        "Ġp",
        "ers"
      ],
      [
        "Ġin",
        "t"
      ],
      [
        "Ġli",
        "ves"
      ],
      [
        "Ġde",
        "p"
      ],
      [
        "est",
        "er"
      ],
      [
        "Ġse",
        "nd"
      ],
      [
        "Ġv",
        "irt"
      ],
      [
        "Ġr",
        "u"
      ],
      [
        "Ġr",
        "ather"
      ],
      [
        "Ġmad",
        "am"
      ],
      [
        "Ġsovere",
        "ign"
      ],
      [
        "PAU",
        "LINA"
      ],
      [
        "A",
        "l"
      ],
      [
        "Y",
        "ORK"
      ],
      [
        "e",
        "al"
      ],
      [
        "o",
        "f"
      ],
      [
        "Ġ",
        "i"
      ],
      [
        "he",
        "d"
      ],
      [
        "ou",
        "ch"
      ],
      [
        "Ġp",
        "ity"
      ],
      [
        "Ġse",
        "c"
      ],
      [
        "Ġfa",
        "re"
      ],
      [
        "gain",
        "st"
      ],
      [
        "Ġhapp",
        "y"
      ],
      [
        "Ġgod",
        "s"
      ],
      [
        "POMP",
        "EY"
      ],
      [
        "N",
        "IA"
      ],
      [
        "O",
        "LI"
      ],
      [
        "P",
        "OLI"
      ],
      [
        "W",
        "ould"
      ],
      [
        "X",
        "ENES"
      ],
      [
        "b",
        "alt"
      ],
      [
        "s",
        "h"
      ],
      [
        "u",
        "nt"
      ],
      [
        "y",
        "balt"
      ],
      [
        "Ġ",
        "But"
      ],
      [
        "Ġ",
        "Nor"
      ],
      [
        "Ġt",
        "end"
      ],
      [
        "ha",
        "m"
      ],
      [
        "it",
        "t"
      ],
      [
        "Ġl",
        "ay"
      ],
      [
        "ill",
        "ain"
      ],
      [
        "Ġst",
        "ra"
      ],
      [
        "ver",
        "s"
      ],
      [
        "Ġsha",
        "lt"
      ],
      [
        "Ġpr",
        "oud"
      ],
      [
        "UM",
        "NIA"
      ],
      [
        "VOL",
        "UMNIA"
      ],
      [
        "Ġnat",
        "ure"
      ],
      [
        "Ġbes",
        "eech"
      ],
      [
        "POLI",
        "XENES"
      ],
      [
        "i",
        "a"
      ],
      [
        "i",
        "ke"
      ],
      [
        "u",
        "se"
      ],
      [
        "en",
        "ger"
      ],
      [
        "Ġy",
        "ield"
      ],
      [
        "Ġp",
        "rom"
      ],
      [
        "et",
        "er"
      ],
      [
        "ent",
        "s"
      ],
      [
        "ING",
        "S"
      ],
      [
        "Ġsw",
        "ear"
      ],
      [
        "ĠS",
        "erving"
      ],
      [
        "Ġblood",
        "y"
      ],
      [
        "ag",
        "ue"
      ],
      [
        "ST",
        "INGS"
      ],
      [
        "ĠServing",
        "man"
      ],
      [
        "R",
        "ENCE"
      ],
      [
        "W",
        "ere"
      ],
      [
        "b",
        "roke"
      ],
      [
        "k",
        "en"
      ],
      [
        "Ġ",
        "LAU"
      ],
      [
        "Ġw",
        "ound"
      ],
      [
        "Ġc",
        "ity"
      ],
      [
        "Ġha",
        "ng"
      ],
      [
        "Ġwe",
        "l"
      ],
      [
        "Ġyour",
        "s"
      ],
      [
        "ess",
        "enger"
      ],
      [
        "HA",
        "STINGS"
      ],
      [
        "li",
        "ke"
      ],
      [
        "Ġma",
        "j"
      ],
      [
        "ĠLAU",
        "RENCE"
      ],
      [
        "B",
        "Y"
      ],
      [
        "B",
        "ER"
      ],
      [
        "Ġs",
        "erv"
      ],
      [
        "er",
        "y"
      ],
      [
        "Ġd",
        "en"
      ],
      [
        "Ġd",
        "are"
      ],
      [
        "Ġc",
        "ur"
      ],
      [
        "ar",
        "s"
      ],
      [
        "Ġde",
        "f"
      ],
      [
        "ĠC",
        "ome"
      ],
      [
        "Ġv",
        "al"
      ],
      [
        "Ġbre",
        "ak"
      ],
      [
        "Ġsub",
        "ject"
      ],
      [
        ",",
        "'"
      ],
      [
        "C",
        "LI"
      ],
      [
        "F",
        "F"
      ],
      [
        "L",
        "E"
      ],
      [
        "u",
        "p"
      ],
      [
        "u",
        "es"
      ],
      [
        "Ġs",
        "omet"
      ],
      [
        "Ġm",
        "aster"
      ],
      [
        "Ġw",
        "ind"
      ],
      [
        "Ġb",
        "orn"
      ],
      [
        "Ġf",
        "ree"
      ],
      [
        "Ġl",
        "am"
      ],
      [
        "un",
        "es"
      ],
      [
        "UM",
        "BER"
      ],
      [
        "Ġcomm",
        "and"
      ],
      [
        "Ġchild",
        "ren"
      ],
      [
        "TH",
        "UMBER"
      ],
      [
        "ĠEng",
        "land"
      ],
      [
        "Ġtrait",
        "or"
      ],
      [
        "NOR",
        "THUMBER"
      ],
      [
        "Ġmaj",
        "esty"
      ],
      [
        "CLI",
        "FF"
      ],
      [
        "NORTHUMBER",
        "LAND"
      ],
      [
        "I",
        "D"
      ],
      [
        "b",
        "s"
      ],
      [
        "Ġt",
        "em"
      ],
      [
        "Ġc",
        "ra"
      ],
      [
        "Ġo",
        "ath"
      ],
      [
        "an",
        "y"
      ],
      [
        "Ġg",
        "ener"
      ],
      [
        "Ġun",
        "cle"
      ],
      [
        "There",
        "fore"
      ],
      [
        "get",
        "her"
      ],
      [
        "N",
        "NE"
      ],
      [
        "c",
        "om"
      ],
      [
        "Ġs",
        "in"
      ],
      [
        "Ġs",
        "ister"
      ],
      [
        "ha",
        "l"
      ],
      [
        "Ġc",
        "r"
      ],
      [
        "Ġc",
        "ond"
      ],
      [
        "Ġl",
        "ate"
      ],
      [
        "en",
        "s"
      ],
      [
        "Ġbe",
        "a"
      ],
      [
        "Ġme",
        "ans"
      ],
      [
        "Ġyour",
        "self"
      ],
      [
        "Ġre",
        "qu"
      ],
      [
        "Ġfa",
        "ith"
      ],
      [
        "ĠA",
        "NNE"
      ],
      [
        "Ġday",
        "s"
      ],
      [
        "ĠJ",
        "ul"
      ],
      [
        "Ġstr",
        "an"
      ],
      [
        "Ġdan",
        "ger"
      ],
      [
        "Ġtend",
        "er"
      ],
      [
        "A",
        "h"
      ],
      [
        "P",
        "R"
      ],
      [
        "d",
        "om"
      ],
      [
        "i",
        "ct"
      ],
      [
        "Ġs",
        "ight"
      ],
      [
        "Ġw",
        "hile"
      ],
      [
        "Ġf",
        "oul"
      ],
      [
        "Ġn",
        "urse"
      ],
      [
        "Ġg",
        "re"
      ],
      [
        "if",
        "ford"
      ],
      [
        "Ġsp",
        "o"
      ],
      [
        "Ġsa",
        "w"
      ],
      [
        "CA",
        "PULET"
      ],
      [
        "INC",
        "E"
      ],
      [
        "Ġcomm",
        "on"
      ],
      [
        "Ġrem",
        "em"
      ],
      [
        "Ġret",
        "urn"
      ],
      [
        "Ġmerc",
        "y"
      ],
      [
        "Ġbus",
        "iness"
      ],
      [
        "PR",
        "INCE"
      ],
      [
        "H",
        "er"
      ],
      [
        "L",
        "ook"
      ],
      [
        "S",
        "ay"
      ],
      [
        "m",
        "er"
      ],
      [
        "Ġa",
        "w"
      ],
      [
        "or",
        "iol"
      ],
      [
        "ing",
        "broke"
      ],
      [
        "Ġwith",
        "in"
      ],
      [
        "Ġse",
        "en"
      ],
      [
        "Ġv",
        "illain"
      ],
      [
        "ol",
        "ingbroke"
      ],
      [
        "Ġdes",
        "er"
      ],
      [
        "Ġlook",
        "s"
      ],
      [
        "Ġlie",
        "ge"
      ],
      [
        "che",
        "s"
      ],
      [
        "Ġwo",
        "e"
      ],
      [
        "GR",
        "E"
      ],
      [
        "G",
        "ive"
      ],
      [
        "Ġs",
        "ea"
      ],
      [
        "re",
        "l"
      ],
      [
        "Ġth",
        "ree"
      ],
      [
        "Ġg",
        "et"
      ],
      [
        "Ġsp",
        "ir"
      ],
      [
        "ĠM",
        "ont"
      ],
      [
        "are",
        "well"
      ],
      [
        "ĠB",
        "olingbroke"
      ],
      [
        "Ġsa",
        "ve"
      ],
      [
        "Ġmar",
        "k"
      ],
      [
        "for",
        "m"
      ],
      [
        "Ġpur",
        "pose"
      ],
      [
        "Ġfare",
        "well"
      ],
      [
        "a",
        "im"
      ],
      [
        "c",
        "her"
      ],
      [
        "i",
        "ent"
      ],
      [
        "m",
        "s"
      ],
      [
        "Ġm",
        "on"
      ],
      [
        "Ġm",
        "urd"
      ],
      [
        "Ġth",
        "ings"
      ],
      [
        "Ġto",
        "ld"
      ],
      [
        "our",
        "s"
      ],
      [
        "Ġk",
        "iss"
      ],
      [
        "Ġso",
        "on"
      ],
      [
        "Ġsu",
        "pp"
      ],
      [
        "ond",
        "er"
      ],
      [
        "Ġgo",
        "ld"
      ],
      [
        "Ġhea",
        "vy"
      ],
      [
        "ef",
        "t"
      ],
      [
        "ĠCl",
        "ifford"
      ],
      [
        "ert",
        "ain"
      ],
      [
        "Ġwel",
        "come"
      ],
      [
        "ĠJul",
        "iet"
      ],
      [
        "a",
        "id"
      ],
      [
        "i",
        "al"
      ],
      [
        "t",
        "en"
      ],
      [
        "Ġ",
        "ill"
      ],
      [
        "Ġt",
        "imes"
      ],
      [
        "Ġm",
        "er"
      ],
      [
        "Ġm",
        "et"
      ],
      [
        "Ġw",
        "in"
      ],
      [
        "Ġg",
        "row"
      ],
      [
        "Ġbe",
        "at"
      ],
      [
        "ce",
        "ed"
      ],
      [
        "Ġde",
        "ep"
      ],
      [
        "us",
        "ic"
      ],
      [
        "ter",
        "s"
      ],
      [
        "au",
        "d"
      ],
      [
        "Ġwar",
        "rant"
      ],
      [
        "Ġsl",
        "ain"
      ],
      [
        "Who",
        "se"
      ],
      [
        "ĠF",
        "rance"
      ],
      [
        "Ġcont",
        "ent"
      ],
      [
        "Ġjust",
        "ice"
      ],
      [
        "A",
        "PULET"
      ],
      [
        "F",
        "L"
      ],
      [
        "F",
        "ID"
      ],
      [
        "I",
        "Z"
      ],
      [
        "T",
        "w"
      ],
      [
        "s",
        "o"
      ],
      [
        "ou",
        "th"
      ],
      [
        "Ġb",
        "at"
      ],
      [
        "id",
        "es"
      ],
      [
        "us",
        "h"
      ],
      [
        "ĠC",
        "APULET"
      ],
      [
        "OR",
        "IZ"
      ],
      [
        "Ġdis",
        "p"
      ],
      [
        "Ġfri",
        "ar"
      ],
      [
        "entle",
        "man"
      ],
      [
        "Thou",
        "gh"
      ],
      [
        "AU",
        "FID"
      ],
      [
        "Ġgr",
        "ound"
      ],
      [
        "FL",
        "ORIZ"
      ],
      [
        "AUFID",
        "IUS"
      ],
      [
        "FLORIZ",
        "EL"
      ],
      [
        "A",
        "L"
      ],
      [
        "D",
        "id"
      ],
      [
        "H",
        "ad"
      ],
      [
        "M",
        "ay"
      ],
      [
        "T",
        "ake"
      ],
      [
        "V",
        "ER"
      ],
      [
        "W",
        "as"
      ],
      [
        "b",
        "ed"
      ],
      [
        "e",
        "ver"
      ],
      [
        "g",
        "es"
      ],
      [
        "n",
        "o"
      ],
      [
        "he",
        "s"
      ],
      [
        "Ġs",
        "ad"
      ],
      [
        "Ġf",
        "ly"
      ],
      [
        "Ġf",
        "ound"
      ],
      [
        "Ġc",
        "ho"
      ],
      [
        "Ġl",
        "eft"
      ],
      [
        "Ġn",
        "ear"
      ],
      [
        "Ġto",
        "gether"
      ],
      [
        "le",
        "t"
      ],
      [
        "et",
        "s"
      ],
      [
        "ra",
        "ce"
      ],
      [
        "The",
        "se"
      ],
      [
        "Ġas",
        "s"
      ],
      [
        "ro",
        "ss"
      ],
      [
        "Ġthy",
        "self"
      ],
      [
        "if",
        "t"
      ],
      [
        "ear",
        "n"
      ],
      [
        "Ġlo",
        "st"
      ],
      [
        "Ġpl",
        "uck"
      ],
      [
        "Ġfo",
        "ot"
      ],
      [
        "Ġear",
        "s"
      ],
      [
        "Ġdes",
        "ire"
      ],
      [
        "ĠT",
        "ybalt"
      ],
      [
        "Ġhast",
        "e"
      ],
      [
        "On",
        "e"
      ],
      [
        "Ġthr",
        "ough"
      ],
      [
        "Ġreven",
        "ge"
      ],
      [
        "Ġgener",
        "al"
      ],
      [
        "aud",
        "io"
      ],
      [
        "C",
        "an"
      ],
      [
        "L",
        "ike"
      ],
      [
        "r",
        "ing"
      ],
      [
        "x",
        "t"
      ],
      [
        "Ġa",
        "ir"
      ],
      [
        "Ġa",
        "ge"
      ],
      [
        "Ġs",
        "it"
      ],
      [
        "Ġc",
        "a"
      ],
      [
        "Ġc",
        "urse"
      ],
      [
        "en",
        "ator"
      ],
      [
        "Ġp",
        "ast"
      ],
      [
        "ĠI",
        "s"
      ],
      [
        "Ġhe",
        "ir"
      ],
      [
        "om",
        "an"
      ],
      [
        "ut",
        "ion"
      ],
      [
        "Ġwith",
        "out"
      ],
      [
        "Ġit",
        "self"
      ],
      [
        "Ġas",
        "k"
      ],
      [
        "am",
        "ill"
      ],
      [
        "Ġsu",
        "it"
      ],
      [
        "Ġlo",
        "ss"
      ],
      [
        "au",
        "nt"
      ],
      [
        "um",
        "ber"
      ],
      [
        "ĠS",
        "enator"
      ],
      [
        "Ġhar",
        "d"
      ],
      [
        "Sh",
        "ould"
      ],
      [
        "Ġpers",
        "on"
      ],
      [
        "C",
        "IUS"
      ],
      [
        "R",
        "ICHARD"
      ],
      [
        "T",
        "ell"
      ],
      [
        "W",
        "h"
      ],
      [
        "a",
        "z"
      ],
      [
        "c",
        "ester"
      ],
      [
        "g",
        "s"
      ],
      [
        "l",
        "ou"
      ],
      [
        "o",
        "int"
      ],
      [
        "v",
        "o"
      ],
      [
        "v",
        "ent"
      ],
      [
        "Ġc",
        "ry"
      ],
      [
        "Ġg",
        "rant"
      ],
      [
        "ain",
        "s"
      ],
      [
        "Ġdo",
        "es"
      ],
      [
        "Ġsu",
        "re"
      ],
      [
        "Ġsu",
        "ff"
      ],
      [
        "ure",
        "d"
      ],
      [
        "Ġpo",
        "int"
      ],
      [
        "Ġqu",
        "ick"
      ],
      [
        "Ġstr",
        "ong"
      ],
      [
        "She",
        "pherd"
      ],
      [
        "ix",
        "t"
      ],
      [
        "Ġenem",
        "y"
      ],
      [
        "Ġworth",
        "y"
      ],
      [
        "Ġstran",
        "ge"
      ],
      [
        "O",
        "W"
      ],
      [
        "S",
        "ome"
      ],
      [
        "T",
        "R"
      ],
      [
        "l",
        "ing"
      ],
      [
        "n",
        "ight"
      ],
      [
        "s",
        "ue"
      ],
      [
        "Ġs",
        "il"
      ],
      [
        "in",
        "ed"
      ],
      [
        "Ġf",
        "ore"
      ],
      [
        "Ġc",
        "old"
      ],
      [
        "Ġl",
        "earn"
      ],
      [
        "Ġh",
        "orse"
      ],
      [
        "Ġto",
        "ward"
      ],
      [
        "Ġp",
        "ost"
      ],
      [
        "Ġhe",
        "ll"
      ],
      [
        "ing",
        "ham"
      ],
      [
        "Ġin",
        "f"
      ],
      [
        "ad",
        "am"
      ],
      [
        "ent",
        "y"
      ],
      [
        "Ġde",
        "li"
      ],
      [
        "Ġlo",
        "se"
      ],
      [
        "ĠR",
        "i"
      ],
      [
        "Ġv",
        "is"
      ],
      [
        "ol",
        "k"
      ],
      [
        "ĠH",
        "ere"
      ],
      [
        "Ġsay",
        "s"
      ],
      [
        "Ġr",
        "un"
      ],
      [
        "Ġj",
        "ud"
      ],
      [
        "Ġal",
        "one"
      ],
      [
        "Ġrep",
        "ort"
      ],
      [
        "Ġstre",
        "ng"
      ],
      [
        "Ġcoun",
        "sel"
      ],
      [
        "Ġbel",
        "ieve"
      ],
      [
        "amill",
        "o"
      ],
      [
        "!",
        "'"
      ],
      [
        "A",
        "gainst"
      ],
      [
        "B",
        "ec"
      ],
      [
        "e",
        "ep"
      ],
      [
        "Ġt",
        "it"
      ],
      [
        "Ġm",
        "ock"
      ],
      [
        "Ġb",
        "old"
      ],
      [
        "Ġb",
        "os"
      ],
      [
        "Ġf",
        "ire"
      ],
      [
        "Ġyou",
        "th"
      ],
      [
        "al",
        "m"
      ],
      [
        "Ġfa",
        "st"
      ],
      [
        "ĠC",
        "oriol"
      ],
      [
        "ast",
        "ings"
      ],
      [
        "ol",
        "s"
      ],
      [
        "Ġknow",
        "s"
      ],
      [
        "Ġmar",
        "ry"
      ],
      [
        "Ġex",
        "ec"
      ],
      [
        "Ġqu",
        "ar"
      ],
      [
        "Ġfear",
        "ful"
      ],
      [
        "Ġstand",
        "s"
      ],
      [
        "ĠCl",
        "audio"
      ],
      [
        "uck",
        "ingham"
      ],
      [
        "MAR",
        "CIUS"
      ],
      [
        "Ġstra",
        "ight"
      ],
      [
        "Ġserv",
        "ice"
      ],
      [
        "ĠMont",
        "ague"
      ],
      [
        "lou",
        "cester"
      ],
      [
        "Ġbos",
        "om"
      ],
      [
        "C",
        "om"
      ],
      [
        "D",
        "IO"
      ],
      [
        "H",
        "OR"
      ],
      [
        "S",
        "p"
      ],
      [
        "f",
        "olk"
      ],
      [
        "g",
        "u"
      ],
      [
        "i",
        "ers"
      ],
      [
        "s",
        "hip"
      ],
      [
        "Ġ",
        "You"
      ],
      [
        "Ġm",
        "orn"
      ],
      [
        "Ġw",
        "at"
      ],
      [
        "Ġw",
        "ret"
      ],
      [
        "Ġf",
        "ield"
      ],
      [
        "on",
        "es"
      ],
      [
        "Ġbe",
        "hold"
      ],
      [
        "ce",
        "pt"
      ],
      [
        "Ġin",
        "c"
      ],
      [
        "Ġwe",
        "ar"
      ],
      [
        "Ġre",
        "c"
      ],
      [
        "ĠC",
        "ap"
      ],
      [
        "ĠH",
        "astings"
      ],
      [
        "Ġtr",
        "ust"
      ],
      [
        "ĠB",
        "uckingham"
      ],
      [
        "ak",
        "ing"
      ],
      [
        "itizen",
        "s"
      ],
      [
        "Ġthought",
        "s"
      ],
      [
        "Ġhour",
        "s"
      ],
      [
        "H",
        "ER"
      ],
      [
        "M",
        "O"
      ],
      [
        "T",
        "ill"
      ],
      [
        "b",
        "ly"
      ],
      [
        "n",
        "er"
      ],
      [
        "p",
        "are"
      ],
      [
        "Ġ",
        "Th"
      ],
      [
        "Ġs",
        "ide"
      ],
      [
        "Ġf",
        "ur"
      ],
      [
        "Ġd",
        "iv"
      ],
      [
        "Ġy",
        "e"
      ],
      [
        "Ġsp",
        "eed"
      ],
      [
        "ER",
        "LE"
      ],
      [
        "Ġbr",
        "ought"
      ],
      [
        "ort",
        "al"
      ],
      [
        "ĠA",
        "UM"
      ],
      [
        "Ġdes",
        "p"
      ],
      [
        "che",
        "d"
      ],
      [
        "Ġgu",
        "ilt"
      ],
      [
        "Ġhigh",
        "ness"
      ],
      [
        "Ġchar",
        "ge"
      ],
      [
        "Ġdev",
        "il"
      ],
      [
        "Ġvo",
        "ices"
      ],
      [
        "Ġremem",
        "ber"
      ],
      [
        "Ġspir",
        "it"
      ],
      [
        "Ġmurd",
        "er"
      ],
      [
        "ĠAUM",
        "ERLE"
      ],
      [
        "F",
        "arewell"
      ],
      [
        "n",
        "ing"
      ],
      [
        "s",
        "es"
      ],
      [
        "Ġt",
        "er"
      ],
      [
        "Ġp",
        "ar"
      ],
      [
        "Ġe",
        "ach"
      ],
      [
        "ad",
        "s"
      ],
      [
        "Ġsh",
        "ort"
      ],
      [
        "ĠG",
        "entleman"
      ],
      [
        "ĠG",
        "loucester"
      ],
      [
        "ĠL",
        "anc"
      ],
      [
        "ink",
        "s"
      ],
      [
        "Ġpro",
        "f"
      ],
      [
        "Ġdis",
        "t"
      ],
      [
        "Ġpo",
        "ss"
      ],
      [
        "Ġdra",
        "w"
      ],
      [
        "Ġstreng",
        "th"
      ],
      [
        "ĠLanc",
        "aster"
      ],
      [
        "H",
        "a"
      ],
      [
        "M",
        "adam"
      ],
      [
        "P",
        "ray"
      ],
      [
        "f",
        "id"
      ],
      [
        "i",
        "or"
      ],
      [
        "Ġ",
        "ord"
      ],
      [
        "Ġt",
        "ouch"
      ],
      [
        "Ġa",
        "ct"
      ],
      [
        "Ġs",
        "at"
      ],
      [
        "Ġf",
        "eel"
      ],
      [
        "Ġc",
        "ar"
      ],
      [
        "Ġo",
        "pen"
      ],
      [
        "Ġha",
        "lf"
      ],
      [
        "Ġre",
        "ad"
      ],
      [
        "ĠC",
        "amillo"
      ],
      [
        "fe",
        "ction"
      ],
      [
        "Ġwor",
        "k"
      ],
      [
        "Ġsee",
        "k"
      ],
      [
        "Ġtw",
        "enty"
      ],
      [
        "Ġcour",
        "se"
      ],
      [
        "Ġres",
        "ol"
      ],
      [
        "Ġconf",
        "ess"
      ],
      [
        "Ġenem",
        "ies"
      ],
      [
        "Ġbea",
        "uty"
      ],
      [
        "C",
        "LAU"
      ],
      [
        "c",
        "ess"
      ],
      [
        "h",
        "ood"
      ],
      [
        "w",
        "ith"
      ],
      [
        "Ġ",
        "The"
      ],
      [
        "Ġt",
        "y"
      ],
      [
        "Ġt",
        "en"
      ],
      [
        "Ġs",
        "ing"
      ],
      [
        "Ġm",
        "in"
      ],
      [
        "Ġb",
        "reat"
      ],
      [
        "is",
        "hed"
      ],
      [
        "Ġd",
        "ish"
      ],
      [
        "Ġg",
        "ates"
      ],
      [
        "oo",
        "p"
      ],
      [
        "Ġst",
        "ir"
      ],
      [
        "Ġde",
        "l"
      ],
      [
        "and",
        "er"
      ],
      [
        "Ġcan",
        "st"
      ],
      [
        "Ġheart",
        "s"
      ],
      [
        "Ġab",
        "s"
      ],
      [
        "Ġheaven",
        "s"
      ],
      [
        "Ġcl",
        "ose"
      ],
      [
        "Ġhar",
        "m"
      ],
      [
        "Ġtri",
        "b"
      ],
      [
        "Ġent",
        "er"
      ],
      [
        "Ġser",
        "ve"
      ],
      [
        "MIO",
        "NE"
      ],
      [
        "ĠNor",
        "folk"
      ],
      [
        "CLIFF",
        "ORD"
      ],
      [
        "Ġtit",
        "le"
      ],
      [
        "HER",
        "MIONE"
      ],
      [
        "CLAU",
        "DIO"
      ],
      [
        "E",
        "DWARD"
      ],
      [
        "L",
        "ORD"
      ],
      [
        "P",
        "ET"
      ],
      [
        "S",
        "ee"
      ],
      [
        "c",
        "han"
      ],
      [
        "m",
        "ost"
      ],
      [
        "s",
        "c"
      ],
      [
        "s",
        "u"
      ],
      [
        "u",
        "fid"
      ],
      [
        "Ġs",
        "ame"
      ],
      [
        "re",
        "ady"
      ],
      [
        "Ġb",
        "it"
      ],
      [
        "Ġb",
        "ound"
      ],
      [
        "Ġc",
        "or"
      ],
      [
        "ow",
        "ard"
      ],
      [
        "Ġis",
        "sue"
      ],
      [
        "Ġst",
        "o"
      ],
      [
        "Ġlo",
        "ving"
      ],
      [
        "Ġknow",
        "n"
      ],
      [
        "ĠP",
        "om"
      ],
      [
        "Ġpre",
        "t"
      ],
      [
        "Ġcl",
        "oud"
      ],
      [
        "Ġsoul",
        "s"
      ],
      [
        "Ġbeg",
        "g"
      ],
      [
        "Ġcons",
        "ul"
      ],
      [
        "Ġgri",
        "e"
      ],
      [
        "Ġent",
        "reat"
      ],
      [
        "Ġchan",
        "ge"
      ],
      [
        "we",
        "en"
      ],
      [
        "Ġstri",
        "ke"
      ],
      [
        "Ġmist",
        "ress"
      ],
      [
        "Ġsomet",
        "hing"
      ],
      [
        "Ġdeli",
        "ver"
      ],
      [
        "ufid",
        "ius"
      ],
      [
        "A",
        "G"
      ],
      [
        "H",
        "N"
      ],
      [
        "I",
        "T"
      ],
      [
        "M",
        "ost"
      ],
      [
        "M",
        "arry"
      ],
      [
        "M",
        "essenger"
      ],
      [
        "O",
        "HN"
      ],
      [
        "P",
        "S"
      ],
      [
        "n",
        "ow"
      ],
      [
        "Ġ",
        "ve"
      ],
      [
        "he",
        "e"
      ],
      [
        "Ġs",
        "ick"
      ],
      [
        "Ġw",
        "hi"
      ],
      [
        "re",
        "st"
      ],
      [
        "Ġf",
        "it"
      ],
      [
        "Ġd",
        "am"
      ],
      [
        "Ġc",
        "ut"
      ],
      [
        "Ġp",
        "ra"
      ],
      [
        "Ġp",
        "ale"
      ],
      [
        "Ġbe",
        "come"
      ],
      [
        "ch",
        "m"
      ],
      [
        "Ġe",
        "v"
      ],
      [
        "ri",
        "age"
      ],
      [
        "Ġli",
        "ps"
      ],
      [
        "ur",
        "p"
      ],
      [
        "Th",
        "us"
      ],
      [
        "Ġv",
        "en"
      ],
      [
        "Ġthem",
        "selves"
      ],
      [
        "Ġpo",
        "ison"
      ],
      [
        "Ġhon",
        "est"
      ],
      [
        "Ġal",
        "ready"
      ],
      [
        "Ġmar",
        "ried"
      ],
      [
        "Ġaf",
        "f"
      ],
      [
        "aw",
        "d"
      ],
      [
        "Ġple",
        "asure"
      ],
      [
        "Ġche",
        "e"
      ],
      [
        "ceive",
        "d"
      ],
      [
        "Ġbat",
        "tle"
      ],
      [
        "ĠHere",
        "ford"
      ],
      [
        "S",
        "ervant"
      ],
      [
        "U",
        "nt"
      ],
      [
        "n",
        "e"
      ],
      [
        "Ġs",
        "ign"
      ],
      [
        "Ġw",
        "is"
      ],
      [
        "Ġw",
        "all"
      ],
      [
        "re",
        "m"
      ],
      [
        "is",
        "f"
      ],
      [
        "Ġf",
        "our"
      ],
      [
        "it",
        "hee"
      ],
      [
        "Ġd",
        "uty"
      ],
      [
        "an",
        "us"
      ],
      [
        "ce",
        "d"
      ],
      [
        "ir",
        "th"
      ],
      [
        "Ġe",
        "ither"
      ],
      [
        "ri",
        "es"
      ],
      [
        "il",
        "s"
      ],
      [
        "Ġne",
        "xt"
      ],
      [
        "row",
        "s"
      ],
      [
        "end",
        "s"
      ],
      [
        "Ġbl",
        "ack"
      ],
      [
        "Ġsw",
        "orn"
      ],
      [
        "Ġpro",
        "p"
      ],
      [
        "Ġtoo",
        "k"
      ],
      [
        "Ġfo",
        "e"
      ],
      [
        "Ġbre",
        "ast"
      ],
      [
        "ĠT",
        "ower"
      ],
      [
        "ment",
        "s"
      ],
      [
        "cl",
        "aim"
      ],
      [
        "tw",
        "as"
      ],
      [
        "Ġpat",
        "ience"
      ],
      [
        "Ġgi",
        "ven"
      ],
      [
        "Ġsold",
        "iers"
      ],
      [
        "Ġsuff",
        "er"
      ],
      [
        "Ġfur",
        "ther"
      ],
      [
        "chm",
        "ond"
      ],
      [
        "A",
        "way"
      ],
      [
        "I",
        "R"
      ],
      [
        "S",
        "ince"
      ],
      [
        "T",
        "ES"
      ],
      [
        "c",
        "ent"
      ],
      [
        "g",
        "are"
      ],
      [
        "i",
        "ble"
      ],
      [
        "t",
        "ing"
      ],
      [
        "u",
        "nd"
      ],
      [
        "v",
        "our"
      ],
      [
        "y",
        "ou"
      ],
      [
        "Ġa",
        "g"
      ],
      [
        "Ġs",
        "ake"
      ],
      [
        "Ġm",
        "outh"
      ],
      [
        "Ġw",
        "oo"
      ],
      [
        "Ġw",
        "ast"
      ],
      [
        "Ġb",
        "ad"
      ],
      [
        "or",
        "ge"
      ],
      [
        "Ġc",
        "ast"
      ],
      [
        "es",
        "h"
      ],
      [
        "ar",
        "is"
      ],
      [
        "ĠI",
        "f"
      ],
      [
        "ot",
        "ion"
      ],
      [
        "Ġfor",
        "g"
      ],
      [
        "oo",
        "f"
      ],
      [
        "oo",
        "se"
      ],
      [
        "ra",
        "h"
      ],
      [
        "Ġre",
        "g"
      ],
      [
        "Ġse",
        "lf"
      ],
      [
        "em",
        "pt"
      ],
      [
        "ĠA",
        "ufidius"
      ],
      [
        "Ġpl",
        "ain"
      ],
      [
        "CA",
        "TES"
      ],
      [
        "Ġal",
        "ong"
      ],
      [
        "Ġson",
        "s"
      ],
      [
        "Ġmar",
        "riage"
      ],
      [
        "Be",
        "ing"
      ],
      [
        "Be",
        "fore"
      ],
      [
        "Ġpres",
        "ence"
      ],
      [
        "tw",
        "ere"
      ],
      [
        "eth",
        "inks"
      ],
      [
        "Un",
        "less"
      ],
      [
        "dd",
        "en"
      ],
      [
        "Ġatt",
        "end"
      ],
      [
        "Ġwound",
        "s"
      ],
      [
        "Ġdanger",
        "ous"
      ],
      [
        "Ġquar",
        "rel"
      ],
      [
        "Ġmorn",
        "ing"
      ],
      [
        "gare",
        "t"
      ],
      [
        "CATES",
        "BY"
      ],
      [
        "L",
        "Y"
      ],
      [
        "R",
        "e"
      ],
      [
        "c",
        "y"
      ],
      [
        "f",
        "ter"
      ],
      [
        "i",
        "res"
      ],
      [
        "i",
        "ves"
      ],
      [
        "k",
        "es"
      ],
      [
        "l",
        "st"
      ],
      [
        "o",
        "in"
      ],
      [
        "o",
        "ver"
      ],
      [
        "p",
        "es"
      ],
      [
        "r",
        "ist"
      ],
      [
        "u",
        "sed"
      ],
      [
        "Ġ",
        "For"
      ],
      [
        "Ġs",
        "k"
      ],
      [
        "Ġb",
        "urn"
      ],
      [
        "on",
        "our"
      ],
      [
        "Ġd",
        "ire"
      ],
      [
        "Ġth",
        "ri"
      ],
      [
        "Ġp",
        "ay"
      ],
      [
        "Ġg",
        "ave"
      ],
      [
        "Ġfor",
        "b"
      ],
      [
        "Ġfor",
        "get"
      ],
      [
        "Ġwe",
        "ak"
      ],
      [
        "Ġre",
        "ady"
      ],
      [
        "Ġse",
        "at"
      ],
      [
        "Ġsu",
        "m"
      ],
      [
        "Ġsu",
        "cc"
      ],
      [
        "Ġlo",
        "ves"
      ],
      [
        "Ġv",
        "ict"
      ],
      [
        "Ġkn",
        "ew"
      ],
      [
        "em",
        "n"
      ],
      [
        "ond",
        "on"
      ],
      [
        "Ġthan",
        "ks"
      ],
      [
        "all",
        "y"
      ],
      [
        "ĠL",
        "ondon"
      ],
      [
        "un",
        "k"
      ],
      [
        "ĠV",
        "ols"
      ],
      [
        "el",
        "s"
      ],
      [
        "Ġri",
        "ch"
      ],
      [
        "Ġwar",
        "s"
      ],
      [
        "Ġwom",
        "en"
      ],
      [
        "Ġthr",
        "one"
      ],
      [
        "Ġbra",
        "ve"
      ],
      [
        "Ġvo",
        "ice"
      ],
      [
        "Ġvirt",
        "ue"
      ],
      [
        "Ġsat",
        "isf"
      ],
      [
        "B",
        "AL"
      ],
      [
        "I",
        "LI"
      ],
      [
        "I",
        "AN"
      ],
      [
        "J",
        "OHN"
      ],
      [
        "L",
        "est"
      ],
      [
        "M",
        "ust"
      ],
      [
        "R",
        "ome"
      ],
      [
        "R",
        "EY"
      ],
      [
        "i",
        "ant"
      ],
      [
        "p",
        "o"
      ],
      [
        "s",
        "he"
      ],
      [
        "u",
        "ous"
      ],
      [
        "Ġt",
        "ale"
      ],
      [
        "Ġm",
        "ove"
      ],
      [
        "Ġw",
        "a"
      ],
      [
        "Ġw",
        "id"
      ],
      [
        "Ġw",
        "ise"
      ],
      [
        "on",
        "a"
      ],
      [
        "en",
        "ch"
      ],
      [
        "ow",
        "ers"
      ],
      [
        "Ġin",
        "ter"
      ],
      [
        "Ġre",
        "d"
      ],
      [
        "al",
        "th"
      ],
      [
        "ĠC",
        "h"
      ],
      [
        "Ġking",
        "s"
      ],
      [
        "Ġgo",
        "es"
      ],
      [
        "Ġj",
        "est"
      ],
      [
        "ĠP",
        "aris"
      ],
      [
        "Ġex",
        "p"
      ],
      [
        "BR",
        "A"
      ],
      [
        "Ġfl",
        "atter"
      ],
      [
        "ĠMar",
        "garet"
      ],
      [
        "Ġres",
        "pect"
      ],
      [
        "Ġcha",
        "m"
      ],
      [
        "Ġcomp",
        "any"
      ],
      [
        "Al",
        "as"
      ],
      [
        "Ġrequ",
        "est"
      ],
      [
        "Ġspo",
        "ke"
      ],
      [
        "VER",
        "S"
      ],
      [
        "ĠRi",
        "chmond"
      ],
      [
        "Bec",
        "ause"
      ],
      [
        "BAL",
        "T"
      ],
      [
        "ILI",
        "A"
      ],
      [
        "B",
        "OW"
      ],
      [
        "M",
        "ake"
      ],
      [
        "S",
        "uch"
      ],
      [
        "T",
        "r"
      ],
      [
        "e",
        "orge"
      ],
      [
        "l",
        "ish"
      ],
      [
        "m",
        "b"
      ],
      [
        "u",
        "res"
      ],
      [
        "he",
        "m"
      ],
      [
        "ou",
        "n"
      ],
      [
        "Ġm",
        "ortal"
      ],
      [
        "Ġw",
        "onder"
      ],
      [
        "Ġb",
        "awd"
      ],
      [
        "Ġf",
        "ra"
      ],
      [
        "Ġd",
        "ark"
      ],
      [
        "Ġc",
        "oward"
      ],
      [
        "Ġl",
        "ad"
      ],
      [
        "ar",
        "l"
      ],
      [
        "Ġp",
        "ie"
      ],
      [
        "st",
        "and"
      ],
      [
        "Ġg",
        "ot"
      ],
      [
        "ri",
        "ght"
      ],
      [
        "Ġli",
        "ber"
      ],
      [
        "id",
        "ed"
      ],
      [
        "Ġso",
        "ft"
      ],
      [
        "ea",
        "ch"
      ],
      [
        "Ġsu",
        "dden"
      ],
      [
        "Ġne",
        "ither"
      ],
      [
        "Ġbl",
        "ess"
      ],
      [
        "ĠG",
        "AU"
      ],
      [
        "ĠG",
        "eorge"
      ],
      [
        "Ġking",
        "dom"
      ],
      [
        "ĠL",
        "ady"
      ],
      [
        "Ġwor",
        "se"
      ],
      [
        "ci",
        "ent"
      ],
      [
        "el",
        "come"
      ],
      [
        "Ġsa",
        "c"
      ],
      [
        "ĠP",
        "l"
      ],
      [
        "Ġoff",
        "ice"
      ],
      [
        "EL",
        "BOW"
      ],
      [
        "Ġbet",
        "ween"
      ],
      [
        "Ġapp",
        "ear"
      ],
      [
        "Ġmight",
        "y"
      ],
      [
        "Ġwit",
        "hal"
      ],
      [
        "Ġdre",
        "ad"
      ],
      [
        "RI",
        "VERS"
      ],
      [
        "Ġpri",
        "v"
      ],
      [
        "Ġbri",
        "ef"
      ],
      [
        "Ġdeed",
        "s"
      ],
      [
        "Ġbu",
        "y"
      ],
      [
        "Ġem",
        "b"
      ],
      [
        "Ġval",
        "iant"
      ],
      [
        "Ġlam",
        "ent"
      ],
      [
        "ĠIs",
        "ab"
      ],
      [
        "Ġord",
        "er"
      ],
      [
        "ĠGAU",
        "NT"
      ],
      [
        "A",
        "M"
      ],
      [
        "B",
        "oth"
      ],
      [
        "H",
        "old"
      ],
      [
        "S",
        "w"
      ],
      [
        "T",
        "Y"
      ],
      [
        "k",
        "ing"
      ],
      [
        "r",
        "um"
      ],
      [
        "u",
        "ght"
      ],
      [
        "u",
        "ra"
      ],
      [
        "x",
        "ford"
      ],
      [
        "Ġ",
        "KING"
      ],
      [
        "Ġt",
        "a"
      ],
      [
        "Ġa",
        "c"
      ],
      [
        "Ġm",
        "al"
      ],
      [
        "in",
        "a"
      ],
      [
        "Ġw",
        "atch"
      ],
      [
        "Ġb",
        "le"
      ],
      [
        "Ġto",
        "wn"
      ],
      [
        "et",
        "ch"
      ],
      [
        "ir",
        "m"
      ],
      [
        "Ġk",
        "ins"
      ],
      [
        "The",
        "ir"
      ],
      [
        "ea",
        "st"
      ],
      [
        "if",
        "f"
      ],
      [
        "ion",
        "s"
      ],
      [
        "Ġan",
        "cient"
      ],
      [
        "Ġv",
        "ow"
      ],
      [
        "ant",
        "ag"
      ],
      [
        "Ġpr",
        "ot"
      ],
      [
        "ic",
        "er"
      ],
      [
        "ĠH",
        "e"
      ],
      [
        "ĠS",
        "ervant"
      ],
      [
        "ere",
        "d"
      ],
      [
        "Ġex",
        "t"
      ],
      [
        "NT",
        "AG"
      ],
      [
        "Ġra",
        "ge"
      ],
      [
        "Ġhead",
        "s"
      ],
      [
        "Ġapp",
        "ro"
      ],
      [
        "Ġbeg",
        "in"
      ],
      [
        "Ġcons",
        "ent"
      ],
      [
        "Ġprince",
        "ly"
      ],
      [
        "Ġseem",
        "s"
      ],
      [
        "Ġvis",
        "it"
      ],
      [
        "Sp",
        "eak"
      ],
      [
        "Ġtrib",
        "unes"
      ],
      [
        "Ġbit",
        "ter"
      ],
      [
        "Rome",
        "o"
      ],
      [
        "NTAG",
        "UE"
      ],
      [
        "C",
        "all"
      ],
      [
        "E",
        "re"
      ],
      [
        "T",
        "EN"
      ],
      [
        "e",
        "es"
      ],
      [
        "g",
        "ing"
      ],
      [
        "g",
        "ry"
      ],
      [
        "i",
        "p"
      ],
      [
        "m",
        "and"
      ],
      [
        "o",
        "hem"
      ],
      [
        "t",
        "hat"
      ],
      [
        "Ġ",
        "N"
      ],
      [
        "Ġa",
        "ction"
      ],
      [
        "re",
        "w"
      ],
      [
        "Ġb",
        "ar"
      ],
      [
        "Ġb",
        "ab"
      ],
      [
        "Ġf",
        "rown"
      ],
      [
        "Ġf",
        "east"
      ],
      [
        "ll",
        "ow"
      ],
      [
        "Ġd",
        "ro"
      ],
      [
        "Ġc",
        "le"
      ],
      [
        "Ġc",
        "ol"
      ],
      [
        "Ġc",
        "ase"
      ],
      [
        "Ġl",
        "im"
      ],
      [
        "Ġth",
        "row"
      ],
      [
        "Ġh",
        "ot"
      ],
      [
        "Ġo",
        "pp"
      ],
      [
        "Ġof",
        "ten"
      ],
      [
        "Ġha",
        "ving"
      ],
      [
        "th",
        "umber"
      ],
      [
        "ho",
        "st"
      ],
      [
        "Ġv",
        "iol"
      ],
      [
        "one",
        "y"
      ],
      [
        "Ġtr",
        "ou"
      ],
      [
        "pe",
        "y"
      ],
      [
        "Ġen",
        "c"
      ],
      [
        "Ġdid",
        "st"
      ],
      [
        "Ġfl",
        "esh"
      ],
      [
        "Ġgentle",
        "men"
      ],
      [
        "AN",
        "IO"
      ],
      [
        "Ġsc",
        "orn"
      ],
      [
        "Ġle",
        "ad"
      ],
      [
        "Ġtri",
        "ump"
      ],
      [
        "Ġcomp",
        "l"
      ],
      [
        "Ġfault",
        "s"
      ],
      [
        "Ġdep",
        "art"
      ],
      [
        "Ġden",
        "y"
      ],
      [
        "Ġdef",
        "end"
      ],
      [
        "Wh",
        "om"
      ],
      [
        "TR",
        "ANIO"
      ],
      [
        "HOR",
        "TEN"
      ],
      [
        "Ġsucc",
        "ess"
      ],
      [
        "thumber",
        "land"
      ],
      [
        "HORTEN",
        "S"
      ],
      [
        "D",
        "IT"
      ],
      [
        "G",
        "ILIA"
      ],
      [
        "O",
        "P"
      ],
      [
        "P",
        "ER"
      ],
      [
        "V",
        "IR"
      ],
      [
        "Y",
        "es"
      ],
      [
        "Y",
        "ea"
      ],
      [
        "a",
        "ul"
      ],
      [
        "b",
        "ut"
      ],
      [
        "e",
        "en"
      ],
      [
        "j",
        "oy"
      ],
      [
        "n",
        "s"
      ],
      [
        "n",
        "own"
      ],
      [
        "s",
        "p"
      ],
      [
        "u",
        "a"
      ],
      [
        "Ġ",
        "This"
      ],
      [
        "Ġt",
        "ear"
      ],
      [
        "Ġs",
        "igh"
      ],
      [
        "Ġs",
        "ervant"
      ],
      [
        "Ġm",
        "usic"
      ],
      [
        "re",
        "y"
      ],
      [
        "Ġb",
        "en"
      ],
      [
        "Ġb",
        "ook"
      ],
      [
        "Ġf",
        "ill"
      ],
      [
        "Ġl",
        "ack"
      ],
      [
        "ar",
        "n"
      ],
      [
        "Ġth",
        "ither"
      ],
      [
        "Ġh",
        "ur"
      ],
      [
        "Ġh",
        "ide"
      ],
      [
        "Ġp",
        "en"
      ],
      [
        "le",
        "y"
      ],
      [
        "Ġu",
        "nd"
      ],
      [
        "ra",
        "w"
      ],
      [
        "Ġre",
        "b"
      ],
      [
        "Ġli",
        "ving"
      ],
      [
        "al",
        "s"
      ],
      [
        "th",
        "y"
      ],
      [
        "Ġsp",
        "eech"
      ],
      [
        "ant",
        "age"
      ],
      [
        "ĠM",
        "y"
      ],
      [
        "Ġpr",
        "in"
      ],
      [
        "ĠG",
        "REY"
      ],
      [
        "Ġwas",
        "h"
      ],
      [
        "Ġtr",
        "ump"
      ],
      [
        "Ġthen",
        "ce"
      ],
      [
        "ak",
        "en"
      ],
      [
        "Ġsa",
        "fe"
      ],
      [
        "ire",
        "d"
      ],
      [
        "Ġsl",
        "aughter"
      ],
      [
        "Ġpre",
        "pare"
      ],
      [
        "Ġsc",
        "ar"
      ],
      [
        "aint",
        "ed"
      ],
      [
        "Ġsm",
        "all"
      ],
      [
        "Ġche",
        "er"
      ],
      [
        "Ġsec",
        "ret"
      ],
      [
        "itt",
        "ed"
      ],
      [
        "Ġmer",
        "ry"
      ],
      [
        "MO",
        "NTAGUE"
      ],
      [
        "ĠCh",
        "rist"
      ],
      [
        "ohem",
        "ia"
      ],
      [
        "HORTENS",
        "IO"
      ],
      [
        "DIT",
        "A"
      ],
      [
        "PER",
        "DITA"
      ],
      [
        "VIR",
        "GILIA"
      ],
      [
        "P",
        "eace"
      ],
      [
        "S",
        "ET"
      ],
      [
        "S",
        "LY"
      ],
      [
        "W",
        "elcome"
      ],
      [
        "l",
        "s"
      ],
      [
        "s",
        "per"
      ],
      [
        "v",
        "est"
      ],
      [
        "w",
        "ill"
      ],
      [
        "Ġ",
        "id"
      ],
      [
        "Ġ",
        "est"
      ],
      [
        "Ġ",
        "ign"
      ],
      [
        "Ġb",
        "ow"
      ],
      [
        "Ġb",
        "ro"
      ],
      [
        "Ġb",
        "irth"
      ],
      [
        "Ġf",
        "ond"
      ],
      [
        "it",
        "ies"
      ],
      [
        "Ġd",
        "u"
      ],
      [
        "Ġd",
        "est"
      ],
      [
        "Ġp",
        "u"
      ],
      [
        "ot",
        "s"
      ],
      [
        "Ġg",
        "ro"
      ],
      [
        "at",
        "s"
      ],
      [
        "Ġbe",
        "c"
      ],
      [
        "Ġe",
        "as"
      ],
      [
        "Ġsha",
        "d"
      ],
      [
        "Th",
        "ink"
      ],
      [
        "th",
        "ough"
      ],
      [
        "ĠC",
        "a"
      ],
      [
        "Ġkn",
        "ee"
      ],
      [
        "Ġkn",
        "ock"
      ],
      [
        "ast",
        "ard"
      ],
      [
        "Ġbl",
        "ows"
      ],
      [
        "Ġcom",
        "ing"
      ],
      [
        "ĠO",
        "xford"
      ],
      [
        "fe",
        "it"
      ],
      [
        "Ġlove",
        "d"
      ],
      [
        "Ġus",
        "urp"
      ],
      [
        "ĠS",
        "ir"
      ],
      [
        "ĠS",
        "aint"
      ],
      [
        "Ġwor",
        "ship"
      ],
      [
        "ak",
        "ed"
      ],
      [
        "ĠP",
        "aul"
      ],
      [
        "Ġoff",
        "ence"
      ],
      [
        "Ġwr",
        "it"
      ],
      [
        "Ġpray",
        "ers"
      ],
      [
        "led",
        "ge"
      ],
      [
        "for",
        "ce"
      ],
      [
        "Ġsle",
        "w"
      ],
      [
        "St",
        "and"
      ],
      [
        "Ġlaw",
        "ful"
      ],
      [
        "Ġweep",
        "ing"
      ],
      [
        "Ġpat",
        "ient"
      ],
      [
        "MAR",
        "IAN"
      ],
      [
        "Ġsubject",
        "s"
      ],
      [
        "Ġaw",
        "hile"
      ],
      [
        "GRE",
        "MIO"
      ],
      [
        "Ġquick",
        "ly"
      ],
      [
        "ĠCoriol",
        "anus"
      ],
      [
        "Ġexec",
        "ution"
      ],
      [
        "Ġguilt",
        "y"
      ],
      [
        "ĠPom",
        "pey"
      ],
      [
        "Ġpret",
        "ty"
      ],
      [
        "Ġcham",
        "ber"
      ],
      [
        "ura",
        "l"
      ],
      [
        "MARIAN",
        "A"
      ],
      [
        "A",
        "b"
      ],
      [
        "A",
        "r"
      ],
      [
        "P",
        "AR"
      ],
      [
        "R",
        "A"
      ],
      [
        "W",
        "hi"
      ],
      [
        "h",
        "ind"
      ],
      [
        "y",
        "ing"
      ],
      [
        "y",
        "our"
      ],
      [
        "Ġ",
        "Thou"
      ],
      [
        "in",
        "es"
      ],
      [
        "Ġw",
        "ert"
      ],
      [
        "Ġf",
        "led"
      ],
      [
        "Ġf",
        "ier"
      ],
      [
        "Ġc",
        "reat"
      ],
      [
        "Ġc",
        "ertain"
      ],
      [
        "Ġc",
        "ross"
      ],
      [
        "Ġn",
        "ay"
      ],
      [
        "Ġg",
        "ar"
      ],
      [
        "Ġin",
        "j"
      ],
      [
        "Ġin",
        "s"
      ],
      [
        "Ġu",
        "r"
      ],
      [
        "Ġdo",
        "om"
      ],
      [
        "Ġno",
        "b"
      ],
      [
        "ust",
        "om"
      ],
      [
        "Ġsh",
        "ows"
      ],
      [
        "Ġwhe",
        "nce"
      ],
      [
        "ĠS",
        "t"
      ],
      [
        "ci",
        "ence"
      ],
      [
        "Ġpro",
        "ceed"
      ],
      [
        "Ġmar",
        "ch"
      ],
      [
        "Ġlea",
        "st"
      ],
      [
        "Ġad",
        "m"
      ],
      [
        "per",
        "ate"
      ],
      [
        "os",
        "ition"
      ],
      [
        "St",
        "ay"
      ],
      [
        "Ġchan",
        "ce"
      ],
      [
        "Ġdr",
        "um"
      ],
      [
        "Ġpresent",
        "ly"
      ],
      [
        "ĠEng",
        "lish"
      ],
      [
        "Ġbanish",
        "ment"
      ],
      [
        "ran",
        "io"
      ],
      [
        "Ġsold",
        "ier"
      ],
      [
        "Ġprom",
        "ise"
      ],
      [
        "Ġcond",
        "emn"
      ],
      [
        "Ġdeser",
        "ved"
      ],
      [
        "Ġwat",
        "er"
      ],
      [
        "Ġposs",
        "ess"
      ],
      [
        "Ġbreat",
        "he"
      ],
      [
        "Ġdish",
        "onour"
      ],
      [
        "Ġwid",
        "ow"
      ],
      [
        "ĠIsab",
        "el"
      ],
      [
        "antag",
        "en"
      ],
      [
        "PAR",
        "IS"
      ],
      [
        "B",
        "es"
      ],
      [
        "P",
        "l"
      ],
      [
        "a",
        "wn"
      ],
      [
        "h",
        "ouse"
      ],
      [
        "i",
        "est"
      ],
      [
        "m",
        "ed"
      ],
      [
        "o",
        "or"
      ],
      [
        "r",
        "or"
      ],
      [
        "v",
        "ol"
      ],
      [
        "Ġ",
        "X"
      ],
      [
        "Ġ",
        "ut"
      ],
      [
        "Ġa",
        "p"
      ],
      [
        "Ġs",
        "ur"
      ],
      [
        "Ġs",
        "ho"
      ],
      [
        "Ġm",
        "ed"
      ],
      [
        "Ġm",
        "id"
      ],
      [
        "Ġw",
        "ed"
      ],
      [
        "Ġb",
        "ur"
      ],
      [
        "Ġb",
        "ase"
      ],
      [
        "Ġf",
        "am"
      ],
      [
        "Ġf",
        "etch"
      ],
      [
        "es",
        "sed"
      ],
      [
        "Ġl",
        "ab"
      ],
      [
        "Ġo",
        "b"
      ],
      [
        "Ġp",
        "it"
      ],
      [
        "Ġp",
        "ain"
      ],
      [
        "Ġhe",
        "ld"
      ],
      [
        "ing",
        "er"
      ],
      [
        "ing",
        "ly"
      ],
      [
        "at",
        "ors"
      ],
      [
        "Ġbe",
        "ast"
      ],
      [
        "se",
        "m"
      ],
      [
        "se",
        "t"
      ],
      [
        "Ġin",
        "no"
      ],
      [
        "ed",
        "s"
      ],
      [
        "Ġme",
        "asure"
      ],
      [
        "Ġre",
        "ign"
      ],
      [
        "Ġno",
        "ise"
      ],
      [
        "il",
        "es"
      ],
      [
        "Ġkn",
        "eel"
      ],
      [
        "ast",
        "ers"
      ],
      [
        "ĠM",
        "erc"
      ],
      [
        "end",
        "ed"
      ],
      [
        "Ġshe",
        "pherd"
      ],
      [
        "Ġlet",
        "ter"
      ],
      [
        "Ġlet",
        "ters"
      ],
      [
        "Ġun",
        "c"
      ],
      [
        "ĠB",
        "ohemia"
      ],
      [
        "Ġal",
        "most"
      ],
      [
        "ign",
        "ior"
      ],
      [
        "Ġper",
        "form"
      ],
      [
        "ull",
        "y"
      ],
      [
        "Ġlong",
        "er"
      ],
      [
        "Ġwom",
        "b"
      ],
      [
        "ru",
        "pt"
      ],
      [
        "Ġwit",
        "ness"
      ],
      [
        "Ġtre",
        "ason"
      ],
      [
        "Ġgl",
        "ad"
      ],
      [
        "be",
        "y"
      ],
      [
        "Ġdr",
        "ink"
      ],
      [
        "bl",
        "ing"
      ],
      [
        "Ġprison",
        "er"
      ],
      [
        "Ġvirt",
        "uous"
      ],
      [
        "Ġdisp",
        "atch"
      ],
      [
        "Ġdam",
        "n"
      ],
      [
        "Ġlad",
        "ies"
      ],
      [
        "antagen",
        "et"
      ],
      [
        "D",
        "e"
      ],
      [
        "D",
        "OR"
      ],
      [
        "E",
        "W"
      ],
      [
        "M",
        "ar"
      ],
      [
        "R",
        "UCH"
      ],
      [
        "T",
        "IUS"
      ],
      [
        "b",
        "it"
      ],
      [
        "e",
        "em"
      ],
      [
        "g",
        "ue"
      ],
      [
        "u",
        "let"
      ],
      [
        "Ġt",
        "or"
      ],
      [
        "Ġt",
        "ent"
      ],
      [
        "Ġs",
        "us"
      ],
      [
        "Ġm",
        "od"
      ],
      [
        "Ġm",
        "ild"
      ],
      [
        "in",
        "ius"
      ],
      [
        "Ġw",
        "ild"
      ],
      [
        "er",
        "le"
      ],
      [
        "Ġl",
        "en"
      ],
      [
        "Ġl",
        "ow"
      ],
      [
        "Ġl",
        "aid"
      ],
      [
        "ve",
        "y"
      ],
      [
        "Ġg",
        "all"
      ],
      [
        "Ġfor",
        "m"
      ],
      [
        "Ġst",
        "eel"
      ],
      [
        "Ġre",
        "f"
      ],
      [
        "Ġli",
        "ved"
      ],
      [
        "id",
        "er"
      ],
      [
        "ur",
        "s"
      ],
      [
        "ck",
        "s"
      ],
      [
        "ver",
        "n"
      ],
      [
        "Ġdo",
        "g"
      ],
      [
        "am",
        "es"
      ],
      [
        "Ġv",
        "ain"
      ],
      [
        "Ġkn",
        "ees"
      ],
      [
        "Ġpr",
        "ithee"
      ],
      [
        "ĠG",
        "aunt"
      ],
      [
        "Ġwould",
        "st"
      ],
      [
        "Ġshe",
        "d"
      ],
      [
        "ĠL",
        "u"
      ],
      [
        "ĠL",
        "et"
      ],
      [
        "ĠL",
        "EW"
      ],
      [
        "Ġwor",
        "st"
      ],
      [
        "Ġpro",
        "sper"
      ],
      [
        "Ġhad",
        "st"
      ],
      [
        "ĠW",
        "atch"
      ],
      [
        "ĠP",
        "r"
      ],
      [
        "Ġspeak",
        "s"
      ],
      [
        "Ġad",
        "d"
      ],
      [
        "Ġpri",
        "de"
      ],
      [
        "LAR",
        "TIUS"
      ],
      [
        "Ġgl",
        "ory"
      ],
      [
        "Ġwo",
        "es"
      ],
      [
        "ates",
        "by"
      ],
      [
        "Ġinst",
        "ru"
      ],
      [
        "Ġsent",
        "ence"
      ],
      [
        "Ġsec",
        "ond"
      ],
      [
        "ĠNor",
        "thumberland"
      ],
      [
        "Ġgold",
        "en"
      ],
      [
        "Ġtoward",
        "s"
      ],
      [
        "ĠCap",
        "ulet"
      ],
      [
        "PET",
        "RUCH"
      ],
      [
        "Ġcloud",
        "s"
      ],
      [
        "Ġvict",
        "ory"
      ],
      [
        "oun",
        "ter"
      ],
      [
        "Ġkins",
        "man"
      ],
      [
        "Ġbec",
        "ause"
      ],
      [
        "ĠX",
        "I"
      ],
      [
        "ĠLEW",
        "IS"
      ],
      [
        "ĠWatch",
        "man"
      ],
      [
        "PETRUCH",
        "IO"
      ],
      [
        "D",
        "oth"
      ],
      [
        "E",
        "n"
      ],
      [
        "S",
        "u"
      ],
      [
        "S",
        "AM"
      ],
      [
        "T",
        "oo"
      ],
      [
        "b",
        "b"
      ],
      [
        "b",
        "ray"
      ],
      [
        "f",
        "fect"
      ],
      [
        "g",
        "ment"
      ],
      [
        "h",
        "n"
      ],
      [
        "h",
        "im"
      ],
      [
        "i",
        "ance"
      ],
      [
        "o",
        "hn"
      ],
      [
        "p",
        "ir"
      ],
      [
        "v",
        "ail"
      ],
      [
        "Ġa",
        "y"
      ],
      [
        "Ġs",
        "hi"
      ],
      [
        "Ġs",
        "aint"
      ],
      [
        "Ġm",
        "ut"
      ],
      [
        "Ġb",
        "roke"
      ],
      [
        "is",
        "ure"
      ],
      [
        "Ġf",
        "ought"
      ],
      [
        "ll",
        "y"
      ],
      [
        "Ġd",
        "eter"
      ],
      [
        "Ġc",
        "itizens"
      ],
      [
        "ar",
        "ing"
      ],
      [
        "Ġp",
        "et"
      ],
      [
        "ow",
        "bray"
      ],
      [
        "Ġbe",
        "nd"
      ],
      [
        "Ġbe",
        "hind"
      ],
      [
        "Ġin",
        "d"
      ],
      [
        "Ġha",
        "p"
      ],
      [
        "et",
        "y"
      ],
      [
        "Ġnot",
        "e"
      ],
      [
        "Ġe",
        "ffect"
      ],
      [
        "Ġst",
        "ood"
      ],
      [
        "Ġst",
        "eal"
      ],
      [
        "ur",
        "ch"
      ],
      [
        "Ġde",
        "pose"
      ],
      [
        "ea",
        "se"
      ],
      [
        "ue",
        "l"
[...]
